[PAD]
[UNK]
[CLS]
[SEP]
[MASK]
0
1
2
3
4
5
6
7
8
9
_
a
b
c
d
e
f
g
h
i
j
k
l
m
n
o
p
q
r
s
t
u
v
w
x
y
z
ª
²
³
µ
¹
º
¼
½
¾
ß
æ
ø
đ
ı
ĳ
ĸ
ł
ŋ
œ
ŧ
ƌ
ƒ
ƙ
ƪ
ƴ
ɑ
ɓ
ɔ
ɗ
ə
ɛ
ɨ
ɪ
ɴ
ʀ
ʃ
ʋ
ʏ
ʔ
ʕ
ʖ
ʘ
ʟ
ʰ
ʲ
ʳ
ʷ
ʸ
ʻ
ʿ
ˀ
ˆ
ˇ
ˈ
ˊ
ˋ
ˍ
ˎ
ˏ
ˡ
ˢ
α
β
γ
δ
ε
η
θ
ι
κ
λ
ξ
ο
π
ρ
ς
σ
τ
υ
φ
χ
ψ
ω
ϑ
ϟ
а
б
в
д
е
з
и
к
м
н
о
п
р
с
т
х
ч
щ
ь
я
є
ѕ
ғ
ӄ
ө
ԅ
ժ
ղ
մ
ט
ء
ا
ب
ة
ت
ث
ج
ح
خ
د
ذ
ر
ز
س
ش
ص
ض
ط
ظ
ع
غ
ـ
ف
ق
ك
ل
م
ن
ه
و
ى
ي
٥
٩
ٱ
ٹ
ټ
پ
چ
ڑ
ڡ
ک
گ
ں
ھ
ہ
ی
ے
ۦ
۰
۲
۳
۶
ܫ
ࡇ
अ
आ
उ
क
ग
च
ज
झ
ट
ठ
ड
ण
त
थ
द
न
प
फ
ब
भ
म
य
र
ल
व
ष
स
ह
ਜ
ਵ
੭
દ
૮
୧
୨
அ
இ
க
ச
ஜ
ட
த
ன
ப
ம
ர
ற
ள
ழ
வ
౪
ಒ
ಗ
ಠ
ಡ
ಢ
ತ
ಥ
ರ
ಲ
ಸ
බ
ෆ
ก
ข
ค
ฅ
ฆ
ง
จ
ฉ
ช
ซ
ญ
ฎ
ฏ
ณ
ด
ต
ถ
ท
ธ
น
บ
ป
ผ
พ
ฟ
ภ
ม
ย
ร
ฤ
ล
ว
ศ
ษ
ส
ห
อ
ฮ
ะ
า
ำ
เ
แ
โ
ใ
ไ
ๆ
๑
๔
๕
๖
ຈ
ཀ
ა
ლ
ღ
ᄋ
ᄎ
ᄏ
ᄑ
ᅠ
ᕕ
ᕗ
ᕙ
ᕤ
ᕦ
ᕼ
ᗒ
ᗕ
ᗜ
ᗢ
ᗩ
ᝰ
ᥬ
ᨳ
᪀
ᮔ
ᮙ
ᮜ
ᯅ
ᴀ
ᴄ
ᴇ
ᴍ
ᴏ
ᴖ
ᴗ
ᴜ
ᴥ
ᴬ
ᴮ
ᴰ
ᴱ
ᴳ
ᴴ
ᴵ
ᴶ
ᴷ
ᴸ
ᴹ
ᴺ
ᴼ
ᴾ
ᴿ
ᵀ
ᵁ
ᵃ
ᵇ
ᵈ
ᵉ
ᵍ
ᵎ
ᵏ
ᵐ
ᵒ
ᵔ
ᵕ
ᵖ
ᵗ
ᵘ
ᵛ
ᵞ
ᵤ
ᵧ
ᶜ
ᶠ
ᶤ
ᶦ
ᶰ
⁰
ⁱ
⁴
⁹
ⁿ
₃
ₒ
ℂ
ℍ
ℓ
ℕ
ℝ
ℯ
ℹ
⅓
⅔
ⅱ
①
②
③
④
⑤
##e
##r
##y
##w
##o
##s
##i
##h
##k
##u
##t
##d
##n
##a
##p
##m
##b
##g
##l
##j
##2
##9
##1
##0
##f
##v
##z
##4
##5
##c
##x
##²
##3
##ϟ
##8
##q
##7
##6
##ย
##ใ
##จ
##เ
##ธ
##อ
##ق
##و
##م
##ن
##ᵃ
##ⁿ
##ᵍ
##ξ
##ε
##τ
##υ
##ρ
##ƒ
##α
##м
##ح
##ب
##แ
##ม
##ل
##ى
##ا
##ر
##چ
##ة
##ᵉ
##ʰ
##ѕ
##ι
##н
##ʔ
##ي
##ı
##ಥ
##น
##ச
##د
##т
##η
##س
##ผ
##ง
##ค
##ฟ
##ซ
##ก
##ล
##ช
##พ
##ว
##ะ
##ش
##ه
##ع
##ف
##ศ
##ج
##æ
##ذ
##ղ
##ப
##ك
##ป
##غ
##ʳ
##ᵘ
##ط
##º
##ت
##ต
##บ
##γ
##ʸ
##ด
##в
##ĸ
##⁰
##म
##ᗜ
##ˋ
##ی
##த
##ம
##ᵒ
##ᵐ
##ᵇ
##ⁱ
##ᶜ
##ƙ
##า
##त
##ᴬ
##ᵁ
##ส
##ˇ
##³
##ز
##ω
##ᕕ
##ह
##ᵗ
##ᄏ
##ร
##ԅ
##ʻ
##ಠ
##ฮ
##ص
##ـ
##ᵏ
##ᴰ
##ᴴ
##ø
##ห
##ظ
##ข
##ک
##ℹ
##о
##и
##ª
##б
##ء
##щ
##ᴵ
##ᴾ
##ฉ
##خ
##ˢ
##ˆ
##ʃ
##ƪ
##ˊ
##क
##д
##๖
##κ
##๑
##ᶦ
##न
##ˡ
##ہ
##ᄑ
##ᄋ
##ß
##ₒ
##ᵤ
##ถ
##ᗩ
##ᗕ
##ท
##я
##а
##к
##ʲ
##⁴
##ᴶ
##ᴷ
##ᴸ
##ल
##ᴱ
##ᴿ
##ᴹ
##ฏ
##ᅠ
##ᵈ
##¾
##χ
##ο
##ʕ
##ɓ
##ไ
##گ
##ӄ
##இ
##ᵖ
##ᶰ
##ᵕ
##ھ
##ں
##ˎ
##ɑ
##⁹
##ᶠ
##ɨ
##ன
##с
##ɗ
##е
##ᴥ
##ᵔ
##٩
##ग
##ठ
##प
##ர
##ℕ
##ಗ
##ᴗ
##ʘ
##โ
##½
##ᴺ
##µ
##੭
##ๆ
##ʖ
##ᴳ
##ण
##¹
##ℝ
##ٹ
##¼
##ے
##द
##ł
##ɛ
##ℓ
##σ
##մ
##ᵀ
##ʏ
##ɴ
##ᴏ
##ᴜ
##ʀ
##ᴇ
##ˀ
##ʿ
##х
##ь
##ᴀ
##π
##ĳ
##ᕙ
##ᶤ
##र
##ᵛ
##ʷ
##ˈ
##λ
##ब
##ض
##ლ
##є
##ғ
##ɪ
##ڑ
##œ
##க
##ə
##φ
##ℂ
##ℍ
##ᴍ
##ʟ
##ᴮ
##ᴼ
##đ
##ฆ
##ث
##ಒ
##ฤ
##ษ
##ฎ
##ள
##๔
##स
##۰
##۲
##an
##er
##en
##ak
##ah
##in
##ar
##at
##al
##ang
##am
##as
##ya
se
##ap
ke
##un
##ik
##is
##uk
##ad
##it
##em
##el
##us
##on
di
##ing
ak
##ur
##eng
##au
##nya
##et
##ir
##es
in
##il
ber
ng
##ih
##ul
##um
##ut
##ga
##id
ter
per
##pa
##ek
ga
##ama
men
dan
aku
##ti
##ol
or
mas
##or
gu
ya
##ung
an
##dah
##ag
##api
##ok
##im
ini
##kan
##uh
##anya
tapi
orang
##eb
har
##isa
##ta
##alah
##adi
sem
mau
sa
##uat
##ong
sama
bisa
tak
tid
##om
ba
##ita
##ai
mem
ju
##eh
apa
##ba
##yak
##up
##angan
gue
sel
##asa
kam
##ep
##ia
##os
##ot
##akan
##ada
udah
##apa
##ja
un
gak
##ara
##end
tidak
##ent
##ian
meng
##eg
ban
##ed
##ata
##ukan
ma
##ua
dia
##amp
kita
bang
lu
kal
##lah
##ati
##ab
##tuk
kamu
juga
deng
bel
sek
jadi
al
ker
pr
kar
##ana
mer
untuk
buat
##ant
##uka
##ri
ka
##asi
bar
ken
banyak
ben
##ari
dengan
##uma
bi
##da
mak
##alam
gua
##unya
kel
ny
hari
saya
##tu
tem
##wa
##alu
masih
kes
bg
##alan
##ebih
akan
gw
tan
jangan
su
##per
##ow
peng
banget
##uran
ket
##ib
em
harus
seb
##od
bgt
##aj
lebih
##inta
##iri
##aa
##ikir
##kw
##atan
##ena
pak
memb
##ulu
bukan
##agi
##inya
##ingg
tr
##si
mel
bener
semua
##ikan
tanpa
##ew
pem
kem
send
si
en
kalau
baru
ni
lo
karena
##ter
ap
##amb
baik
##and
##op
am
takut
pen
tu
kas
##idup
kerja
ku
##nah
##ju
dis
##ay
tp
cuma
keb
##mu
##ali
anj
sendiri
pas
##uar
at
ti
pada
as
bah
##tah
##aw
##ini
st
##ob
tah
ses
##ont
##eka
terus
##gak
ser
##ny
pernah
##usah
##ac
##arang
masalah
punya
##angg
##oh
samp
suka
hidup
dulu
tet
li
mal
##ub
jam
##ikin
sed
##ilang
mereka
dalam
hal
##umah
kenapa
malah
##atu
##aran
##anj
##kr
##ca
do
##ku
##na
th
##isi
ad
dib
ing
keluar
##ud
##ec
anak
bikin
##jadi
kep
nggak
mac
##elah
selalu
temen
sen
pengen
makan
##akar
##nyata
##hh
kau
co
nak
is
bers
dik
sudah
neg
##hir
berh
jalan
##anti
ternyata
so
##ee
##aling
##ind
diri
##kin
pake
##gi
##yang
##af
hati
dit
bes
salah
rumah
##annya
tidur
sampe
org
##enting
##hat
meny
ik
##imana
##akarta
man
20
sekarang
bol
##tif
satu
hanya
##angat
##ain
pad
makin
##ip
dap
##asil
nger
seles
ab
emang
dr
wkw
sh
bl
jakarta
kalian
##erin
wak
ind
##ahah
tw
ar
##ika
mend
penting
biar
##ahal
selesai
##aku
set
pul
allah
bal
liat
##aturan
##adang
menc
perc
##le
##orang
##ic
##itu
pos
peraturan
seg
sak
dir
##if
terl
tahun
##elas
mu
beli
cinta
mag
saat
pasti
min
##uhan
mo
##ker
##ila
paling
sam
##apan
susah
##asih
ef
##lu
##ungg
lama
war
##arah
bilang
belum
##angk
kur
kasus
us
kec
gimana
boleh
##orm
##ump
kr
##onton
##ungkin
##ve
re
anda
bak
mul
##jur
pagi
##ahan
##ck
waktu
akhir
##og
##emb
##ajar
##ala
percuma
macet
rasa
##ch
kaya
gaada
##ng
dip
sm
pl
eh
padahal
anjing
ko
beg
##inggal
##erintah
mager
sol
pemerintah
sakit
##imp
menjadi
efek
dim
biasa
kata
cap
##usi
##pai
mungkin
masa
seba
aw
seper
pel
##ij
##asan
cer
ch
##asanya
tol
nonton
jujur
##aha
##pat
beb
main
seti
dil
##st
##angs
##ones
##angis
##ii
##akukan
nong
##ihat
siapa
sayang
nanti
nam
##ans
ag
masker
kon
ib
kayak
##oga
masuk
sampai
br
##uli
##yat
aturan
dong
ang
on
ketika
##uan
ek
efektif
gr
##ehatan
##anc
sekali
but
##krong
jelas
mengh
sep
soal
kurang
##pun
kesehatan
##anjang
la
##oo
##ulan
nongkrong
##atif
##apun
##epan
prot
pac
pert
bu
##ima
##agia
cew
gab
rak
##akin
##onesia
##gn
diper
seperti
##imu
##oll
du
tent
berk
ingin
semoga
ja
##uatu
##amat
malam
##sa
ngel
lupa
kat
##erah
##jak
##usia
##uu
bag
tuhan
yo
dapat
enak
pin
##emu
karna
##ist
##angsung
ikut
##yar
##ci
besok
balik
rakyat
##gai
doang
ay
na
setiap
##itif
tai
##auh
kom
##alau
tiba
member
##ikiran
tetap
sangat
##est
langsung
keh
manusia
ters
##ver
dat
##unia
ta
sp
##ine
ol
##ilih
abis
to
##eda
10
belajar
kadang
berhasil
membuat
bakal
ah
##inggu
##emp
positif
berb
##unggu
me
ngom
nangis
indonesia
negatif
up
dek
kak
kena
##asaan
##usan
twit
da
tadi
kasih
##19
##okol
id
km
##re
ngga
tim
mikir
solusi
eng
protokol
sad
##omi
##ingk
cara
seh
##ormal
##ess
##li
##uruh
##arin
um
terlalu
dem
ok
##aman
wkwkw
tiap
je
##aruh
bagi
##20
dunia
depan
##atuh
##ilik
##ungan
terk
##bar
skr
ac
gt
##uj
minta
ngomong
sese
wkwk
##int
##mm
##caya
it
cow
normal
sedih
sk
kir
duit
go
rasanya
mes
seseorang
warga
##ilah
##gas
iya
malem
sebel
bet
baca
no
##ore
mulai
lag
##sh
mus
uj
pulang
##lo
trus
perlu
aj
td
##tar
kn
cep
sy
gap
##eet
bahagia
##itas
oleh
yaa
kek
lap
##pr
tempat
##tt
gk
kebij
pergi
##arnya
ekon
seben
pemb
##oto
butuh
##ra
and
pol
sering
tentang
##ambil
cerita
##ss
res
ekonomi
mati
apapun
kebijakan
##aks
ot
##eran
maaf
berd
##enang
kang
sedang
twitter
jauh
##oy
setelah
nik
mat
cuk
mulu
##pe
akhirnya
anjir
bert
cari
selamat
tolong
siap
##und
sadar
##ff
awal
buka
ked
nge
teman
##ly
tel
teng
par
bangun
kh
coba
tahu
##gh
pd
##aham
bat
the
##uman
##ebut
bod
##baik
terb
mata
im
pend
ex
##hl
de
##olah
bap
bulan
tinggal
bing
##ate
hahah
te
##enc
negara
##tuju
##vid
##apat
##abis
gam
bad
##mn
##erapa
kami
dl
semangat
akun
minggu
##uru
bila
ped
gat
capek
marah
setuju
berp
air
##jalan
sebelum
dapet
bingung
ngaruh
telah
##ina
##panjang
walau
wa
##iku
trs
##kk
sesuatu
##unt
kab
##ingan
ngapa
perasaan
##ukur
males
ibu
skrg
cukup
##ewat
##amu
##ani
trans
##osi
##ase
put
ngerasa
tetep
kemb
jaw
##ambah
berl
##tr
il
kangen
mand
##omb
selama
amb
##usaha
ketemu
##ingin
cewek
buk
pus
diperpanjang
kuat
##eri
did
pes
bawa
##ses
pan
##kt
benar
bagus
##ulit
merasa
##umpah
heh
jok
##iran
had
bis
naik
chat
percaya
suk
##apkan
##aaaa
sec
ul
jawab
##buh
soalnya
##arti
##00
lib
mamp
sb
apal
inf
sej
besar
##dul
covid
mis
##urut
begitu
##illah
emg
krn
##aki
##ollow
semakin
##ie
##akah
##anan
uang
##pada
gabisa
ha
##atnya
tugas
dua
datang
##ers
##iliki
luar
##are
##ubah
sebab
##di
##th
he
kons
atas
lagu
mb
kepada
sumpah
dih
op
gara
kapan
##all
ur
ketat
##epas
memper
str
##utup
be
##uah
berarti
##ura
seneng
apalagi
##wan
kl
kembali
ob
pertama
##ami
gatau
##ernya
foto
agar
macam
kuli
hp
pacar
sini
jgn
##erja
lewat
pers
##arkan
maka
bahwa
dic
##21
gil
habis
##awat
dari
##gg
##pt
##ahab
##aja
pakai
##ahat
nanya
kont
daerah
pikiran
bo
mut
##akhir
kuliah
##antik
mar
muka
bahkan
jad
##otor
gila
sebagai
bek
##uc
bos
jaga
daripada
##ham
melakukan
mant
##yum
pro
mengg
##ink
beberapa
##impi
##yi
##ide
berg
bur
yah
beda
##aknya
menj
bt
##ast
kecil
amat
##ulis
semu
##rr
ama
##ys
om
##ye
sekolah
terjadi
##tinya
##yk
terbaik
##itik
##unc
tik
##mas
##una
tetapi
kesel
dimana
sebuah
we
##own
sambil
cak
mencinta
##iat
melihat
##baikan
rib
tua
le
##oba
gag
##ikit
nama
##inggi
sabar
hat
ram
kira
keluarga
kos
##anda
##urun
dm
##go
berhar
##line
sup
##ill
##ki
knp
##anjut
kag
ut
##enti
aneh
seri
##ho
usah
namun
##one
##kn
follow
ngapain
##opi
fr
ingat
mudah
inget
##ank
##hamdul
kp
mandi
sl
##okok
hap
lem
pand
es
car
cantik
nyari
##awan
dig
apakah
##era
tt
##allah
alhamdul
##iti
tanya
19
ye
##yukur
blm
rep
tangg
kemarin
segala
##ji
##ber
bapak
band
beneran
mc
mending
##ahas
bareng
my
bersama
mimpi
terima
katanya
##ma
wkwkwk
peduli
bot
yuk
cu
sana
terh
fil
terkadang
##rol
alasan
segini
namanya
des
##ort
08
nasi
bab
ngeb
pikir
huj
##sk
cuman
tuk
minum
baju
##art
dos
semuanya
##entar
berusaha
yau
2019
##tiv
kor
ra
##unj
tangan
kota
##ust
nunggu
##yo
##ha
walaupun
ngan
##anyak
bantu
##ilan
pilih
##ongan
##ej
##aren
keras
hub
para
cewe
kemana
sahab
badan
ganti
##onal
disini
terp
luc
sampah
##tai
hasil
menurut
ant
seorang
##okus
ist
##lam
motor
nikah
sok
demi
kej
gagal
baga
##antu
##wah
you
peny
ngerti
ment
##utan
##nn
alhamdulillah
##ingga
##asar
##tim
con
##gr
sd
##ake
transisi
cepet
loh
deket
jel
cowok
##aaa
tdk
ig
##uang
berm
semp
dikit
sehat
com
sesu
secara
sur
diem
hr
cowo
jum
sukses
##ewa
kehidup
mampu
siang
bersyukur
##pl
##ibuk
suatu
##upakan
el
belom
wan
tinggi
jokow
ged
##yy
pusing
otak
mener
##pp
cm
pant
##enya
sal
memiliki
harga
ins
##akat
saling
##obil
sc
sat
12
malu
kehidupan
##iv
cape
gel
fokus
ia
ngantuk
dew
tengah
##pon
hujan
gamau
paham
tl
##ulus
reb
sesuai
huh
inter
##ode
med
##ilai
##tion
ps
berharap
##ilangan
kelas
kant
berapa
tweet
pacaran
kaga
lepas
##ory
hmm
cur
sw
niat
giliran
biasanya
##tawa
sebenernya
indah
berat
##anggar
vide
gi
tenang
hehe
mur
kamp
lakukan
mama
##engk
##alahan
##bang
##yan
##erak
jatuh
mendapat
situ
gem
bun
diam
bb
sibuk
dirimu
lucu
sebenarnya
##ps
kemaren
##uduk
##ajak
kehilangan
gant
nyaman
dekat
##ikut
oh
bagaimana
unt
##enda
waj
##yakit
tep
##urus
rt
tpi
cepat
##ght
ngasih
barang
##tahan
##der
mobil
jar
kerjaan
##atkan
nk
dlm
meninggal
pe
pu
sahabat
ren
yaudah
##min
wis
sik
ri
##ix
lt
##cing
masing
sehar
##ulah
haha
entah
##ct
##ect
bodoh
##ungguh
##ungk
##ebat
kenal
rind
jokowi
ji
sedikit
pap
usaha
##se
##mat
##ni
##ike
tok
##2nya
##odoh
mood
##angi
gmn
##atuhi
for
##2an
##juang
video
##ela
berubah
##eki
##angga
##iswa
##angun
ntar
##alis
turun
pek
##ce
cr
laki
kamar
serius
diba
gapapa
dasar
##ram
of
engga
##obl
jual
##oc
heran
##vel
##unakan
kud
pat
film
yak
##ost
pres
##lik
##hhh
2020
##ohon
penuh
hilang
tek
##aksin
##ampang
rek
perk
##adap
##ensi
2021
pula
##ial
##la
mencari
seng
rame
senyum
rebahan
lihat
inst
ayo
doi
##de
buruk
##ual
sulit
##ihan
##adaan
##amai
berasa
yakin
ambil
nya
bayar
libur
tuju
menang
din
##usnya
pon
selain
tiket
##erti
kepala
##imak
##res
##ampir
tert
##eta
tb
benci
##ambut
ganteng
wanita
ham
dar
##jaga
##fa
fak
ev
tar
islam
kyk
##isah
sia
bebas
masyar
untung
asli
keren
gar
dpt
sma
duduk
guys
##kwkw
mod
##etik
##paya
arah
betul
##anding
dikasih
time
munc
wo
##tor
asal
##umpul
##uju
kantor
##ue
##ukung
senang
##uni
##ona
teg
rindu
maks
sin
sab
##ash
panjang
panas
##asakan
angg
##engah
kabar
dij
cek
##ambat
ujung
##alem
jog
off
umur
dg
##ahagia
jelek
##ack
nd
201
sum
terakhir
##etw
kayaknya
make
muncul
dateng
hahaha
##ampak
emosi
11
gas
##onya
##itar
kesalahan
##bb
gausah
huk
##ote
prod
pet
bs
uda
##zz
ngob
kond
30
##uta
ne
mud
hampir
ger
##ban
masyarakat
mantan
putus
bodo
mencintai
kay
parah
##gk
jen
leb
plis
sore
kawan
##date
begini
oke
##anyakan
makanan
##48
##ream
berani
dri
sta
##ure
##lim
acara
vaksin
keadaan
##ome
berhenti
dok
day
belak
##jain
##her
dll
##ens
##alik
buang
ed
yaallah
kucing
isi
kopi
##iden
##ember
##atis
##teri
hubungan
po
dirumah
doa
dh
cont
suara
##ro
ngobrol
jer
lanjut
gada
nyes
sekal
denger
jarang
##tb
pdhl
exo
##uda
bukannya
##isik
##angka
gampang
##cinta
kalah
lanc
prom
mencoba
##rib
##uto
jaman
##ull
dewasa
sendir
hy
##hy
##ahu
##ahasiswa
info
##fir
##ard
ngeliat
##atur
##angkat
##ka
##ori
##emen
##ord
gede
net
berpikir
memba
ngerjain
aman
##day
ketawa
##akuin
##ota
##nt
##ke
deg
menit
##enal
lay
##apin
mcm
##ingkat
##oa
##etan
##emi
urusan
galau
tujuan
mon
update
pgn
happ
ali
bum
cl
bus
story
post
##eli
hai
##omp
adanya
##ation
masi
wah
##ug
tum
online
##ry
adek
like
##nis
##erh
seru
pc
muda
memberi
obat
nom
orang2
##anji
ujian
terhadap
peremp
makasih
##anggil
love
mental
disuruh
bangs
hukum
##tahun
##we
##sp
15
nah
##akak
antara
##amanya
mikirin
ml
##atas
drama
shop
pindah
harusnya
00
agama
apaan
##ikm
ilang
ro
##antung
##oleh
mahal
rambut
keli
stat
ikatan
dah
pura
ru
##sia
hingga
##jo
lancar
##rak
mudik
bn
suruh
dibilang
hi
ple
tiba2
##ulang
liburan
benda
nar
disa
kepikiran
lah
rez
kore
##imb
##kt48
menghar
##urna
bac
tepat
real
rp
penc
kecewa
##ity
##inan
##imakasih
kah
sehari
##jek
tersebut
##oses
ribet
tanggal
##ilaf
##2019
keliatan
memilih
perempuan
##qu
ngajak
kelar
pasangan
sing
##entara
ih
bener2
menyes
bales
gen
rendah
jahat
kebanyakan
dengerin
##fe
##su
##any
sar
hel
##ood
##obi
kap
##vi
aing
enggak
sementara
##alaman
peg
perb
mengel
##uhkan
kaki
lel
acc
##tan
kt
##ite
simp
hak
kayanya
##kah
lamp
fe
##andom
memp
esok
100
##bum
jodoh
malay
buku
bts
super
kun
list
##pk
konser
bahasa
memberikan
bentar
kebahagia
minat
bertahan
all
jat
ampe
isinya
tutup
##olak
mam
##atakan
lock
kasian
##ira
harapan
tentu
##xt
supaya
anaknya
ngeh
##uatan
imp
nilai
mr
please
art
mari
twt
gol
tunggu
kebahagiaan
prib
kedua
##ipun
meninggalkan
##emukan
presiden
##iz
sun
makanya
bakalan
##apai
berada
happy
bekerja
##hlas
##eksi
mbak
sejak
##ingat
melanggar
produk
stress
ud
ayah
bandung
mesti
##age
kaget
##irahat
##anggu
##men
##usak
##eee
##lan
##hhhh
misal
##imin
huhu
kalim
vir
##eles
menya
pekerja
##unjuk
senin
##cin
##omblo
##man
##ainnya
masak
laper
grup
nct
nj
perut
##down
pokok
gpp
jarak
sn
##ass
uc
##ullah
##etweet
dikir
teh
terimakasih
gobl
fans
berc
##ilafah
##rip
mom
mesk
mulut
bub
##ahkan
tv
bud
nyamp
indo
##antai
sendirian
tambah
curhat
pal
album
##ajaran
duh
##ayah
mn
##oro
maen
idol
meskipun
##esan
bangsat
beban
asik
##anggap
##aya
##cok
kudu
bagian
cakep
malaysia
fa
##amin
##wal
dirinya
korea
pi
dilakukan
##encana
##ikasi
mba
abang
sos
##ihak
good
ver
berita
##angkah
sepi
##uti
part
top
menunggu
ikutan
berjuang
her
kesemp
diajak
##med
apa2
kebaikan
ditanya
sekitar
tengok
cakap
##inget
mohon
kakak
ngec
##ekat
engk
proses
lelah
wakt
##ito
##yu
mm
jiwa
terlihat
ph
##ft
##alui
negeri
wajah
what
##ungi
##ell
kampus
21
sosi
gaj
dep
ilmu
end
bed
not
terd
jomblo
##arik
##aikan
##yah
wor
##aan
##engg
duluan
bosen
nab
dosa
##iman
bas
##esar
##uali
##anggung
over
gun
open
menteri
ngeluh
##rik
ulang
pribadi
rem
##han
gaper
lainnya
##udian
sg
sus
dibuat
sedangkan
##itanya
intern
##port
##ond
pilihan
##ikirkan
gaji
keny
hebat
seluruh
##elin
alias
yaaa
btw
pulak
emak
##gs
murah
jogja
istirahat
manis
mendapatkan
ikhlas
##agian
bangga
stream
sebelah
guru
##me
jdi
situasi
pk
menangis
skin
##aksa
##use
##olo
##entuk
ast
gara2
##erita
##bat
kac
au
##erima
##amar
##pis
keba
##yb
engkau
##ataan
bob
fl
tbtb
hrs
##adah
lemah
seminggu
kemudian
malas
bng
full
berf
##egara
nu
sempurna
ikatancinta
tulis
##mi
taun
jan
nambah
pengh
##wab
##enyum
bawah
##lin
sengaja
cocok
perhat
setengah
##inking
berjalan
disebut
kmr
down
janji
##wi
cel
##iii
sor
##ose
ki
lockdown
politik
don
pot
##gl
hah
bersih
##isan
week
kagak
msh
ayam
##gag
nemu
##ea
caranya
##masuk
sdh
mahasiswa
segera
##out
bul
lang
out
menyerah
##pd
iri
##ish
pam
jadinya
stu
muk
tk
terasa
perm
belakang
angk
18
##ehe
kecuali
meski
sist
jaj
nged
maksud
ramai
bir
##ekan
kesempatan
##ingnya
termasuk
sub
masalahmu
bergerak
wkwkwkw
jo
##no
##oran
goblok
idup
##load
##anyi
semes
posisi
und
serta
##pi
siapapun
kend
mention
##ice
putih
##back
disaat
##sek
say
sbb
ttg
##indah
diriku
24
keknya
##tab
milih
lawan
yaitu
##aud
menjaga
stop
sisi
##abaikan
suami
##ohong
##ment
lulus
order
jawa
##alkan
menerima
aduh
bacot
sms
##engar
aq
##get
##ail
##enak
##uri
berbeda
was
sebelumnya
tot
papua
kondisi
pokoknya
terj
komen
sop
bijak
pa
berj
ketid
hu
##fer
bisnis
media
##2in
##read
rec
mun
keraja
menggunakan
hit
kesini
##iak
game
mengabaikan
##itan
##ock
merupakan
lari
gtu
##ith
saran
status
harap
fan
tind
##js
##ula
merah
any
muslim
gad
ts
##araan
ttp
bok
##insi
waktunya
sikap
##erang
bic
berkata
terg
ngej
maju
##alahkan
perhatian
prog
##ajin
lat
##ook
##anja
komun
iz
##ush
woy
##asaran
sosial
sungguh
##so
tubuh
mematuhi
dosen
seharian
##fat
setia
bucin
sistem
##bah
sis
berant
thank
##ze
keper
orangnya
rencana
##uuu
##rah
one
##ganya
ngurus
tab
##top
##care
itulah
pls
##utub
wh
pasal
fir
##ult
dlu
pihak
##alk
bayang
umat
nikmat
##edar
##ebihan
ide
##ancur
line
demo
ris
uas
##irkan
melalui
lb
pt
##adikan
kebi
ibuk
x1
gabut
qu
##ebak
bau
##olat
kerj
lol
##aji
guna
pengg
ampun
##eat
mengerti
ujan
kenangan
keg
##ayang
##etak
lampu
17
pinter
astag
by
##ikat
##arat
av
ego
pandemi
rm
respon
korup
tetangga
tulus
##jawab
bahas
rel
shopee
##akai
warna
satunya
dipake
kosong
berangkat
ajak
ngakak
maap
##ambar
lingk
##wak
ae
##asuk
nyesel
gor
rap
log
asta
wajar
sil
nomor
lok
boc
kulit
skrng
kejadi
naf
##ey
juta
live
met
##form
bola
##my
prof
##imal
mutual
nyampe
##esi
feel
kegi
pub
sekalian
khilafah
jajan
cab
desa
shin
kereta
cita
dingin
bego
dpr
uni
cik
lgs
##of
mark
astaga
kaw
pintu
seharusnya
patuhi
anjr
bp
##pu
##aranya
14
milik
##alin
keput
cemb
tmn
cor
##ner
umum
seung
##agu
ngerasain
ditinggal
that
tersenyum
##dg
##aksi
laptop
berdoa
er
lemb
berlaku
lima
smp
stay
fit
##indonesia
##ambung
seberapa
##ombong
##ulai
pertanya
##askan
##po
byk
just
lgi
##empat
##jok
ngomongin
papa
kebiasaan
okay
kejadian
##ikmati
nat
maunya
##inal
##aut
artinya
komp
sehingga
##firullah
kerajaan
beres
kad
kegiatan
konten
sch
##ph
bro
takde
puk
musik
sesungguh
fac
jag
##auan
kul
##waj
##way
telat
berdua
thread
50
jus
menarik
disana
tahan
##enangkan
##alanya
##eman
jur
kol
move
hot
berakhir
sholat
nyata
khus
nulis
##ene
##undur
angin
sesungguhnya
aktif
kini
##aru
bangk
##alang
##amiin
##erhana
lar
pekerjaan
data
ky
olah
tgl
merasakan
sekian
sang
pemain
bkn
jualan
menemukan
streaming
disk
rezeki
teriak
##idang
contoh
hm
nyanyi
gm
##vers
lho
dipikir
##dr
##iter
bumi
25
tiada
##ologi
##war
##ason
anggap
adik
##elesaikan
kirim
aamiin
ge
jumat
##enci
pec
##atin
##ots
##impin
pesan
cal
sabtu
tanda
bh
##bal
miskin
##alahin
##ef
ngeg
total
nnt
bor
berikan
memikirkan
gegara
dt
takkan
ci
sempet
self
karya
babi
bicara
##nur
luka
mor
sekedar
polisi
##ergi
terc
penat
##enuh
rajin
dibanding
##ous
##akuan
hahahahah
nek
nasib
##eak
wisata
13
##uskan
##irip
taunya
##rb
play
pelajaran
cemburu
saatnya
sikit
sombong
##sel
##oritas
best
dikira
juni
tanah
adil
berfikir
kmrn
##eeee
##intas
##ono
tanggung
fix
##pn
##idikan
temen2
##gagalan
gemes
pengalaman
event
mempunya
mil
wajib
##usa
##view
jal
##iiii
masalahnya
kot
anti
kekuatan
gapernah
sepertinya
kegagalan
##ahui
ato
##embang
pusat
bla
ortu
auto
pastu
belanja
##kir
gl
##bl
jugak
ras
dokter
##ampuan
##inginan
##co
ir
tes
alam
lahir
##jin
keputusan
tri
##unan
chan
##bi
program
gais
kup
panc
barusan
kirain
##to
##edia
begadang
syukur
jb
menghargai
toh
batas
##aka
pil
mew
cuek
detik
awak
raya
listrik
menjalan
##hi
##adilan
biarkan
mirip
paket
bukanlah
blg
##juangan
jab
##wis
##emin
ribut
##riend
jl
bias
padat
berbuat
mie
hadir
omongan
can
wong
titik
barat
##nik
perl
hatinya
penj
lbh
bin
luma
macem
23
mengur
kemampuan
bali
gal
kpk
##tok
kiri
##untung
ck
retweet
call
jas
##antan
bahan
bank
kut
beliau
mi
##tival
artis
##nas
tag
##24
jadwal
##uji
ty
mengeluh
hatiku
kalimat
vs
##jalanan
admin
napa
vol
##ripsi
ikatancintaep
pertanyaan
wat
ruang
hidupmu
prim
penasaran
mengatakan
nampak
pm
berba
perub
membuatmu
geng
##ender
bekasi
##utuhkan
##andang
diluar
##yal
##ean
jep
##estival
subuh
this
##uy
##adz
inv
sifat
sorry
disip
ceritanya
dalem
##ig
melupakan
mempunyai
nges
##ogor
lumayan
halo
ajg
izin
kisah
nin
boy
cint
minato
pria
disiplin
##urangan
darah
##ark
##alisasi
salam
##ainkan
woi
rab
uk
diber
timur
perubahan
web
##rasi
mutu
sob
##app
##ooo
dukung
membantu
##bo
##ebab
scr
tindakan
16
wes
weekend
bertemu
##ting
jalanan
fisik
rl
bgst
lgsg
baper
##engan
##ahami
dianggap
sosmed
semalem
tamp
impian
bentuk
menikmati
##ujud
setan
ketingg
awalnya
##ies
##atain
##alas
back
##ongk
dear
ngikut
sebulan
hih
##bu
##itung
##ll
utama
duk
menuju
hidupnya
##ibah
bon
##rp
##jid
ust
ade
##ilahkan
22
et
##ompok
##ou
iklan
az
menyakit
priv
##amil
##sd
##ame
##otes
semester
daf
drpd
##ola
##elak
##ov
perjuangan
##innya
hang
hasilnya
hatimu
won
##ning
muh
tant
dijalan
##ement
perusaha
##egang
##anakan
##utin
##agram
wib
pukul
##uku
nyoba
pari
atau
bism
mengapa
mencintaimu
ms
##iling
##angkap
rest
intinya
prov
lelaki
mundur
##10
season
sembuh
ngopi
jenis
##tru
##utama
bogor
emas
gratis
khawat
pasar
##ipt
bantuan
mmg
##tikan
##ehy
your
musim
##edih
##za
ngumpul
trend
##30
semen
wkwkwkwk
lingkungan
miliki
dihar
##adapi
materi
justru
rum
read
perjalanan
percay
krna
##iaya
free
mv
diet
istri
gasuka
hand
##iny
buah
##iha
pendidikan
wk
gambar
skincare
notif
##usin
setid
motiv
obito
##ibat
##iksa
##enter
spo
jalur
##irl
der
gaya
##ance
support
youtub
dengar
##fess
dana
perusahaan
cuti
hahahaha
slalu
ataupun
bint
kasi
##ukai
##daya
##ade
sederhana
cok
cat
##alitas
instagram
##anggup
shinobi
bsk
gigi
langkah
smpe
cuci
percayalah
tm
##atang
drop
kekurangan
panik
##dir
##ait
skripsi
guber
silahkan
##asilan
sebaik
sambat
team
ref
kampung
last
korban
penyakit
grab
bismillah
selamanya
bangsa
##endam
gubernur
pingin
mera
terluka
##te
terserah
khawatir
##nyk
bisanya
rela
##ne
yok
##ongin
ever
kanan
nyet
kemen
##ikah
kerasa
##baiki
##uhu
emng
moots
tiktok
##anfa
lagunya
kpop
daftar
keinginan
##lh
int
##umu
serem
mutualan
##amuk
##okan
start
kenyataan
ho
##ttt
nungguin
surat
fikir
aja
org2
rusak
##ahaya
vote
##ww
##yakan
##leyb
##dy
##phone
korupsi
bnyk
dre
fav
hmmm
jerawat
berak
##ick
hadeh
sejati
tukang
##com
menyak
##jual
##leyball
200
celana
bangkit
rokok
anak2
##irim
##irik
psbb
##abar
rev
meminta
##unuh
##ons
ngilang
eksp
kan
kkn
elu
ibadah
pantes
first
setidaknya
##ence
fb
santai
##icial
enaknya
##asinya
##eks
pendapat
langit
smua
kim
uch
wil
mind
orng
menghilang
fandom
akut
##org
kuota
han
##uraba
bye
##isasi
##iring
patah
sapa
garuda
##follow
##adar
sebentar
law
pn
##ampa
terutama
##untut
with
##foll
##alami
kepad
kosan
amin
life
##raga
mcd
tiga
ketinggalan
rata
##jakan
untukmu
segalanya
wif
##do
##ben
##upun
ds
promo
##aten
##ebar
buru
##epin
pintar
bunuh
##xic
saking
bbm
##eluar
grgr
bukti
##ikuti
dag
##ihh
bay
berlebihan
##etahui
solo
stand
hay
##aul
kenc
reply
##wisata
##indari
bngt
##urabaya
##emat
berbagai
##lak
##iptakan
af
sanggup
##ile
persi
share
uchiha
keter
internet
##uuuu
##sss
non
weh
bobo
mall
lebaran
##eck
##jam
##ikap
##ocol
cam
nn
nahan
random
tolol
berguna
##asikan
setahun
##iko
##uaikan
mah
##eting
batu
hik
perkara
perg
thinking
diliat
##emenin
##antuy
dilarang
##ape
##urang
##inc
nga
sempat
njir
som
geb
korang
##cs
##atasi
##ikal
toxic
##akt
menyenangkan
nyuruh
membawa
let
anc
perd
modal
##cayaan
##ahahahah
##kop
##23
##96
##perasi
ngep
level
zaman
##ited
give
ditambah
nyakit
##aser
##estasi
menyad
##nak
lengk
##wang
##ili
sepatu
memahami
lakuin
insec
##enin
calon
dom
jkt
nyat
diberi
inginkan
jasa
yes
##kom
##indungi
##ales
mengurangi
maupun
dn
temannya
jawaban
nyakitin
ganggu
bec
##ahuan
diatas
tau
##atih
##itin
beri
##unda
##ital
perang
tas
##ekt
energi
##bs
youtube
aplik
##lix
##enaga
pent
##entukan
nas
inggr
hor
ppk
##antikan
##aaf
saud
kelompok
protocol
##uci
teens
##ampun
bosan
inggris
leg
##ower
gus
##ema
den
aje
kepercayaan
##utang
link
##jabat
bertanya
layak
fi
##entu
sebagian
akal
##indak
ulama
hany
def
ss
##he
pemimpin
arti
laporan
jin
wow
upload
cir
tumbuh
lintas
pri
##ty
sial
goreng
mengubah
hancur
ass
payah
##arakan
isu
menjadikan
versi
kepo
seni
tenaga
##ukses
syg
puas
keadilan
apab
085
tips
##ormat
tipe
dibikin
ultah
##rt
join
ppkm
##icara
dicari
kumpul
##pir
pertem
pip
##oup
##resi
scroll
pariwisata
mad
##by
menyesuaikan
##wajib
sepanjang
khusus
##pect
berharga
ujungnya
sekalinya
pah
army
insecure
balas
##undang
##bok
##enaran
ngaku
##flix
ngelakuin
##upa
##ings
##ach
gelap
##eback
natal
##owo
melakukannya
univers
olahraga
##urn
apabila
txt
tertawa
jun
asa
terkait
rad
fase
san
sim
gh
##iode
hid
ndak
nov
pendek
maha
have
ngurusin
neng
now
komunikasi
provinsi
div
##tua
##lm
ngant
##aring
menyakiti
##inasi
##ulkan
mendukung
work
kasur
plan
virus
##chi
sya
kmu
tat
##ise
menyelesaikan
pantas
##itip
usia
surabaya
temennya
anggo
##woo
merind
organ
##etin
##kkkk
gemb
camp
##ibu
anggota
ehh
##akter
bern
eks
maksudnya
kebut
##dar
##ge
overth
gitu
ikan
##jun
kendaraan
red
sens
jumpa
000
pij
faham
bintang
sinyal
nnti
vi
pay
lapar
jak
##rat
sgt
menutup
still
##tivitas
gend
urus
base
##amaan
malang
tang
##isten
mang
syar
win
kasar
bersikap
##umpang
ala
desember
hab
##asila
betapa
perih
ngad
##umi
gojek
muter
lab
##par
nyok
jantung
##iarkan
kaum
know
laj
pesen
hehehe
mengikuti
pembangun
rapat
harini
next
menyesal
dtg
ava
gapunya
##uari
bayangin
teaser
##ejar
dibawa
even
niatnya
##ahh
dead
gajelas
egois
ngechat
why
semb
menghadapi
disitu
##oooo
hitam
terbesar
tand
##95
##ime
basi
cem
haji
rom
##ewati
anjg
sepeda
fakta
misalnya
keber
jumlah
##ungkinan
potong
rej
peluang
keti
block
##gu
netflix
hanyalah
keinget
karakter
berantem
beng
final
nan
nap
lagi
pelaku
nasional
##uksesan
pembangunan
pop
gaes
bohong
##elet
crush
rup
peka
hidupku
mampus
jadikan
masing2
dki
motivasi
##iasa
app
temenan
##tttt
##ikaze
jepang
namikaze
kent
##apus
naruto
##ober
cintai
pegang
debut
jkt48
berdiri
##upaten
ngikutin
##engin
##bir
inc
pulsa
##aaaaa
ari
berkali
undang
aplikasi
##wit
##ator
##ebaran
inform
nyesek
lengkap
nen
merem
melainkan
tegas
##amatan
ketiduran
lek
pp
ragu
ustadz
##uiv
gaboleh
##akor
kesuksesan
epis
brp
##heruiv
nyokap
##jb
##aksanakan
melawan
##gaan
rat
baj
kompl
wifi
perform
tengg
dream
pag
kesed
efisi
kabupaten
kpd
menyakitkan
wal
ngambil
kemungkinan
##sos
##dd
hey
susu
nugas
nel
plus
sj
##ion
##udah
sektor
whats
ong
budak
test
mengen
corona
taat
menyadari
40
ten
pelan
sul
ngetik
##kannya
biaya
joker
semenjak
ep
rs
menikah
sbg
puasa
##ihatan
asl
mesin
hape
2018
gajadi
##eheh
nyawa
##ping
##olong
taw
bocah
##12
seolah
berbicara
##ane
##act
ai
lal
mir
tingkat
##cle
##inar
diant
abs
##kanlah
asing
group
mens
rah
menerapkan
melepas
dibuka
mlm
trending
##oni
asu
hamba
##18
pandai
##eral
asy
tulisan
friend
lak
##mad
fre
nda
##umen
##egan
bbrp
hobi
sti
ngar
memut
##ingkuh
konsep
kelakuan
patut
bercanda
uw
daya
semalam
anjrit
##zi
##ehat
##ujung
nang
via
pemikiran
buta
##ute
check
promosi
05
##tian
banj
andin
berlalu
comeback
heb
harganya
mengambil
sr
prok
pasang
show
##unyi
maki
dibalik
mendengar
pejabat
dibawah
uu
##pres
psik
jago
##akal
##fon
publik
yaampun
mengingat
##uck
##ikum
nyatanya
##uas
ngac
masjid
matah
wae
caf
##ariah
teb
##hing
##ds
##pay
nguc
alami
##antau
laa
kw
##dh
memulai
hotel
##aris
cb
##pen
##ipta
sisa
##pek
##arm
every
membenci
dahlah
singkat
##ele
maj
foll
aksi
bawaannya
##ulasi
reg
yu
sumber
then
mencapai
pandang
##gar
##ahter
##egah
fo
mt
ninggal
ngak
tra
##bab
##osa
##iya
membutuhkan
kebangun
skor
bertindak
##ompet
dur
serba
damai
##set
kk
##alikan
mengalami
diberikan
##ign
##mak
wilayah
##jaya
whatsapp
gang
apalah
otw
bnr
nabung
bpjs
kurus
terbiasa
musuh
feeling
iki
##ingkatkan
menjauh
kebutuhan
nemenin
bangtan
por
dad
sebalik
halu
##encian
sekalipun
pacarnya
ca
pingg
##jkt48
wahai
pancasila
##ebr
##een
selagi
sod
tangga
##atiin
universitas
##uangan
##akaran
kesep
dak
novel
gunanya
##via
jari
ngeri
mana
ora
tumben
##abaran
solat
##olan
may
ape
##entingan
fpi
##dan
blok
pass
item
seakan
##uruk
saudara
##iba
##andung
thanks
otom
45
bermain
budaya
pesawat
hadi
kebenaran
utang
api
bunga
cmn
##elan
timnas
target
get
##iki
##amanan
##etr
followers
bedanya
##osan
jadilah
from
##umsi
mengaku
pre
##unjung
##emput
sarapan
##aafkan
##wo
##asana
sir
mantap
membaca
sayangnya
kop
harta
kub
hij
fot
kus
memakai
kesabaran
bahaya
thn
ibarat
##17
ngem
sebanyak
sesama
mrk
jga
beras
beruntung
asap
famil
gos
##eti
ucapan
cua
didepan
astagfirullah
##lok
pok
##umur
email
jurusan
overthinking
##ampaikan
sebaliknya
ic
keberh
okt
##edi
seny
manfa
mengetahui
##echan
memberimu
berbagi
lambat
long
##win
##arian
bayi
##uny
##idot
wkwkwkwkw
ngamb
padamu
kualitas
##ahnya
##aian
mint
skip
otomatis
##yul
##erjakan
takdir
rugi
tergantung
mengenal
membangun
bersalah
dilihat
pasi
baik2
##str
##shsh
suasana
kenalan
kepentingan
lega
ce
##jd
gaenak
alat
jul
great
##ibi
larangan
dibales
##erd
##adak
##agam
##ehkan
tdr
golongan
rmh
cuc
kering
toko
det
pamer
##dut
##jokow
##rek
##ews
sept
pajak
##gen
melay
mandiri
ditutup
festival
##ern
##antas
cop
akses
ngaj
matahari
##engaruh
surga
ldr
panggil
membiarkan
tsb
efisien
##66
##epat
didalam
snd
kunci
ninggalin
##food
##99
gerak
ngangg
pember
akibat
area
prakt
travel
##gus
keberhasilan
nntn
deadline
##fi
##gain
berkembang
moment
anying
##inf
##baru
##house
##eja
##ger
terang
selatan
rejeki
nyerah
bio
pener
asyik
rada
##tur
ner
kartu
hum
##let
tarik
##yaallah
##ekin
judul
keman
kritik
terbuka
jatoh
##ibur
##embangan
kesedihan
taknak
terbang
##idi
ketua
drakor
jatim
kebayang
ati
sah
##hari
##akiti
sorang
cafe
aud
##ora
ketak
halal
kontrak
ninja
##gan
bete
kalimantan
##jem
##itra
##oss
nyalahin
##ahagi
500
##untuk
biarin
wt
##ude
mula
##kkk
sejarah
##oskop
ks
menahan
##endak
vib
##indung
bokap
informasi
nenek
nag
ajar
##unjukkan
sopan
dada
menolak
##omba
baek
##entuh
nikm
keuangan
juara
pola
ambyar
0896
prioritas
cerd
jbjb
manggil
pengguna
dampak
gan
melek
stan
sekit
diambil
diaj
zon
##oris
mamah
diterima
##kh
haechan
gunung
kebencian
simple
warung
ngetweet
##arif
minimal
menyayang
sesek
##orong
segitu
tip
ajaa
seket
##ohan
mk
rus
##hal
intr
##timbang
kelak
temenku
astagh
halah
ip
##uin
##13
##erta
##amah
gausa
guy
episode
##kul
kre
lagian
sejauh
menjalani
##sion
sweet
ngucapin
##jol
peson
wisuda
viral
probl
stres
##timewa
##tahankan
maksa
campur
star
das
tom
sung
##eline
bekas
##tual
baiknya
27
big
##ssss
dompet
kai
janganlah
##uarin
samping
mingg
##lab
enj
lirik
##pel
##endah
##enuhi
##ebabkan
samsek
##aksana
##umpuk
rob
tamb
opo
ribu
malm
banjir
dendam
kum
##ulusan
2x
tgk
indones
##ucapkan
penthouse
29
selingkuh
persahab
udara
##78
##rrr
##hu
care
leh
##adan
ngatain
##uter
kenceng
kesian
kesana
radi
seen
menyel
pkp
santuy
##engarkan
lama2
kesepian
tetiba
##inga
ngr
memaafkan
curi
persahabatan
gul
##mudah
tolak
andai
##als
##adinya
sharing
tae
kerana
oktober
sahabatnya
##ret
##50
iseng
31
patuh
##king
akhl
kacau
##sal
##ling
kesulit
awas
result
model
sebut
##quest
debat
##upu
##itmen
##ilis
nafas
ges
ialah
pandangan
##yyy
##urat
dicinta
belakangan
cobaan
kode
samb
arab
exc
zona
berisik
ibukota
dng
eps
if
##enangan
##imbang
gunakan
nt
hargai
taehy
follback
##insip
nerima
##kus
jap
sesi
##ship
bakar
goog
astaghfirullah
diom
katakan
kesulitan
##oko
euy
##amping
ngeluarin
maafkan
##gggg
heboh
kamis
conan
makasi
miss
ngab
dc
gasi
##tas
doain
family
ketakutan
##bangan
suaranya
biru
tun
kerumah
##aaaaaaaa
##akkan
ngin
ungk
kene
lee
pur
tahap
kaka
mukanya
meraih
rasakan
##ril
tida
menganggap
telpon
##zal
##otong
##ibl
kotor
##ld
bioskop
syarat
hamb
some
##list
##gab
meningkatkan
baby
##amarga
##ungsi
adem
china
demen
kara
sama2
atm
protes
kedepan
operasi
sii
herbal
##amata
##anjur
angkat
ikatancintaep30
##bil
banyaknya
kit
##entasi
proy
##asional
##ainan
how
pala
##xx
adakah
badm
##anjutnya
sepak
cuaca
##bas
latihan
organisasi
lim
membuka
ahli
jimin
premi
solus
cib
les
##asannya
##imi
bela
lemes
rutin
##ening
mineral
bidang
orangtua
diskusi
aa
kuk
ngirim
apasih
jawabannya
sant
##heruivan
ded
##tip
swab
dj
##uasa
##over
permas
##ople
angka
##38
##erat
##epet
atuh
##vo
##idat
dkt
##jt
##awatan
menciptakan
26
mengajar
##indir
##indekat
infok
cust
##erg
menilai
buset
##makindekat
elah
ngajar
membanding
khilafahmakindekat
bantuin
cic
bant
gmna
##akit
semarang
ready
pasien
##70
timeline
hamil
produktif
deb
##lock
help
##emangat
##etulan
mala
##afik
omong
hiks
sodara
september
see
##bel
mei
ahh
betah
telkom
sobat
bend
haram
gabakal
##estina
##nnnn
kerjanya
ganj
##jakarta
##antinya
people
hutang
cuba
rekom
##atian
day6
home
pegel
topik
28
era
its
opini
bumn
enjoy
sand
sidang
##kg
##pol
selanjutnya
##tify
sblm
##gam
prinsip
kaos
bodoamat
cod
##28
spam
cil
moga
##sksk
terpaksa
sejam
hype
low
are
##tarik
hadapi
bsa
boro
keyak
##ume
##olog
##acam
dimiliki
kalinya
jk
melindungi
kebetulan
nabi
ntah
waras
##chan
seketika
pun
membuatku
aslinya
##lakukan
##36
menyalahkan
perbeda
##ject
mendadak
sekaligus
##taw
liatin
revisi
berikut
paksa
trau
respect
del
##aat
##lum
##elasan
kacamata
hadiah
##alat
tertarik
##juangkan
berantakan
##lukan
##ace
komentar
single
##eni
lapangan
##inyir
somet
##amakan
jalani
partai
##ference
##wh
##esalan
bae
disek
adl
dibeli
break
studi
jadian
nyi
sakitnya
##thday
laut
##2per
nyen
bersabar
seger
lolos
nafsu
becanda
pijat
hol
dapatkan
ingatlah
ngumpulin
ug
blom
tinggalkan
sho
ngm
wf
##imis
tido
##jab
##ingatkan
##elakang
##ateg
makna
##kwk
ijin
way
##har
menurun
hutan
##won
##ebasan
memandang
point
has
dif
##ingetin
akutu
memutuskan
nyeb
antar
##okrasi
wakil
bilangnya
menjel
huhuhu
gin
hina
raja
pulau
bunyi
eun
##amaian
beliin
laku
mkn
##jj
cerdas
bagai
dimulai
mbok
kejar
kondangan
membandingkan
dipanggil
kata2
keyakinan
nerak
power
##itulah
##imaru
waw
##yun
##inkan
##adepan
sepenuh
favor
##amkan
berenti
##upan
berkah
tega
sbn
##asuki
november
mengenai
turut
vot
##nal
##inginkan
comm
nyamuk
tre
burung
momen
##2periode
dp
mek
rew
##pad
##iaan
tertentu
bengk
lam
tunt
abu
menghindari
merusak
teu
repot
##luk
##umb
dikasi
meja
hapus
mw
##ancam
mik
tong
##km
menet
##ev
##alih
kontak
##itis
##alamu
parkir
proyek
06
kematian
kaskus
conference
melangkah
##ogja
resiko
spotify
cover
mean
ckp
yh
##cak
##ere
##gaw
##intaan
kreatif
##eu
##elit
pln
year
##ukti
black
diskon
cina
kid
##bit
##lat
ngatur
gawe
##oking
jaringan
dita
##ras
##bk
alesan
nyangka
##uarkan
indomi
luas
amp
minuman
permainan
circle
neraka
##11
save
##edan
##ajari
##ui
pagi2
menurutku
dianya
blh
mendengarkan
head
perbuatan
col
bru
trivia
gur
##hatiin
##tle
lun
minyak
anies
ketauan
teori
iphone
jil
##2020
trauma
city
job
langgar
pke
cerah
tante
hhh
##kes
menyukai
blibl
dipaksa
pelangg
mainnya
1000
##mo
##akut
##iss
google
lha
##fr
##islam
##ubur
berhak
mcdonal
joh
##29
##erid
##epannya
januari
dont
istimewa
diter
telinga
aib
##ehh
kasihan
pembel
risih
comp
##pirasi
jalanin
strateg
jalan2
lokal
senyuman
##62
##etahuan
##entikan
##inggung
##ubung
pecah
lupakan
nolak
pohon
rang
benc
bnyak
ketidak
jabatan
ngajakin
fun
og
##urah
##jadiin
kapal
##anfaat
##ektasi
##mar
##ektif
##endara
ditempat
spes
misuh
mengeluarkan
##izen
kawasan
maksimal
jasamarga
60
sap
##idotcom
vc
##awang
##ipu
batuk
iman
##indahan
wr
keep
only
driver
bliblidotcom
mcdonalds
##edah
##ihi
ditunggu
akhlak
nutup
ship
liatnya
kedai
optim
swt
cac
##oi
kenyang
##impan
lebar
julid
fuck
ngejar
rabu
##uth
taehyung
bj
##isnya
prop
##nye
##ech
expl
bermanfaat
pantesan
##fect
##vol
nget
pasrah
perbedaan
##indar
dahulu
penamp
bersam
##asilkan
masukin
##uf
##ubungan
akhirat
pns
gebetan
##bek
##ino
##ways
diminta
tekn
##alob
liga
gig
well
jokowi2periode
got
ow
ubah
bolalob
##awaterid
kira2
yauda
nyadar
huft
primawaterid
infokost
##ewakan
spt
bertambah
##was
bukak
konsisten
obrol
ngeselin
##idah
edit
err
fut
att
bole
##rnya
mengharapkan
body
penyesalan
nol
##bers
keku
take
buatmu
berkurang
jungk
##ror
##fc
##itakan
temukan
##sign
isti
mampir
digunakan
dijadiin
##awal
ligam
givea
##ahagiakan
nantinya
##put
##ahatan
matanya
##akhirtahun
close
volleyball
menambah
##ukaan
semesta
ligamahasiswa
##raf
##asarkan
##masadepan
official
muntah
greater
kya
##umunan
nyambung
##elaskan
awalmasadepan
batin
download
seenaknya
bil
tulang
rumit
##tic
melewati
jalannya
need
##eku
nyal
nyinyir
prokes
##zy
##arta
limavol
nikmati
limavolleyball
diatur
##num
high
kenap
medsos
##arch
ngasi
teruk
terti
ann
pemerintahan
depok
bund
dk
##nd
##bd
merd
##opun
56
sebesar
##odo
##ich
murid
hampa
##bak
##erasi
melaksanakan
##rrrr
posting
problem
indi
##elis
menanti
iso
memperbaiki
ngg
offline
dicintai
magh
bw
##isinya
mabok
rezim
birthday
##zah
##asiun
bibir
undangan
hihi
pernik
said
mengalah
radio
ada
##utar
tud
ikon
plat
duitnya
diganti
##ert
aktivitas
selasa
meeting
##barangan
##hluk
elok
god
keker
sudut
ars
berteman
kedepannya
lurus
sembarangan
dibaca
fight
rid
yung
##jang
bahagi
tamu
##sir
komitmen
anggaran
moral
rupanya
##bing
##ble
##22
##58
##33
##irul
semacam
##endang
bamb
girl
mump
nyuci
suci
hal2
saldo
giveaway
cc
##ary
jelasin
hop
kabur
project
##jah
##ated
baw
kelebihan
membahagiakan
pedes
more
##ikian
##inisi
match
makhluk
nomer
##upi
pemba
refl
ayat
kip
stasiun
dijadikan
pertemanan
bapa
nie
##word
akhir2
treas
##ungs
cp
##wedan
alh
##ibatkan
when
sekitarnya
megang
##lean
nanyain
netizen
receh
bm
##buk
alay
pengennya
plg
error
##kar
##isme
##uteki
muak
rasain
uts
##ugikan
ngambek
##lis
tdi
##alisme
##ugas
alur
##obat
kece
gatel
vibes
##be
##ejahter
junior
sell
kejahatan
mask
dapur
##ucap
boss
malaikat
akunya
memasuki
nyel
dinas
dasarnya
##ris
##cik
bermas
kaca
lip
##etron
mintak
iy
##wujud
##je
sex
ketimbang
membunuh
##inder
hib
##lahan
terlebih
peluk
jaya
ramah
pikirkan
keliling
itu
kerjaannya
terkenal
boong
##rang
##ecahkan
layan
mengatasi
diantara
doakan
##uncak
lebay
##ifah
##pret
gedung
##urkan
##fficial
ulangan
hob
haih
uwu
berku
pangg
knpa
standar
canda
mg
ngetw
amer
##adakan
##oke
under
##iminalisasi
##ko
kertas
chel
better
##young
##ungkapkan
indomie
##rab
##utnya
tokoh
ptn
lajur
bung
food
hd
mimp
##jk
##idik
##orban
kelihatan
try
bent
menulis
unfoll
always
demam
sinetron
ketiga
##engen
bersedih
dibandingkan
jis
##ift
ngef
fat
alasannya
##ley
##osting
helm
ongkir
gis
peran
##uhin
mengejar
pengetahuan
review
scene
##eller
gengsi
pis
king
nunjuk
trib
profesi
##enterian
hoa
word
##ex
perihal
temp
instan
napas
ngarep
90
cob
##astian
mengec
kementerian
##firm
fitnah
kekuasaan
vit
menentukan
##osisi
kerumunan
cuy
form
laen
bebaskan
tonton
merubah
serasa
lokasi
habib
dini
hate
##uga
##esh
night
telfon
caram
penyel
cabut
##imaruf
ht
##dok
##edul
kuasa
resmi
bk
naj
##zen
dijaga
##ece
nakal
##ahasia
##jan
penyebab
salut
dsb
malming
premium
3s
udahlah
takutnya
char
breng
pernikahan
jir
tingk
##bin
##ole
mengalahkan
sekel
hmmmm
teknik
tampil
gim
map
speak
liter
tadinya
##nh
##iru
##ese
cha
##nnn
gusti
hant
kin
##usuk
dikatain
berdasarkan
##youn
sudahlah
##alaikum
sehun
lapor
assalamu
klu
ojol
##sin
##minggu
soft
sukanya
sndiri
yohan
##ampung
sedar
hangyul
canc
wel
##wat
##esa
matkul
staff
custom
letak
nad
##wk
perlahan
##endiri
magang
##atuhkan
slow
##orotai
##asama
inilah
gug
bolak
horor
hoax
jeb
rahasia
utara
##resiasi
melepaskan
gund
##iah
##leh
##ular
serv
dikirim
212
##ouch
ii
permasalahan
uns
positi
terbukti
persiapan
haj
hantu
##angirl
oknum
ending
karyawan
hormat
tipu
##240
01
jemput
pup
wc
##sm
ktp
bayangan
maghrib
menunjukkan
sampek
will
##lus
##emahan
bertu
teringat
kebebasan
smart
tour
mentang
teknologi
seanda
##itasi
##onc
anjer
tandanya
cahaya
teros
satupun
tap
enakan
istr
##ahaha
mendingan
dibayar
basah
logika
daging
terdekat
langg
pisan
xix
##wb
##zan
##enj
matiin
kost
edoga
pahit
04
ceng
haf
##pers
apasi
soci
marah2
istilah
menjalankan
misi
keju
jadiin
padang
seandainya
song
##gb
##uhh
petugas
##adu
pengin
dimarah
##untungan
bunda
##zzer
hew
ngerokok
vac
##intah
##anto
tipis
##ecewa
bagiku
kontol
digital
gendut
##ilet
menuntut
shalat
edogawa
ran
##nes
##alir
mute
kyknya
ditanyain
##fan
##encinta
world
chelse
bungk
hikm
halaman
##cc
##ebook
alarm
ibunya
park
##yukuri
##assar
solusinya
ui
upaya
##uktur
mengingatkan
##ecah
##jal
pemenang
dikerja
hom
##iler
anime
mengucapkan
bakat
deketin
seungwoo
##reen
khof
kluar
lead
pegaw
hemat
taj
sedap
gisel
khofifah
##fit
anjeng
##hyun
ancur
wfh
menghasilkan
jln
##ayangan
##ggg
wish
##lic
##98
##asabah
cs
mendatang
perkataan
morning
gula
semudah
omg
ujung2nya
##pool
caramencinta
dul
janc
mic
bgtt
mencegah
gabung
seungyoun
hidung
favorit
agensi
siapkan
individ
300
tangkap
sepupu
pegawai
##ful
##olusi
trad
sepele
bandara
palsu
kd
pelay
##ayaan
endingnya
senior
manaj
gasih
kok
mini
##other
sie
caper
##iji
meres
menyampaikan
##angkut
tawa
liver
##hatikan
pesonaf
dam
dest
ditengah
lh
karo
##rael
pikirannya
mode
rapi
tayang
disel
##empel
nor
mustah
seumur
tuan
kerjain
##2021
teman2
yaudahlah
quotes
limit
vouch
##epi
thr
##light
lemot
##sana
##itadi
##osh
nyusah
interview
definisi
indonesi
alhasil
cash
png
##xi
##dge
penampilan
fin
kli
##ser
meneg
indom
hahahahaha
##able
spe
hadap
nkri
ukuran
jamb
anu
arg
sadari
pik
ajalah
terharu
tunjuk
##yakarta
##empar
##yeol
vis
##av
##obia
mulus
basa
ming
tut
menjawab
##andingan
dirut
mempert
fotonya
merdeka
##oom
##amal
loe
gangg
##agon
kamera
train
##tern
manag
##aksakan
##ustri
besoknya
##live
hade
menjatuhkan
ekspektasi
mng
##yp
penonton
lepastu
rusuh
mumpung
bri
##fs
kesah
bersatu
angel
bully
rekomend
##ahi
alamat
##ajkt48
dalamnya
##abiskan
persatu
mustahil
bkin
fake
md
##friend
##xo
ngek
##ecial
bermasalah
talk
##ton
##din
##77
##abisin
sent
wangi
berujung
##gaknya
##shop
ajah
webs
tangerang
62
kong
yt
berbahaya
ear
os
bersedia
reseller
maafin
covid19
pakaian
##yeon
partner
##uasai
obrolan
sekuat
minim
spm
ngomel
sebaiknya
rint
##for
##atap
##ataannya
kesi
anjim
senja
##ogyakarta
daritadi
cintamu
menghilangkan
coll
##emani
##ety
menfess
sip
industri
banding
terpenting
conc
party
sayur
cip
mos
##jr
##15
##ewe
penangan
brand
spesial
sihh
yas
nggk
pengerti
sebatas
keburu
butuhkan
rupa
menyayangi
eri
val
dikenal
didunia
raga
git
mid
##nu
skill
penderita
front
presentasi
cup
fasil
meh
##asta
negri
about
toilet
ponpel
dec
##sih
##las
berna
kepastian
degan
far
nur
##ida
mengerjakan
sialan
tetaplah
benar2
aura
##baga
udahan
stalk
transfer
##etail
##witter
rent
spa
kewajib
##audi
menu
stage
smpai
##ding
mual
fact
kekerasan
bpk
yaaaa
melarang
indih
hahahah
pcr
##akk
##pagi
memaksa
merokok
radikal
02
dy
pic
##jian
ngingetin
alm
agust
##odohan
perp
pengangg
susahnya
koar
ikutin
insyaallah
postingan
##jokowi
##jay
diman
buzzer
degd
jah
ls
##mark
##jogja
meningkat
ikuti
tegur
##tra
dijual
konf
berkom
rasul
penjara
dpn
ngamuk
keset
ent
##udi
dipercaya
melayu
##angkan
bertahun
unik
bakso
##oney
kuning
dipikirin
dikerjain
liverpool
naw
dance
mules
merindukan
tir
##iel
##adari
pengusaha
membeli
seribu
bertanggung
transport
nyusahin
bimb
dmn
bawak
jawabnya
perkembangan
nyetir
kdg
niatan
jaehy
badmood
chelsea
mum
##hr
##por
yaw
kalem
##aff
kris
kedu
ruangan
contohnya
sesekali
tib
##74
##ully
maklum
dibutuhkan
##you
pertemuan
gbl
lrt
ringan
atur
smt
study
bijaksana
jungkook
##antis
lantai
##pm
ditolak
much
brg
ono
##astik
pekan
##car
##eluk
##elek
memer
menghina
gapake
##aaaaaa
dijamin
bonus
70
ros
suam
mikirnya
bapaknya
pamit
risau
nurut
##hilafah
gay
tersakiti
gerakan
flash
mengajarkan
brengsek
hewan
janj
lau
singk
woo
##adaran
##ohongan
##ogan
buy
mengganggu
##ral
mengak
##edit
ditel
bergantung
investasi
sensitif
curiga
##ammad
salahnya
oleng
demokrasi
dihargai
alah
nob
##ving
##ihara
merugikan
##ecil
menyebabkan
india
kekasih
voucher
tur
diorang
keberan
kocak
heal
riau
roti
generasi
bulu
fis
kecelak
pdhal
munafik
##ally
kelamaan
nongol
they
hubungi
ngetwit
website
##yariah
bangett
pastikan
07
cin
sebaga
pede
tukar
lomba
##otin
book
cowoknya
kecelakaan
harinya
##ede
merek
plot
nikahan
simpan
dijawab
blab
medan
cikarang
ngilangin
tenggel
mengakui
kewajiban
matamu
numpuk
pab
penguasa
mls
keberanian
##ym
bersi
request
knapa
class
80
doh
##kas
##enan
##ampus
music
##waktu
ustadzheruivan
pang
puncak
##oan
##lish
##90
yaelah
series
depresi
password
##ount
##vent
ngot
##juring
resign
ambik
##thing
disayang
after
telkomsel
##wok
##ungannya
##ents
demikian
busuk
lahh
panggilan
##eter
kampret
##edakan
mayb
sign
tegar
nikmatin
nyebelin
bilik
jd
kg
minder
ketem
kabeh
swasta
titip
term
aceh
pantai
gangguan
ntr
ngaca
pengangguran
jut
##sc
search
##pro
kontr
##len
senj
galak
miris
menjelang
optimis
cand
mys
##rok
##gok
ngabisin
print
kelemahan
##uble
menderita
dimata
kado
someone
sepenuhnya
kala
##indo
menyemb
greg
bermimpi
chanyeol
##9536
36
##vt
mengatur
malem2
keduanya
##e240
##uktikan
##opo
naman
##199536
trust
dapetin
ngertiin
##18199536
089618199536
56e240
56e24062
pahal
rac
berpr
hip
rilis
sit
##nanya
thail
kursi
slot
tantangan
assalamualaikum
him
kilang
want
##osp
pengum
dilakuin
jutaan
glow
nginep
##yon
##tive
bencana
yun
##ten
##fest
##va
##ikel
##tice
kesadaran
##obal
shit
heart
conjuring
##epatan
dist
sesaat
hakim
kenyataannya
##jkt
ngent
selca
penenang
selesaikan
terlanjur
pled
chr
weare
##agus
takda
##ehan
##rips
chitin
##estinya
sabun
lembut
john
tertib
pengertian
tata
klau
##irulina
##ilu
ngisi
mempertahankan
sendirinya
hello
thailand
giman
iku
nasih
##tanya
ako
persa
dark
gajian
quote
lambung
##ehehe
suju
##astikan
individu
rekomendasi
bom
huru
msk
##ahagian
##uslim
##ungkan
makassar
##aaah
poin
cintaku
##angnya
nyus
makannya
menyeb
bayangkan
##arak
kain
membalas
adu
garis
kompet
nganggur
##oon
##zl
##wain
diruang
riz
bercerita
facebook
##ned
seter
##ilin
##ilaku
bangke
##amatkan
naikin
##ghur
indahnya
jenuh
ton
who
##io
##ulama
##oman
nice
sesak
salahkan
berkat
polusi
makeup
sosok
3x
most
##ks
hua
jingan
vlive
terba
selera
karma
##oph
penumpang
uji
jaehyun
lin
##sinya
##bis
##low
##vin
perbaikan
atasan
##chibi
excited
manajemen
##alnya
melebih
allahu
young
polri
playlist
bit
cpt
ruu
##angin
denganmu
gopay
jng
##uw
##erai
seringk
##uduh
koe
##verse
timb
jeno
kawin
lembur
33
kebelet
##ormati
syariah
pembakaran
faktor
##ongkar
tambahan
mikro
gamb
##det
##orb
pelatih
diharapkan
pinggir
bersamamu
penanganan
konflik
##yet
##aft
##eransi
parf
something
pund
##ijak
lembaga
seringkali
dadi
##16
beran
berulang
luck
penari
ayok
ngapa2in
##elitian
too
##yaan
ngada
##otan
biji
dikeluar
pencapai
dukungan
pembelajaran
case
##rama
die
gaakan
##ijen
##aksanaan
diomongin
sbnrnya
hiburan
cawang
kb
##arum
ucapkan
coklat
strategi
##ool
##zon
##prov
##yyyy
jatah
boros
##emah
##atio
kebodohan
tempatnya
anggep
##far
##atuhan
emp
##ajuan
kue
she
saha
wl
berjaya
percak
##ijik
oppa
internasional
positive
rul
taman
sepat
##onee
##quotes
jurnal
private
menutupi
run
##yeng
##oakan
##ampi
mov
jaemin
otaknya
badai
barengan
realita
berikutnya
ngest
kebakaran
anjirr
pliss
jem
vcs
##boy
##ath
##unter
perasa
kesayangan
abadi
##raya
menjelaskan
ramad
##ancurkan
son
##zer
maba
seks
penelitian
terjebak
berasal
##unyikan
penderitaan
detail
zam
##les
##fort
sedek
tekanan
pura2
pengumuman
03
##qq
abah
dimarahin
##mer
##ging
berisi
##endy
##entang
elsa
perangai
jack
ovo
##ihhh
dibelakang
report
account
bocil
weareonee
weareoneexo
fangirl
##des
ngap
dibantu
today
##shs
pdkt
hijau
09
##juran
##oration
seluar
plastik
keje
depannya
propos
ntn
degdegan
numpang
yutub
perpis
dibangun
tujuannya
##bara
##asin
semata
mengkr
prestasi
naek
refleksi
38
jung
nila
terbaru
dipakai
flop
kepadamu
pda
tam
menyatakan
mulia
berpikiran
sby
customer
luk
nyala
melulu
mainan
keselamatan
bagaikan
gempa
ckck
##isip
berkel
##aksud
seleb
pemer
pemilik
menyer
pertandingan
lampung
##tau
##ily
berter
hard
karir
memperb
gelisah
bf
kgk
##adil
akn
##imah
april
dimakan
##000
perso
mantep
nelpon
cancel
##25
##aret
ina
##aib
pakek
aparat
pelajar
##ujat
##ersatu
stuck
ratusan
attit
perpisahan
##ebon
adzan
dikatakan
gofood
dewe
wonder
larang
wed
##nie
##ave
empat
kuy
gemuk
nyenyak
##orbanan
ratio
##weet
##jana
##iksi
##anjangan
nnton
perduli
jend
seenak
tern
keser
mendek
##ency
personal
##ucin
##hyuk
artikel
waspada
##anfaatkan
percakapan
35
##pan
israel
menghabiskan
##presi
sdg
rambutnya
persaingan
pencapaian
hhhhh
lahan
poto
##ket
perh
##aluasi
kesal
wanna
stabil
piye
donk
ngedit
pms
ll
##inst
##elar
##uld
gelas
roy
balikan
berbahagia
urg
cong
absen
ee
##ananya
##ista
##ept
pengorbanan
them
phone
ghibah
senjata
51
gon
puj
keamanan
coff
boker
tn
##45
segi
akrab
##urukan
teruntuk
##inichi
ditak
packing
spr
iyaa
hei
wisatawan
gg
lan
qs
ngaw
think
kemana2
kudus
incre
dorang
##band
##40
##qw
bensin
arus
##embak
ngomongnya
follower
fitur
ijo
##isian
perbaiki
gakuat
room
cobalah
hus
hindari
mai
ning
##aro
##alian
memenuhi
##alamin
penulis
nyapa
lanjutin
lalin
ub
wujud
##mah
telor
##anjutkan
vaksinasi
skinker
##lamb
##abut
pengaw
mendung
dideng
bubur
treasure
ey
klean
##ching
pelik
ahok
tinggalin
hawa
mreka
terdapat
pokonya
nyalain
social
proposal
unit
##edak
ketik
logo
hallo
dikamar
terlambat
##etawain
kulin
cibubur
agustus
pledis
increase
gemp
renc
##elasin
skz
gd
hok
##ype
##lay
##con
##que
terwujud
##impinan
bermin
bersihin
jm
kunjung
##umat
##umlah
nemuin
spoiler
away
saham
##ead
seo
resep
batik
tertutup
duka
##yol
##jen
##uksi
unfollow
entar
hati2
shinichi
user
chang
bubar
kotak
gangerti
maybe
ciri
##dam
##ukah
##emik
alf
rumahnya
muhasabah
bajingan
fikiran
hh
##wt
tea
tugasnya
impianmu
manfaat
ngabarin
hir
tamat
emo
maskeran
uangnya
boom
ribuan
detektif
gb
hangat
##den
##land
##akti
kepengen
dipert
buktinya
persib
ngegas
lantas
noh
tul
##72
mengk
kelap
sty
keluarganya
senti
potensi
sisanya
henti
kzl
panggung
##td
##dom
##iker
##ingatan
berper
haibara
kemenangan
##info
kehad
spill
ngeliatin
penggunaan
cut
hhhh
##son
##lalu
biarlah
temanku
persen
salty
melebihi
bid
pep
##ein
##san
##ato
mentab
dimasa
pegi
kebawa
kuping
##ematika
persija
futsal
yng
max
sekelas
pening
doyan
botak
##iy
##lain
mengungkapkan
lov
exploration
rank
pb
tay
##mp
##jer
##uki
kebahagian
ditahan
idul
khususnya
##hiri
double
skg
##ahasis
elek
mobile
pondok
2014
sumpa
istrinya
fasilitas
ff
visi
yee
##iin
kebohongan
least
febr
##log
##leep
penghasilan
vid
##apor
mencer
chen
agenda
babak
asalkan
##ashi
tipikal
dang
##inter
takleh
##oth
mengan
mendoakan
lupain
##untungkan
romantis
penerapan
nasihat
##sol
adlh
pelangi
box
gereja
dakwah
tit
##sl
mengalir
##luan
awk
skrips
mbah
remaja
tercapai
kejujuran
##eless
minjem
exol
gading
##edihkan
ngadepin
qur
periode
##uatkan
bgttt
benerin
sedihnya
parfum
nempel
##onis
##uhp
terlepas
pelit
##peju
japek
destinasi
hind
##alog
selang
membuang
orgnya
gelar
##kwkwk
php
##engaruhi
mit
nada
sew
manja
##unduk
peserta
mamak
again
diap
harian
balasan
smoga
sejenak
design
penyebaran
snap
merinding
pelayanan
##ium
##atukan
akad
mena
antr
##ianati
dikejar
buruan
medis
kerjasama
tmpt
menurunkan
voting
ampuh
mp
piring
##sikan
ormas
##ebu
safe
mempr
prnh
melibatkan
belajarlah
##esss
##212
interaksi
gadis
cikgu
tampak
##irian
##uluh
peringatan
##impen
motornya
monyet
##auty
tingkah
ngalah
ane
prab
bigh
pikirin
nctea
binatang
house
aya
lidah
emangnya
malamminggu
serious
layanan
keperluan
cabe
horror
indihome
##etab
memori
kambing
nyebut
bukankah
maret
renjun
cah
cas
nitip
berupa
poster
klub
mnet
hihihi
kimia
flu
##fb
membuktikan
padaku
sampa
darimu
kerjakan
nunjukin
sentiasa
##etabek
gibah
pick
##yuk
pastinya
health
puji
##ulnya
mayan
##antak
stok
##aransi
award
person
arsenal
cipta
dz
ray
##enari
##etasi
stm
ehe
##usiaan
his
ws
##urs
sensi
##umpulan
utbk
layar
penjelasan
walopun
profesional
namp
jae
kekayaan
sejumlah
2016
pipis
amerika
bighit
jwb
mitra
pings
risik
##iw
##odetabek
atta
mainin
upfoll
wkwkkw
kekecewa
uh
menangkap
keluh
rock
##olehin
attitude
mahu
s2
menguasai
##ibukan
klin
##alisis
hyun
##quote
##oseok
cender
lik
suh
tni
##bulan
##atasan
kepake
##akson
ambisi
kegelis
lur
oper
ungg
mengend
ketulusan
amal
berbohong
kentut
vitamin
habibie
kegelisahan
sleep
dipr
dilanggar
angan
kehendak
ceritain
mengecewakan
gok
ita
ngk
kritis
##ograf
konsumsi
botol
kahwin
mensyukuri
sangka
##yaran
##nel
##amain
##iaga
bef
sdm
##joon
##imbulkan
really
pelanggaran
sahaja
diingat
disamping
minus
twitt
layang
marketing
xixix
tradisi
##erakan
##urin
memecahkan
##urunan
blokir
cenderung
ess
sid
daniel
anjay
nontonin
sempit
road
stopkr
cengeng
jek
harapkan
mengajak
dengannya
emos
##ody
kekecewaan
tal
karen
merendah
##aca
sound
balikin
baperan
badut
sejen
puyeng
bnget
persoalan
mol
##cr
ngebut
##taun
menginginkan
kecamatan
krl
penduduk
hyung
jisung
pingsan
pungg
wad
##hee
merk
penya
disalahin
bersin
special
goda
statement
mtk
kipas
##iminalisasiulama
##121
##otam
nangisin
berpend
nyariin
angkatan
face
jaket
cle
kand
##sung
##amen
seeng
berker
sayangi
itupun
bulanan
stopkriminalisasiulama
##yel
dikata
cermin
siap2
conta
meremehkan
wkwkwkwkwk
baekhyun
ngajarin
pahala
ramadhan
nana
##ism
##oma
untukku
daun
##box
tenggelam
risiko
lep
akunnya
palestina
angkot
invest
mepet
##apatan
##ehhh
nyeles
dibahas
dikel
terkena
nanggung
oalah
tangis
keindahan
##ikul
peri
sekadar
didi
terpantau
geli
siswa
##80
diangg
##ulin
menolong
seterusnya
movie
denda
pisah
menyebut
padanya
##cha
10k
netijen
nark
rasulullah
aaa
fast
vic
than
dugaan
kla
tgh
##itahu
belok
membenc
membuatnya
wait
feed
rapih
mewek
guling
seller
##yen
nyindir
idung
pembunuh
impor
jabodetabek
annoy
meg
##pam
##iness
temb
skali
tokotam
sumat
tokotamz
rehat
##32
##ering
##ilat
##abi
tahunan
ngecek
gaduh
tatap
hijrah
unsur
##br
##angani
penilai
cry
untungnya
laju
##umbar
##angkang
##angsing
dihad
mengisi
berhati
menyedihkan
begitulah
buktikan
pikiranku
before
singg
##nk
ngid
dibenci
berhubungan
pink
mempercaya
kejam
instast
##rastr
jijik
tog
##ress
##bijak
ngalamin
##angsa
berkendara
##oyo
##unting
filter
compl
##zzzz
menyesali
bubarkan
hikmah
32
hs
##md
belah
ketahuan
disus
##icarakan
choc
jejak
nyobain
norak
ngadain
yha
##ts
##etnya
apaa
##eps
menguntungkan
pengec
##indas
konyol
##imbing
bengong
abaikan
fol
##uana
##aters
##amaah
##orr
saw
##ancing
rekan
##eyong
lawak
zamor
cwe
##elf
sav
##embunyi
toleransi
menghal
##mmmm
telur
kabut
klik
persis
pipi
blablab
menemani
tro
diselesaikan
extra
elf
darinya
kunker
gaperlu
punggung
mengut
kemajuan
dibuang
drtd
dirasa
terkesan
club
verif
cant
mh
sila
##emar
menatap
also
fisika
februari
mung
pod
sri
##eun
##rika
##uekin
che
kakek
##under
dihapus
gilak
pesonafestival
beh
juli
reti
##ugg
##pas
##iskin
##ely
seragam
terbatas
que
##lek
##onan
ngun
selim
kebers
##indungan
rakyatnya
infrastr
##illa
tekan
teguh
elo
##ez
seok
##ado
perintah
hari2
stray
lelang
ucap
koruptor
mewujud
cy
fine
yus
##bukan
##come
ngulang
membaik
##ative
polos
hrus
wtf
kunkermen
aut
tebak
##yaku
mengus
press
kesimp
add
pulih
mudah2an
antri
never
tudung
##dus
sewaktu
##ukum
##uruan
menpar
trnyata
amik
##antian
pertanda
berpisah
kontrol
##overt
contact
fungsi
##amas
perfect
masukan
alih
serang
imam
ular
lewatmat
bedain
lamb
roh
sank
sono
ngl
##usahan
tikus
puisi
paper
school
lagii
##atersenyum
gep
sapi
turn
##ness
##ahhh
ngay
mass
tiduran
##edek
tembok
pengaruh
tidurnya
##angkep
##iiiii
parents
klw
##ejut
kejebak
ngrasa
##mudahkan
##akitatersenyum
lewatmatakitatersenyum
ret
##iklan
karuan
ketenangan
dragon
putri
pemberian
ngmg
memerlukan
##bot
##ukasi
terindah
pred
membela
percintaan
aaaaa
##asang
kew
##uler
kemas
disakiti
ponakan
##baswedan
christ
sper
sambung
##75
gud
another
pelukan
cewenya
mataku
darurat
kmren
ikatancintaep302
lusa
soto
merch
kemend
##jujur
ahmad
yakali
dinilai
stie
rintangan
rok
turu
##okasi
jaminan
cho
kpo
##play
##ashion
komunitas
antrian
bini
pom
sas
##ilo
anter
##ambyar
tentunya
meet
service
huruf
infrastruktur
##akitin
agung
bersyukurlah
jerawatan
amanah
photo
diajakin
ogah
mahasis
##ero
##enial
aka
##iranya
naksir
menghancurkan
kedamaian
##laim
budget
mayoritas
miti
oiya
sate
##asik
##eteran
menimbulkan
menyerang
insom
audit
tribuana
mumet
cream
sewa
terjaga
senanti
kecik
strugg
##unjukan
##time
##ugerah
kenyamanan
berjanji
tf
##tunya
##nam
##bali
##tain
emot
##awi
tersangka
sejuk
ngebayang
kantong
videonya
kapas
layaknya
indomaret
fel
kaku
ohh
pny
##iapkan
##dk
##jung
##94
##0k
##ester
teroris
keluhan
diteg
ditentukan
pertam
beas
desain
visual
##ound
##iam
ngaji
master
##antang
##andalkan
disakitin
following
produc
senantiasa
aaaa
feb
gond
semula
memu
mengin
sebeg
serum
lipat
dikab
##yangkan
smg
tolonglah
depa
permisi
fansign
tabungan
djarum
transportasi
gitar
jang
jih
jemb
news
##apak
maya
kesibukan
sug
apanya
temenin
chatan
##istis
repub
global
fancam
mengandung
pengembangan
asia
##obati
coup
haduh
sikat
mulutnya
##ediakan
##kal
##pal
##asy
##etap
##ild
##pac
gaa
##upang
kemauan
bljr
kedeng
didapat
jokowimaruf
alloh
75
gerah
kik
morotai
wang
##enge
ngen
##inding
mimpiin
elit
menerus
127
##engkar
entahlah
jik
jidat
dius
berati
jugaa
adegan
muluk
bapak2
hambatan
smk
##istik
ibu2
gituu
view
company
penilaian
ele
sena
##²an
##ikmat
##tie
maling
diketahui
##ahahaha
parno
gini
##bola
##omo
dirasakan
healing
kehadiran
##sang
menguatkan
nyer
##ikannya
apresiasi
maneh
abg
bln
##sha
ambis
strong
kls
deg2an
preview
praktek
tara
##wanya
##base
teratur
kalangan
##odi
asam
marahin
typing
jilbab
instastory
sng
##cine
ori
##orse
##akuannya
sold
taik
ajarin
##eritain
komplek
ugm
jati
##los
##fas
##²nya
##itusi
##antara
terlibat
faktanya
##ongkok
74
kill
##ran
ord
masyaallah
bawang
diben
deep
dewa
transaksi
lemak
sale
beraktivitas
ngemis
##umbuhan
aniesbaswedan
langganan
gej
kunj
##ier
##net
takpe
##aaan
##entingkan
indos
berlari
melihatnya
office
##atislamb
kepadatan
gblk
##atislambersatu
eg
nm
sape
trip
##uara
##iram
karang
serangan
light
blum
dipikirkan
dongg
berlangsung
##embangkan
mingguan
vaccine
klinik
diundang
pentingnya
effort
taeyong
tertekan
hanbin
##urangin
kentang
karawang
bua
fess
lump
ppt
tingg
##ams
##ularan
bangettt
##ibers
begin
caption
namjoon
pembah
comment
perasaannya
hbs
jemp
voc
##eo
##cm
##eras
##ampau
menyus
members
menjamin
aneh2
ingatkan
tlg
ketemuan
refleksiakhirtahun
hiat
nadi
tarif
##uro
embel
seberat
melah
menyimpan
dires
koyo
yakni
mewah
0856
dimanapun
gand
kis
our
tungg
##kam
perilaku
menyang
membentuk
adab
##eez
ditonton
mencuci
capai
sbm
klian
card
##gram
pantang
pssi
##ribusi
bacanya
ibuku
kukira
bantal
##rd
##ongg
pengeluar
kui
dimasuk
##stem
klakson
hukuman
merayakan
##jerawat
uz
##pot
##bud
haritu
dikaren
dikerjakan
anget
hubungannya
profes
punt
##boleh
inisi
##agama
thd
cool
ngerep
haid
teks
tau2
bawel
##firmasi
bungkus
dikarenakan
rangk
wir
##ale
##itisi
aktiv
##ornya
truk
##eeeee
nyaa
selfie
kod
pnya
side
##kos
##akna
##itia
menonton
memat
mao
trili
dikr
matematika
##sks
2017
##akaian
od
rag
##omen
kebuda
pembun
relation
pembayaran
kesetiaan
sampaikan
analisis
##egal
jangankan
tris
pinbb
memperk
dewan
mempengaruhi
dadakan
wit
##ei
##dirkan
##ingi
kesan
salahin
##angkal
kecerd
dihati
silakan
muhammad
welcome
narkoba
kpopers
beasiswa
55
united
alis
kerus
solar
laun
tersendiri
jela
laki2
msih
lowongan
kebudayaan
39
iq
pidat
wkt
##okin
mementingkan
##entak
mengirim
keburukan
solid
jeans
##abisan
petang
openfollow
##gabung
kgn
money
##ren
anjingg
dibalas
ditet
kacang
##eluarga
psikolog
annoying
cre
jr
diulang
track
settle
syah
2015
mara
##umin
nye
pensi
chara
public
leher
greget
ceb
ranc
##with
##zh
prank
jamet
awet
##ewatin
##astag
mentok
insya
berjam
wts
dulunya
timbul
melahirkan
pembunuhan
jangka
xd
yogyakarta
##air
sejujur
berusah
kesihatan
tanp
ketahui
true
kecantikan
dilema
##shinta
bawaan
modus
##media
kiamat
disekitar
mont
svt
##ewasaan
stock
doaku
keluarin
menghibur
pertumbuhan
pendapatan
file
0838
ikatancintaep28
pain
vo
##rian
##mend
##ekek
kafir
diserang
dipilih
chap
kembang
ngebuat
pejuang
pilek
buru2
singgah
pengeluaran
dgr
sint
##cep
seber
ingatan
##udung
bersamanya
dipel
##tro
##night
evaluasi
singap
kapok
gundala
##42
##ins
##asnya
seblak
sendal
peneg
sertif
ceramah
musti
imut
badannya
bawain
kpn
jastip
kemanam
##wasraya
mengkritik
est
milan
ketahu
blue
reaksi
memperlakukan
beauty
right
bendera
nyiapin
bengkak
sedekah
prabowo
##mur
##gma
meledak
enek
tick
ident
action
goyang
memperhatikan
##ahabat
jagain
tertulis
budi
##emangatin
ngentot
ngebayangin
99
lad
sasuk
suhu
van
##88
##antin
penerima
nontonnya
##shad
resolusi
pendukung
ceweknya
joki
sejahter
maksain
pkl
##pns
rata2
sanksi
yuta
zoom
##olongan
kesalah
penjual
disebabkan
##ontrol
channel
akutuh
hon
##apain
ald
sesuka
soalan
shopping
ngepost
ekspresi
mendatangkan
muhasabahakhirtahun
itachi
ketahuilah
lut
sara
tilang
##iday
##eketin
dengki
siwon
mbaknya
come
wooseok
virtual
note
##14
##ilkan
dandan
oranglain
kamibers
sekej
pelantikan
iblis
yoona
pinned
spirulina
##engkapan
avail
##erdeka
introvert
gomb
##ware
##ky
##uch
##gian
diubah
##icil
ayu
clos
krisis
nilainya
##hum
##37
##60
memastikan
##egar
baruan
rey
martab
ngebac
##hae
terdengar
etika
##ery
##arinya
##aic
memf
maito
kelen
bls
didengar
panitia
okey
piala
stud
beresin
cemas
jed
nalang
##engerti
ngene
selepas
lubang
alk
sedi
ish
murni
ngehype
sunyi
water
etc
nawarin
kuliner
nihh
pernyata
altern
pelajari
konon
green
0813
kejap
sarjana
tenggor
porsi
bertugas
elev
ais
human
##awa
##fact
##ahaman
kesenangan
kuc
##emui
taemin
abisnya
filmnya
##weep
sunda
record
login
privasi
refres
rutinitas
janjian
jom
kunc
##slak
##ekatan
penutup
hair
##ensinya
komputer
syukuri
typo
catatan
divaksin
bernama
##zalim
kingdom
sekeliling
72
cw
lum
simb
va
##utr
##entuan
banyakin
nyali
##sial
diser
##gaku
##elahkan
objek
##roid
##feel
kulkas
azmin
rupiah
judulnya
rules
ditetapkan
bdg
land
##rong
##park
##itunya
diisi
memanfaatkan
bgsd
loc
halus
koq
##goda
seriusan
bner
worth
##self
macem2
gembira
pinggang
menyelamatkan
senayan
cpns
hendak
##ugi
##onok
menta
kardus
##perluk
kuda
keluarnya
shock
shift
##pruin
jauh2
alhamdulilah
bandar
ekspetasi
bjpruin
hiatus
##shadweep
##slakshadweep
bjpruinslakshadweep
iu
mong
##hti
##esin
pasukan
moa
system
ngejalan
pendengar
komunis
pembahasan
##operasi
##tl
##ball
##zia
##asak
sejalan
memaksakan
kesusahan
apps
atlet
there
reuni
ceria
dipers
berputar
hadapan
pacarku
tangannya
bocor
everything
cucu
menghalangi
punten
cit
ank
belanda
sebisa
gram
tersisa
tersedia
bangunan
dicoba
inspirasi
larut
indosat
hem
var
##call
##ek2
masanya
meluk
##hhhhh
sejat
dibilangin
bubble
kemanusiaan
jancok
fm
##official
##tik
##git
##irin
berawal
kamunya
baiklah
manapun
berkep
bising
082
bermakna
curh
gorengan
profil
volume
kenapasi
racun
merendahkan
##ius
##ns
##isti
##online
##etuju
##angkali
ngeyel
sukai
pengganti
player
hope
pisang
suaminya
myself
##isipasi
kecerdasan
jender
kwa
lng
nal
tj
diukur
akeh
perawatan
masal
##endem
melelahkan
diseb
##usahkan
refer
syari
bbr
pabrik
relationship
pernyataan
1st
aer
cuan
jfb
magi
##dik
judge
kelakuannya
omongin
##warna
jendela
hosp
lont
mimin
wid
wac
tema
segar
magrib
cerai
meyak
itung
expect
##faedah
gengs
haa
mot
##ense
##akimi
##alukan
##urusan
##ut2019
##adian
mengkh
liar
thx
menyuka
segan
resah
##tron
sange
nganggep
menetap
congrat
dianggep
martabak
tomb
##can
##arn
##arno
##ikhlas
##irah
luv
sif
tuanya
asm
bersuara
##ombolan
menyapa
##tabut2019
bernafas
pesonafestivaltabut2019
garansi
neh
yan
yakan
terulang
##eduli
kesek
treat
slogan
narasi
umatperluk
market
sobrang
leader
jenderal
umatperlukhilafah
ain
ft
nuntut
vlog
##cast
keuntungan
massa
orang²
kepan
coy
macetnya
here
bd
done
ero
lempar
##3r
##irnya
tercinta
akuu
##oriv
##ontek
##umahan
##ection
pembatasan
boba
##pppp
ucapin
deres
blablabla
aur
##uit
##dream
ngitung
apdet
puluhan
chill
broriv
paru
batalkan
haus
bergaul
ingetin
2019jokow
joget
genap
diving
republik
berusahalah
##aicenter
brorivaicenter
bull
cad
cwo
moh
rip
ve
##yok
##fm
##umaki
anxi
membag
doanya
menyentuh
blog
awan
geram
##izinkan
palest
##empatkan
34
5k
gbs
urip
##yam
##fud
##uknya
apus
tersinggung
anjirrr
perasaanmu
puter
gagalnya
dikit2
days
recom
rapuh
nengok
##akutkan
seenggaknya
kite
wamil
##rop
##iar
tertu
##ampiri
ena
##arannya
mendalam
dev
##ersih
sebabnya
kapanpun
superm
phot
permintaan
diliatin
##labuh
shoot
baku
aset
usai
awam
pesimis
berganti
##berlabuh
surve
legal
sepakbola
space
coffee
mix
quran
##atangan
##emana
##els
menaruh
ask
diperlukan
tiba²
kmn
gapaham
darimana
simpel
penghar
metode
bajunya
nagih
hantar
bimbingan
kemanamuslim
fyp
tobat
wtb
##nia
perpanjang
##agak
##edo
##abu
disangka
grad
pulangnya
berpura
diciptakan
##maap
ditinggalkan
friends
kids
##ophobia
tenggorokan
##berlabuh2020
kemanamuslimberlabuh2020
cos
hastag
jay
##uap
##89
menjual
masnya
univ
kajian
keturunan
menyusahkan
rese
khas
yahh
fresh
screen
since
nothing
mindset
tenan
##infeksi
literally
banya
bcs
kpai
##aming
diangkat
##umatislambersatu
matang
games
suku
struggle
couple
hur
iye
zeb
##idur
uname
##ianat
emyu
amarah
##embers
kudo
##key
saatnyaumatislambersatu
triliun
curhatan
dama
nis
sevent
dihat
##gaji
perumahan
##oli
kambuh
uninst
plak
chatnya
gigit
menyebalkan
mendekati
##iskinan
yatuhan
##fl
##ars
##iks
beroperasi
masakan
banting
kart
pakar
dibolehin
bersinar
kecap
tertinggi
hijab
bokep
mutualku
rabb
##elete
sultan
3m
perna
seminar
barangkali
pack
berpihak
edukasi
udeh
mendapatkannya
sambel
platform
center
hash
jing
uy
##ungin
##epon
pros
sense
##shit
##tahanin
bhs
tuntutan
sejahtera
fashion
ojo
##tetap
##dep
menekan
##eduh
berdamai
dicuekin
##ention
istana
edan
##llll
celah
hend
nekat
##lang
##erahan
##ekon
##aiban
diabaikan
kafe
dimengerti
pinjem
dating
##ingkatan
berdosa
sedikitpun
teaserquest
mulailah
ahhh
##mau
ngono
anugerah
barunya
kemiskinan
##ential
terpisah
diemin
##ribut
roda
fitri
pilpres
invite
cintanya
buruh
cie
##iq
##lot
pertah
meme
dengarkan
kemeja
ditulis
##angkit
bangunin
##ombang
##gger
hyunj
melayani
debu
hed
nangg
##gor
keaj
##pack
kuis
menghormati
deal
mutusin
2019tetap
##juangin
##enggol
foya
mempertemukan
sejujurnya
bc
fah
formal
rebut
##our
##its
##umber
pero
##araya
nyasar
asuran
dibagi
same
date
kenaikan
perasaanku
pesanan
##thn
prosesnya
##udahan
aldebaran
fee
pai
##100
ngira
semut
bisa2nya
mancing
berdampak
jokes
penyeles
##tawakan
bem
lulusan
##uke
##siapkan
siapa2
##erani
batal
piece
hadeuh
keseringan
mengendalikan
alternatif
mentaati
cute
flight
lindung
page
saudi
##eld
##ork
unj
##siapa
melengk
peningkatan
terusan
minhee
acaranya
batre
goblog
berkualitas
style
rasan
##63
##yap
pertim
##agal
apa²
kesejahter
nii
adat
bersahabat
dikant
selesa
bra
##inton
##mmm
android
beca
followback
##tivasi
##ustadz
bodohnya
kapol
ngejauh
cabang
apply
robot
mimpinya
ole
ven
##ukup
##idana
##ehin
##ampar
##ajat
looking
cowonya
##ombongan
misteri
insan
tongkrong
hye
tali
##rit
##utu
##oka
sayap
asrama
ayolah
terbit
bandingin
123
outfit
copot
istiq
jempol
chapter
wacana
kuku
sump
##ls
##jat
suda
##ayu
halangan
##okuskan
##ofit
ganjil
eunsang
##ekuensi
bebaskanustadz
rencananya
##une
##ustr
dilu
##agang
nyangkut
doyoung
adv
berhari
kating
##uuuuu
##istirahat
kagum
untk
rekening
monmaap
import
anjrot
ustad
manager
ngotot
gempi
chocofit
2019tetapjokowi
5m
cen
jelah
lamanya
tump
zh
##sy
##db
##enakan
##arut
##apro
diinginkan
terinfeksi
sela
##ederhana
nyerang
pengel
energ
##jualan
sedia
bolos
padam
abi
konv
cring
busy
pelanggan
berkuasa
penyelengg
kapasitas
memuaskan
eropa
pertahanan
tala
##yani
##senin
##dak
##lawan
##atik
ngal
##antar
##angkatan
kakashi
secret
nyamperin
mslh
lekas
studio
bambang
meresahkan
kesiangan
seventeen
pertimbangan
cul
fc
iuran
##ox
##asiat
gwe
membatasi
disisi
store
putra
sengg
perbanyak
meninggalkanmu
tsun
psikologi
zebra
hentikan
##eres
belain
pemul
ateez
menyediakan
kontra
waktumu
perlindungan
wktu
because
ehhh
##alo
##isk
diaku
teri
nyeri
adh
keprib
bermaksud
jogging
pojok
sungai
ditinggalin
gosip
bebaskanustadzheruivan
cv
hshsh
mjd
wew
##gt
##ahin
##araku
ngas
##pain
##orok
##abah
membeb
ditemenin
reform
duid
ngelanggar
sksksk
push
baswedan
ngantri
santun
lamaran
menetapkan
lunar
nutupin
mewujudkan
uzumaki
sifatnya
jurus
ric
##aing
##card
##iro
##umbuh
step
2024
kecoa
menghindar
going
second
##likasikan
kayu
bobok
ustadzheruiv
##bersalah
sebagaimana
dikeluarkan
##antakbersalah
magic
keajaiban
kesejahteraan
ustadzheruivantakbersalah
##less
beragama
berwarna
##uha
ngeli
##fff
pendaft
sejuta
pait
ghosting
diomelin
hipotes
sekejap
hin
##ater
##engh
##utih
terper
##eksp
gub
memin
moon
senengnya
buruknya
mons
basic
performance
bnr2
aksesoris
queen
daj
gapa
##rin
##ampok
sebagus
eneg
besarnya
arm
##auhan
##liv
promote
dahh
produksi
arief
##osankan
longgar
hafal
##ografi
sejatinya
fly
port
rb
setaun
##ingannya
menenangkan
##egon
kitab
##lahir
kesannya
tanjung
aspek
dikumpul
sour
duanya
##prof
ngehar
selimut
##rot
##emis
menp
##old
memilik
kelengkapan
anakku
kadang2
ngebucin
petani
mnc
reminder
cium
finally
mgkn
osp
roll
sangk
wqw
##tasi
##mem
##vir
##arikan
##isal
##itau
saiki
sebet
##opedia
##anjak
thing
##cks
kekal
memperjuangkan
wey
gercep
pasangannya
##efl
##epatah
instansi
kinerja
tertuang
##yid
##oe
##elakan
dian
siii
dibohong
twist
manusiawi
bacain
terburuk
##ition
##enggam
watt
ngesh
got7
yasudah
jutek
37
yang
beriman
semestinya
look
pasir
asn
halnya
dibi
anakmu
beserta
baginya
tagar
sndri
buaya
talaga
dob
mess
xde
##fil
ngadi
mabuk
alergi
kemari
##ayan
assign
##ontak
itzy
akuntan
followan
instr
gituan
bengek
rahmat
berminyak
asuransi
fs
lord
##santuy
##hawat
##alia
##esat
ngurangin
##dahal
pengendara
ash
menyiapkan
abdul
warnanya
english
berdarah
bukhari
tweetnya
tutor
yori
##amm
diak
maf
##ibadan
melanjutkan
tiens
satu2
brok
menghampiri
berkumpul
siapin
utuh
huhuh
siklus
taro
persatuan
xixixi
gih
luh
##bn
seek
perasan
menag
pengir
pemilih
##awak
menghentikan
heheheh
lewatin
##anjutan
0821
tepatnya
kawan2
busway
headset
bahagianya
retak
tuh
##laku
##entif
akib
##ational
membosankan
dibub
ngerusak
agen
besoksenin
jauhkan
heuh
diem2
relate
hyunjin
ospek
mami
##anye
##emua
mengag
disadari
kebagian
pelaksanaan
dilaksanakan
exp
psti
2010
boneka
pahlawan
tuntas
jembatan
400
bup
dus
duni
jong
##aah
##uras
ngalahin
pemilu
seronok
manut
berka
umr
dijauh
drive
wasap
bhw
reward
elevated
cim
jt
##isnis
##orn
##impa
##otensi
##abul
asw
isteri
idk
malemnya
ajaran
hahahh
dihadapi
cepet2
tbh
fanbase
lot
ranjang
##dal
tidaklah
ketentuan
butter
##imbau
nyetel
##etiap
valid
hospital
wp
##suk
##atau
##unah
diuji
##ident
terlahir
##agen
##uhnya
telp
gilaa
terpuruk
##ungkap
petir
##zzz
##limen
hell
##vive
nabrak
subs
radik
kunjungan
kamibersam
assignment
kob
lom
s1
##oda
terapkan
mengobati
prep
nyimpen
##awati
ditemukan
blas
berbulan
terkejut
memperoleh
rezek
ikatancintaep303
menyembunyikan
glowing
akibatnya
berkaitan
53
haw
natur
##tag
##pet
##akn
##agan
ales
price
sendu
##angsyariah
kurangnya
pembuat
dinikmati
##isahkan
umumnya
tampan
handle
berkali2
disusupi
gapailah
gym
sasaran
##ongi
ketutup
disukai
ste
koord
komis
olshop
kedalam
pedih
konsul
beat
hero
##indahkan
lbih
silap
hayo
cilegon
##adik
##emon
permen
##osis
mengembangkan
mertua
keluarkan
iss
segede
efeknya
taek
toefl
yeay
daring
serupa
tabung
##ultas
##wajah
##inary
ditaw
mempercayai
gx
oi
pena
rump
wall
##angenin
##espa
buatan
tembak
teruskan
soc
selese
##amies
gemini
##urnaan
ideal
kubur
pujian
dal
dkk
kyak
mill
renang
xl
##ious
##aq
##gant
##inin
haru
kebuka
coach
bukanya
datangnya
urang
digitu
##mail
tumbang
aktifitas
testi
dreamies
debit
diterapkan
orderan
memfokuskan
jp
jeda
ojek
##kel
##eny
##akunya
##ahmi
sembang
tanam
bahu
teruslah
dipandang
exam
dimana2
install
mrt
antigen
ngestan
asi
cra
gda
lit
##ron
##elekan
menger
sekecil
sekiranya
meren
pemuda
liv
saksi
eksek
kurangin
dug
##istrasi
setelahnya
being
wei
jiwasraya
izone
ajaaa
cucuk
own
pengiriman
hee
jengk
nok
pimpinan
raf
##97
inti
ngutang
perawan
mengangkat
troto
melukai
pemprov
##uban
ujar
tekad
tersenyumlah
rh
sita
yow
##sara
##nyaa
##omah
##ampu
kalaupun
disetiap
isya
soon
polis
awal2
parlimen
bangun2
##encet
diganggu
naro
najis
ustadzheruivanpeju
urgent
bill
gata
kandang
lond
rv
##cint
##eru
terikat
memus
kelewat
kemac
stadi
bersamaan
business
njing
trojan
dimasukin
cringe
new
tma
##elapan
nyep
##ope
tuu
past
poses
dipegang
##gha
berpengaruh
mempers
yukk
survive
sales
terjatuh
terganggu
kadar
period
sumatera
ea
seimbang
##aper
banyak2
nyontek
asumsi
dipotong
bagimu
notice
proud
bandel
kejutan
##grade
hiya
kapit
berfungsi
nambahin
jokowimaruf2019
tongkrongan
ustadzheruivanpejuangsyariah
laaa
##pak
##lian
##ikapi
inimah
bercinta
##ulamal
##ague
harm
##ampas
kebang
passion
mendorong
krim
ngelarang
ngelupa
ajaib
mandang
surpr
saranin
silatur
ustadzheruivanulamal
kesimpulan
ustadzheruivanulamalurus
lalui
mok
nurun
diadakan
##ekam
mengadu
penja
##judge
##udzon
agency
skarang
musibah
0812
##residen
grabfood
s3
tunduk
##aram
key
oren
##uper
##ege
##daf
nyemangatin
berturut
teel
transl
pesta
fren
barangnya
topeng
teriak2
dipikir2
pergerakan
##ektur
keberuntungan
jatohnya
mapel
attack
sasuke
reyna
dahal
hil
juma
##akbar
##atat
akar
##upuk
##ric
berhubung
berkorban
habiskan
leave
pantat
##ungkapin
2013
petunjuk
gerombolan
layout
bonc
memperbesar
aga
derita
gent
kog
##iang
##hub
##pem
seiring
##ilas
menipu
kerudung
templ
kebal
##awanan
diput
bebek
imbas
##jofficial
huf
pubg
ngadu
humor
fen
ice
rn
sjofficial
##wet
##ermin
aktor
ngoc
##umuran
menempatkan
merhatiin
thai
dilad
menghad
menghakimi
##here
bulat
hits
berniat
mengantuk
twitt3r
trisakti
cadangan
pagu
##cap
##ak2
kea
##umbang
takyah
##oster
pengakuan
##sive
pemas
bahagiain
##berlaku
fakultas
tulisannya
eror
menyakitimu
handphone
deras
kepadaku
ngepr
##wajibberlaku
everyone
ngebacot
ngelupain
##wajibberlakuadil
48
bca
cast
japan
lup
oc
tng
wud
##horse
##morotai
mengab
alum
keramaian
##ewatan
##ubungi
kepem
menyiksa
##embalikan
kmaren
##love
dihidup
lihatlah
narik
uniq
dcquote
dibeliin
botak90
trojanhorse
ec
nembak
rub
berib
##bawa
penip
keped
mencuri
kasusnya
##embus
##ancara
menghapus
pinjam
kakinya
##press
konteks
tepi
kepadanya
hobinya
##affah
hakimwajibberlakuadil
gokil
kedengeran
sebetulnya
dd
delete
gob
tin
##kaffah
##26
menungg
maluku
menghadap
berkar
acah
baterai
##hless
carilah
genre
kupu
should
commuter
damp
format
kitanya
pepatah
##ukin
perhatiin
##epeda
dengernya
##udar
blunder
segitunya
dira
other
cobain
mlh
hahh
letih
ngantor
##ungsoo
sinting
kemacetan
fer
fyi
##vet
##auang
kesukaan
ketek
senen
##stal
sks
selamatkan
batasan
sukar
obatnya
yakinlah
balesnya
misalkan
intelek
checkout
ngaco
ginian
kesekian
hipotesanya
bik
fore
nus
tq
##ychibi
##hs
##jangan
memben
nongki
##ujanan
realistis
keliatannya
wajahnya
##ultasi
payung
gojekindonesia
sembunyi
paginya
kkm
bersifat
diakui
jes
##akl
##angagal
##utif
gaksi
bibit
pasca
dikas
toba
100k
abangnya
basket
dagang
stigma
##ebrang
mksd
##gbt
kepribadian
hg
pdahal
sihat
kemerdeka
nipu
##anggakan
##undip
marri
leo
raih
##ikmatan
nino
diajarin
zonauang
argumen
rizki
menceritakan
uninstall
bupati
paguy
59
dung
jeki
wali
ال
##atar
##aton
ketuk
peristi
##omu
mabar
keringat
banyakan
stlh
malahan
##ical
awali
capeknya
foto2
pahami
gantung
perlukan
badminton
sepatutnya
launching
##ekonom
dikantor
penipuan
dai
ihh
jakar
kfc
pie
tendang
##eum
##aria
##apapun
##ister
##utat
mengasih
size
peningg
##erahkan
ayob
twitteran
terbuang
mantengin
jodohku
terjun
ngemil
##rektor
ungkapan
kikies
akuntansi
alesannya
hajar
mapan
ril
##ped
##71
##unir
berenang
ngewe
teras
memo
##antina
melewat
warkop
dipenj
dimin
goa
pendam
mempersiapkan
bacotsantuy
ikatancintaep29
maki2
erick
trotoar
ach
dalan
eyang
egk
paj
##bon
##ven
##akap
ngn
##imes
##ebatan
##eharian
kenikmatan
##ayat
stup
##aci
things
berbau
enggan
##ingking
begituan
murahan
##kwkwkwkw
umurnya
perlakuan
planning
nyenengin
##fsuteki
ditakdirkan
sejenis
ngejalanin
##aprofsuteki
daw
rin
rangka
##asm
seumuran
ngetawain
##edam
dilanjut
diperbaiki
koment
khilaf
their
burger
mencintainya
##skzalim
motoran
galon
##fren
batalkanskzalim
peristiwa
##rektorundip
batalkanskzalimrektorundip
htt
pau
##pus
periksa
menakutkan
##akannya
mawar
ads
hehehehe
gile
hilangkan
fansnya
riset
pilk
cirebon
damn
didengerin
kamibersamaprofsuteki
kemerdekaan
cli
ily
kow
sih
##book
seat
##ikot
kemudahan
shaw
kesehatannya
duck
mampos
hahahahahaha
legend
foot
dngn
hobby
pendaftaran
fas
lost
pangan
poll
ry
diapain
harimu
seksi
maksi
##ayar
doank
posisinya
tokopedia
tertinggal
##zza
##ribu
penghujung
gosah
hasrat
ckckck
ding
gp
hen
kuh
pw
##uss
masang
anis
##iawan
nyant
aduk
##icu
bilangin
##star
##ancarkan
oksi
pembic
seringnya
influ
curang
idola
labil
praktikum
sesiapa
jngn
awkarin
beribadah
aqu
horm
ppd
##isu
##imas
##uhi
membedakan
bolong
sebenar
##inaan
persep
tlp
##lokir
copy
##ikhlaskan
78
cet
hambar
##rid
##uster
dialog
##ulangi
baunya
merelakan
kencing
membicarakan
##obud
##ahahah
kry
awkw
pelat
berdo
khasiat
ilm
bagusnya
heheh
dicek
carrd
lucunya
conf
cepetan
kantin
kehilanganmu
pencipta
fair
##ondong
tomang
concert
komisaris
stupid
auth
jh
kian
##run
##suteki
##dalah
##arap
dilah
diinget
meman
mengap
makalah
amit
##econ
dikala
##ooooo
nasehat
leha
kelaparan
##profsuteki
mangga
vip
##rih
##ree
##wow
##mes
##esti
beru
ngampus
ngangkang
anno
merep
kelewatan
pemindahan
serah
menyambut
mendekat
kurir
diperjuangkan
mesen
tdur
strang
proper
mudahan
penyanyi
panasnya
tmn2
domba
cicak
klien
training
earphone
cincin
uniqlo
gf
nuran
paha
ue
##55
##cang
##xy
keik
##et2
##esak
perj
peninggi
asem
soek
usta
dipikiran
donghae
onlen
umi
kabarnya
mengganti
bayarin
dukungprofsuteki
stalking
selangor
anxiety
penghargaan
penyelesaian
cd
dol
lindungi
tmen
##red
##not
##pb
##jsk
##irit
##oku
semisal
taksi
##jae
##ego
meraj
kebelakang
mane
dipenuhi
idaman
lemari
##berkah
0878
satpam
##menit
recehkan
tindak
erat
derajat
penerbangan
aurat
cent
lain
##du
##apua
##ella
taktau
nyebar
sebar
##andingin
##ayasa
adam
ditah
kredit
lawa
komik
upgrade
pembela
berlanjut
haters
kuningan
perhatikan
refund
yesus
tanpamu
dajjal
radikalisme
98
tunjukkan
masy
karet
buatlah
nyantai
apik
disampaikan
cintailah
dilepas
##ingkuhan
depanmu
imun
tanyain
gedeg
menertawakan
papah
sinar
cekidot
lahiran
bngst
rumor
wayv
rangorang
parkiran
dohyon
profesor
pemulihan
paguyuban
cum
deli
tnt
##twitter
##5f
##alti
##ony
beristirahat
perjuangkan
menab
##otak
mengadakan
membahas
ente
asd
adi
berhent
kecepatan
dipaksakan
dipendem
dimatiin
kehabisan
sll
bareng2
bsok
love33
150
terduga
migr
sometimes
##orbankan
sipil
kompetisi
godaan
hashtag
bimbang
jeng
##weh
##nih
##ney
##festival
##xb
diucapkan
##utkan
ditangg
##embok
sangatlah
bej
buntu
gadget
type
ituu
kunkermenpark
socmed
posesif
cetak
dina
eta
lm
led
##urga
berdaya
##oso
##ible
penularan
tub
##nahkan
sedunia
counter
bersaing
twice
##ifa
dipahami
pedul
sia2
dijelasin
sarung
mnta
dosennya
lautan
diaplikasikan
2nd
jamaah
pati
##umkan
##amaju
memimpin
memeluk
maag
melatih
negative
mesra
##ghfar
habisnya
##hoon
razia
woii
membayangkan
jateng
##iraan
cikunir
iv
remp
ster
##lihat
##erj
sef
diurus
##umpa
perf
##update
seleksi
pram
disamp
makanannya
usul
oposisi
##masalahkan
tagihan
berkepanjangan
alumni
ys
##usat
perundang
alter
pemutih
thou
diposisi
urusin
telponan
iyalah
klaim
pembicaraan
lgbt
ria
runt
##eer
##gasi
##aster
##abib
penjualan
disc
##tahu
seram
##eeet
shah
dilupakan
##anser
dichat
repeat
gantian
betul2
wasit
ukm
sembari
bersiap
sperti
inisiatif
monggo
##obudur
nimb
ulah
##asat
kevin
bergabung
##andangan
menyikapi
setempat
berkesan
actual
##prot
airnya
##tren
konsumen
rapid
loker
pertanyaannya
madu
##lusif
pngen
enteng
gejala
hri
wendy
##cer
seul
sewaj
keatas
##urd
bangang
sudir
##kringan
##ecehan
goals
batang
ngebahas
coming
##ungkus
jenius
belaka
##imanapun
ngmng
dipertemukan
clear
2019jokowimaruf
recommend
broken
agaknya
##mit
##bun
##68
##emo
mentah
maw
belinya
dibut
mesjid
mantannya
lele
lingkaran
kyungsoo
rewind
chaos
jdnya
sprti
memperkuat
awkward
pit
topi
##pend
##erna
##adanya
##uting
sekeluarga
nyelet
kuar
##ohol
liat2
engap
tell
exper
putar
ill
kejer
confess
jatuhnya
potongan
2005
##ahahahahahahahah
workout
kumat
seksual
seekor
announc
nai
remb
reda
varian
##canya
##urahan
mengulang
pengunjung
apes
dimas
##ihatin
separuh
berkas
joko
staf
bumbu
kesempurnaan
bobrok
tanggungjawab
kyai
candu
mostly
membencimu
kumpulan
ly
mna
wala
##rut
memanggil
##atiba
bgtu
apk
##arahan
usern
chibi
##istensi
matian
nagato
sekitaran
jikalau
identitas
istiqomah
wattpad
janda
leng
rk
west
##nan
##ukul
##kandar
barbar
tipi
hidupm
##anjikan
dips
##impah
onok
pinj
tersiksa
carat
kejelasan
##ctv
tiketnya
ucl
##iteria
keterangan
##entuin
mengakhiri
bbrapa
dinding
fx
joy
nun
norm
puan
ruk
rant
sunt
##ikkan
inii
kalok
sekeras
keterima
##andai
tahukah
teteh
setinggi
krimin
pertolongan
ngelewatin
komisi
terbuat
ilfeel
fraksi
terhindar
dprd
rasis
kutip
##idio
wonderful
digituin
gataunya
intelektual
nyeletuk
qrt
ratu
##pong
##jikan
##inang
##idak
kawal
apak
##obot
kenapa2
masuknya
brain
menghitung
gabole
mateng
cukai
ngev
gelak
dino
##keun
militer
santa
sungkan
sexy
koordinasi
kebangetan
template
ced
cupu
gaul
psi
##asangka
##orter
##andu
##andakan
berpaling
menggantikan
control
nctzen
erza
koleksi
aibon
kontraknya
geprek
2bb
57
95
cend
eee
osh
##bet
##b17
##ann
##angku
##apar
##ido
memohon
##oshi
mengikhlaskan
kelapa
asupan
arep
##19b17
##hlasan
##untun
kabel
2012
donasi
boys
nelfon
alurnya
##edule
kuncinya
issue
ayobantu
berupaya
sewajarnya
2bb19b17
dor
dehh
rate
yallah
##tom
##cl
##empa
menangg
orig
saf
bestie
##angkau
##alaba
awok
##enalin
##spir
##arikh
##ilingi
paytren
uighur
management
lucky
podcast
oksigen
atu
cia
claim
gift
##injkt
mengandalkan
sender
load
apart
server
segampang
warganya
laga
imag
pedas
bukit
didik
##allenge
anehnya
very
muhyid
restoran
revisian
gimna
dangdut
berpendapat
simbol
mafia
soekarno
2taw
cf
yoo
berebut
##aiin
##ampur
makcik
sendok
penjaga
##oho
ditunda
jelas2
bujang
kateg
goal
lapak
simpen
whos
indonesian
johnny
prediksi
melengkapi
ngehargain
london
##arikh23
2tawarikh23
fes
gc
muat
pej
tumpah
##zo
##enk
keempat
##oner
anal
karantina
nyebrang
kubu
wakakak
place
bertebaran
secepat
konsent
melihatmu
membayar
obatjerawat
wajahmu
##jsj
latar
##toon
melupakanmu
##while
disekolah
ngotak
dampaknya
canggung
fad
shir
wol
##ln
keta
##tick
##jayan
merawat
sugar
##ando
##atuan
senyap
dikec
##ungguhan
kriteria
cerit
diperhatiin
##very
##empet
ambul
satgas
##uality
##bbbb
subhan
kanker
##athon
berterima
meyakinkan
##ekonomian
mangk
mestinya
pss
tulah
##rem
##upsi
##egahan
##abat
motif
##char
diperhatikan
tersesat
##ujuk
telepon
pedagang
hargain
putusin
sosialisasi
##arifikasi
makasii
lutut
student
vagab
actually
##eon
##sus
##54
##cepat
akur
terucap
mengucap
pemalas
ditangkap
ball
minit
ush
spons
bacaan
gerbang
##inansial
##enggarakan
##rahim
cih
dee
miring
##kyu
##zub
##amis
memek
trail
kuyang
hiduplah
jamin
dituduh
2000
shuk
dilan
yoongi
marathon
garam
modern
dokumen
mamaku
planet
lagi2
meanwhile
rentas
sebagainya
pensiun
bep
jkw
jump
ksh
wag
##yanya
##haka
##alihan
##umun
anim
##ehatin
kebeli
dituntut
aroma
hpnya
##audara
urusannya
trusted
unggul
syariat
keikhlasan
gala
lec
lps
nes
##1h
##atatan
##ebahan
kaleng
besi
ngerem
taon
pembeli
terbaikmu
liburnya
snm
pecundang
##organ
komplain
timnasday
otomatisasi
wawancara
kesalahannya
sudirman
lini
lisan
mf
puc
##yana
##qi
##anam
termin
##olakan
emensi
disalahkan
adap
blu
##story
##ancuran
semangatin
berlindung
dihujat
##ptn
scar
lepaskan
genit
mentions
woyy
geus
gejayan
bayaran
nganter
sjw
sulli
omongannya
istighfar
ija
luna
lengan
##pes
##aktif
##alasan
beranjak
danau
kesak
aspirasi
beberes
sepakat
yoon
iyain
kabin
berlebih
korek
##alisir
siain
pencatatan
responnya
##101
jinhyuk
muter2
cicilan
boro2
charger
indonesiamaju
elektron
##enario
vagabond
120
gn
simak
##juta
##02
##erf
##ang2
ngand
perak
perekonomian
kerib
tentara
##1910
sehabis
restu
imajin
##astis
yeah
cons
lebi
bule
kegelapan
yourself
##iksaan
konsepnya
ganjar
didiemin
gondrong
kowe
58
hnya
raj
##ru
##zir
##iting
##ete
ngew
ana
##ongo
pengaturan
##anggih
sakura
##angkis
once
temanmu
bekal
beda2
psy
forum
gmana
azab
##evisi
tibatiba
ditelpon
##aporkan
victim
client
less
mim
nebak
smu
kelah
##unci
##itor
##olasi
##imen
diaw
pengadilan
siakan
mendem
biarpun
macetan
aturannya
kompr
belajarnya
ump
berdebat
##hout
tukeran
dijalani
ceo
ridho
ngawur
tradisional
sebegitu
##htiar
prepare
rumput
dora
finansial
jaks
##amobil
##eklik
menangani
unek
##opresiden
kuah
##ecat
rumahku
blz
diperlakukan
spek
##prec
omah
suram
jernih
tmii
0852
absurd
prefer
homo
ngamuk2
printilan
ubun
sewamobil
lonc
mz
rc
rawan
ww
##tingan
##gia
##ether
inov
menunda
##oment
##jauk
##egeri
alim
keramas
pemin
stiker
manip
begit
main2
ibnu
soale
pacarmu
usahanya
confirm
perbuat
##hhhhhh
##anggungjawab
privat
089672
treasur
speec
collect
##741910
nobar
##screen
##bukanlah
pidatopresiden
089672741910
pidatopresiden2019
dw
iwan
kind
skan
##gon
##cu
diingetin
##irat
menua
##eber
luang
loyal
apel
amiin
nego
##ogo
pelampi
kebijaksanaan
sllu
dahla
logis
##onsumsi
gembel
dedek
bright
##laluan
##121v
44
bongkar
cult
hny
papan
##lit
##emahkan
digi
##idesa
kerjo
nyemp
pemahaman
kebalik
waralaba
brarti
sport
berbanding
kabarin
terhormat
fansite
tebel
##pektif
lepak
millenial
fam
##mus
##cot
##asis
##usif
diizinkan
berencana
##ihkan
##egr
kerag
merangk
tanyakan
apl
##ipi
ayem
##ffah
antusi
menerim
patri
rekayasa
jerman
mempel
kyuh
keterlaluan
perdana
keberadaan
nyinyirin
kenapasih
trainee
karenanya
aktivis
##memanggil
recehkantwitter
hut
kung
lilin
##tek
##orasi
guenya
semasa
saingan
selebih
##osok
melip
usa
terbangun
tugasku
dihina
tangguh
deser
sokan
jelata
indoxx
faedah
kerajaangagal
logik
##point
webtoon
kepoin
tajam
commuterline
berhentilah
kategori
fig
yg
##val
menunjukan
memegang
melu
diketawain
dramanya
gre
pertengk
kedinginan
booking
##artin
barangsiapa
ndek
subjek
kolam
poker
keringetan
##timbangkan
langgeng
titipan
jakart
nurani
whosfan
2k
dod
hening
mali
rw
##ever
##0121v
##olok
melump
maskerwajah
ayoo
image
ngebantu
hujung
kampanye
pencet
internal
tercipta
wonu
nikmatnya
ngekos
situs
pengecut
congrats
menpartin
maksiat
ppdb
ustaz
##eklikupang
blz0121v
##jaukeklikupang
menpartinjaukeklikupang
dadah
ront
sihhh
zod
##kut
##buat
##lom
##cel
##asing
##isit
##onta
##engi
hara
##eport
##apainya
##endirian
nyiksa
seburuk
asin
##ective
menyimp
terletak
konco
gapeduli
didukung
##aaaaaaa
ley
sesudah
cross
plisss
lanjutkan
bubuk
50k
ancaman
ksl
collab
nyusul
without
hinata
krystal
runtuh
username
kyuhyun
dun
hepi
rose
vel
##engahan
beribu
##eday
##krut
twe
muji
maskernya
tersayang
datar
##ucu
gantiin
terpengaruh
balesin
bercakap
bobby
meter
mewak
dijalankan
##www
yesung
winner
manfaatin
nyium
holiday
rewel
owner
flashback
terngi
kta
ubat
##vs
##isikan
##oleran
##unggul
touch
duniawi
lagu2
terpilih
gemeteran
pegangan
gajah
kompak
ciwi
##nez
mahk
hikmahnya
jajaran
tend
##gy
##col
takp
##aday
alone
nyenggol
##ewet
paste
##udu
##che
pelecehan
angst
skrang
gatal
panda
gara²
##ewain
##ival
jeruk
sunnah
kebawah
tkut
thankyou
trigger
rumus
kuburan
words
mingyu
gimanapun
alfam
skripsian
speechless
bia
citra
mnt
nau
pidana
walik
##long
##fol
##ves
##alim
akh
##engs
beralih
ngus
##utus
perokok
menanggung
mengira
diawal
##tuku
bening
melow
kebun
kepalanya
old
ajang
syok
##keu
bercermin
dennis
income
gawean
dilahirkan
##zubillah
balan
comb
geg
##nat
##pok
##ids
nyicil
temu
membimbing
melampau
sesakit
dibeb
##alaya
pelangsing
ceritakan
name
namamu
berbahagi
##enangin
ngefollow
diceritain
wkwkwkkw
jiw
rekor
ruwet
idolnya
fail
progress
boring
##iiiiii
batasnya
privil
manga
freeb
dede
##alihkan
##ributor
ngoceh
ilmunya
melumpuhkan
moto
##rti
##asari
kemain
disemb
##anjung
dibat
otot
senangnya
buang2
haii
kemenag
sepedaan
mana2
wawasan
seulgi
cub
jne
##dle
##unjak
##ekang
akupun
##imau
harley
##adaannya
##oduksi
tiang
setara
pulpen
katain
sayangku
text
heu
elshinta
ikatancint
divisi
momentum
girls
jambi
mengakibatkan
pundak
wudhu
hormon
366
ciptakan
rawat
uud
zi
##ove
##mate
##27
##arangan
##atus
##alok
##esap
ngump
##otik
prihatin
tuj
##krim
manual
duga
ngelamar
pendi
bawaanya
##enyap
tb2
woe
emosional
pencegahan
ktmu
resto
sahur
sujud
survey
fenom
keributan
fle
genc
mua
mny
mub
sku
##ega
##rakan
##yaa
##estion
ungu
kesungguhan
pemikir
##ambarkan
warisan
komedo
provid
pilihannya
otakku
bntr
mengharga
shopeepay
kadrun
kulakukan
lagiii
menegaskan
bullshit
niscaya
translate
hidupmahasiswa
keraguan
ew
gst
iba
kiss
langka
oo
xia
##ruk
##bill
##zil
##unikasi
##utra
##iana
kenak
trim
teruss
arek
direct
dipeluk
mageran
##ansa
##intir
sklh
polres
transp
konsultasi
klarifikasi
gilaaa
tweets
tertidur
kupikir
pergantian
tawar
nadila
pesonafest
seriously
penyelenggaraan
nurunin
selebihnya
lma
pg
podo
rendy
tkt
tgok
##mh
##jad
tergoda
bisa2
memalukan
##ental
kalean
merilis
kasir
##acy
malik
kurangi
insane
scam
rebus
swing
layangan
remed
rebutan
surprise
diraih
nusantara
peninggibadan
treasurem
tweeps
hbd
plu
raw
##muh
##bp
##bie
##apnya
##adapan
##enger
beritanya
##bawak
bangkrut
pra
karunia
tempo
emaknya
##ajukan
penakut
keluargaku
dikh
diker
pulkam
effect
kehancuran
##206
kuatkan
bawa2
ttd
bablas
mrka
mario
cemilan
apple
ngarepin
bandingkan
singkirkan
skinkeran
investor
##orrow
aba
cegah
fikirkan
gum
kic
##rec
##kang
seindah
berti
nggo
##idin
terf
paketan
trag
jamu
short
##ichi
##ujukan
kekhawat
paras
desk
jarum
renajkt48
korean
duhh
##ution
kendala
profile
lembar
##eeeeee
parip
episod
cair
malmingan
punca
kandungan
uyghur
football
42
ganda
hood
jiran
nentuin
sian
sirik
##bisa
##65
##atapi
##emuk
##emaskan
memindahkan
##ampek
buatku
kesamp
membes
##ayal
asep
sesimp
mendidik
##ungkinkan
pertan
##ahamu
digelar
menurutmu
cond
dewi
kondusif
gerimis
pks
sisimu
label
kompleks
gurunya
essential
seokjin
reformasi
berkarya
pelatihan
##erfindo
denniserfindo
freebies
1x
lewati
lorong
rend
##oot
##bong
##ler
##enah
##amun
##amaudi
##ulur
pertahankan
menengah
##acu
satu2nya
##icy
cht
berpakaian
bisakah
dicapai
hujat
##ground
mobilnya
kutuk
menyayangimu
ungkapkan
##zaliman
mdf
antusias
berbahagialah
treasuremembers
##bawakemana
##amaudibawakemana
5g
aaaaaaaaa
gasa
joo
jnt
pki
sq
tlah
zomb
##lude
akting
berobat
##iduk
pertahanin
maapin
kerug
##ambi
pelihara
jeong
pesona
ttep
mengharap
kelar2
tungguin
ngejelasin
relasi
pecel
cuekin
izinkan
june
tunai
pembelian
sekelompok
berkomentar
kontrakan
dikelilingi
dibiarin
kesakitan
41
jn
kisi
sambut
##euh
##ward
##oar
##sum
##34
##ider
meneh
selow
menguji
pramu
##sip
bener²
20k
setya
donggg
ekst
syn
terbalik
uring
yeon
##anggaan
##ocus
palembang
gajinya
flat
penjahat
hands
##ampaian
views
ginjal
mekdi
ditungguin
ngefans
pengawasan
sdmunggul
##ikulum
wqwq
influenc
49
ipa
jau
koko
mx
##eq
##oj
##ener
ngungkapin
gae
##orin
##kanya
kerap
suap
sebong
dress
reason
laz
ngelawan
berbisnis
ajh
##encanakan
mempermudah
##berg
dijemput
offer
ngerjainnya
##ayain
which
dtk
galeri
##kkkkk
stiap
mitos
thought
pelampiasan
pertengkaran
ikatancintamaudibawakemana
gadi
hec
jahan
pans
yuu
##sw
##ming
##gakan
##cir
kewar
akak
##ilmu
##epo
aliran
nich
cour
setel
angkringan
syuting
mater
menggapai
usahakan
korona
sure
tuliskan
kulihat
ketinggian
menjadikanmu
##itraan
bersabarlah
akademik
penyajian
subsidi
stadion
paula
konsentrasi
kerugian
haaa
tama
tampang
wi
##akkk
##adin
terny
menel
##ajian
melayang
disalah
sesali
dibully
ble
##icantik
konfirmasi
seputar
ngelike
ajakin
##sssss
heiji
mart
garag
##imbangan
gaperna
idupnya
##ongkong
regulasi
menjauhi
solusicantik
##1119
ditegur
sertifikat
##daftar
persepsi
code
ipk
kumah
lemp
np
##oid
##mawati
##alal
seadanya
diin
ngenalin
##olahan
##ebas
takpa
tanaman
disuru
##tifitas
pling
chart
grav
umkm
bertengkar
bagus2
supp
supir
utamanya
kebahagiaanmu
ngecewain
jane
hitungan
bpom
##wajibkan
starbu
kebersamaan
tunggal
kwave
referensi
asmara
ditawarin
diminum
gni
jjk
vari
za
##sem
##pil
diorg
##esel
bereksp
mengurus
kaffah
benak
suw
kebanggaan
##udik
bikinin
isolasi
arahan
##stan
maskersp
daily
penyemangat
turunkan
nyapu
ngobrolin
nyampah
angkut
kencang
hambanya
banten
holmes
shipper
speaker
husband
nyelesain
voice
silaturahmi
duckbill
kekhawatiran
egha
fall
len
rewat
uin
##kat
##bt
##amer
##amnya
##urung
terim
perada
mas2
##oknya
##uhhh
harimau
mengaw
dibal
##elahan
##ife
samsung
kristen
dilindungi
lauk
spot
syopi
tele
pikiranmu
anteng
bagaimanapun
gedek
##resif
dijelaskan
adeknya
##wakilan
perdebatan
novanto
sdgkn
nampaknya
tembus
ngunyah
pemilihan
jumaat
elektronik
jaksel
canggih
##wih
##town
##pop
##76
##esahan
menaw
ortunya
##omos
prnah
##antren
makar
kemarahan
siaran
kepencet
##afat
dipindah
kedatangan
imb
diduga
sben
##erjaan
perspektif
comel
present
tegang
huff
250
nganterin
cucian
pngn
direspon
ikatancintaep286
hedon
nanggepin
original
kelahiran
skandal
paripurna
54
lil
qt
rute
vok
##gunakan
##emy
diakhir
##umel
akui
##olaan
kambek
kalanya
ketikan
##atannya
pakcik
mellow
stre
stori
##cafe
ditag
bless
indosi
usahamu
pelang
pertengahan
mudahnya
pape
petinggi
hyuk
cikampek
dicariin
##owoon
payment
hantam
menyembuhkan
complain
74th
ngerepotin
menyukaimu
tombol
tutorial
indoxxi
cus
dagu
nuh
nunda
nutr
sind
upac
##mainkan
##belah
##gari
##lasi
##anin
##ats
##engaja
mengundang
nyaris
suudzon
ketag
enter
tha
kepol
draft
shar
pelarian
##uliahan
menghambat
ummat
gov
berdiam
cake
frust
teknis
##rakyat
lahhh
watak
watch
ukur
bentuknya
denny
0857
tomorrow
liriknya
bersamaku
suho
refresh
paiestina
cangk
lena
mpr
nasa
quality
wai
##usukan
aks
##etapan
beratnya
##imalkan
sawah
memungkinkan
mengam
belas
nyany
tempe
##action
##udh
bersemangat
segel
##ingkah
ajakan
impl
suporter
senyum2
adekku
mamam
viet
jadikanlah
humas
audisi
empati
seoul
molor
penutupan
diladeni
mengasihi
kesampean
duta
euro
mec
pir
sau
tka
##hana
##teg
##92
peringkat
##egram
alus
biasakan
disitulah
dibiarkan
ikhtiar
tax
##empuh
idea
dihari
menggelar
surya
lakukanlah
##hypen
ayahnya
kwn
rekomen
adain
finish
piknik
##hrs
operator
penerimaan
venue
##spirasi
zodiak
cost
los
oot
sindir
yen
##rad
##rung
##lung
##²in
berilah
menimpa
##agangan
alangkah
sesederhana
bebal
greet
membersih
##ggu
lucas
kejauhan
mentri
##seong
monas
##assin
##soci
ukhu
menyelesaikannya
popular
##ejahterakan
dilupain
upacara
kie
tg
##meet
##44
diikuti
memuji
bangku
##days
semuaa
disyukuri
sesat
puluh
saman
cerewet
kekalahan
deact
jumatan
##weuh
bedak
pagar
pelan2
wrong
0813206
mewakili
##11197
74thindonesia
ukhuwah
081320611197
bara
ips
jgk
kga
ring
squ
##utri
terapi
yaah
jua
alfa
kepal
dikelas
setakat
balon
palingan
andaikan
berkeli
acak
infonya
yahya
barang2
crita
snsd
undur
tyda
hadehh
nasgor
viu
kerusakan
masalalu
ijazah
fenomena
gender
hw
ping
rit
rama
wass
##rag
##eren
##ett
ngata
gaksih
mergo
denganku
trade
pens
kebangs
##anggg
sedari
##krimin
isn
shua
agnez
batch
content
shinee
##drama
playing
beraktifitas
tauf
ss8
keberatan
gosok
##fitnah
selebgram
tangisan
dipenjara
dorong
fatin
focus
hide
josh
rantai
##mb
##emang
insha
perjuangin
menari
pengkh
pengalihan
##obin
##obos
##ohir
##ict
dipaks
koneksi
berkh
positifnya
bukunya
mencintaiku
garing
bincang
administrasi
ditab
mentang2
fangirling
insomnia
beginian
alkohol
membenarkan
https
dibutuhin
kumaha
rewatch
vidio
wu
##jas
##zone
##apres
##iknya
beria
ngend
terancam
maut
mengorbankan
kesendirian
pengurus
sebatang
membant
trem
##arankan
does
##angkutan
skenario
telegram
menggel
##jiwa
netral
birokrasi
menegakkan
mematikan
mengirimkan
month
pendiem
berkeliaran
43
ata
bong
dorg
hist
panj
wna
##rap
##ria
##uasan
##tit
##tweet
##cy
##arget
##itungan
digaji
ngup
perwakilan
##aaat
pakde
##anduan
disep
pelih
knal
butuhnya
telan
suppor
terpusat
##alisasikan
jodohnya
sopo
njirr
allahuakbar
##losemar
aff
clean
dolan
esa
ios
##sur
##ijab
berumur
saj
ludah
##atic
makmur
##inggg
anjink
halimis
bersungguh
shan
##untusan
secep
ela
sahabatmu
senyummu
manisnya
ideologi
kolom
skincarean
buktiin
madrid
gembok
tebal
dcquotes
meraihnya
jebul
toner
bitter
dibenarkan
pemasukan
terminal
halimiskandar
fu
hc
kih
##lemen
##oki
kuisi
##ancang
duo
ngelunjak
##loitasi
tentangmu
opsi
menjanjikan
esp
##ejo
terpenuhi
menangisi
mengelola
sikapnya
cita2
rating
durasi
tarikh
ksn
didenger
jihoon
walikota
influencer
halimiskandarnu
bima
langsing
##oard
##asai
##adud
diungkapkan
menemui
##ows
trny
enhypen
##ubuh
thataan
adha
ismail
shol
shier
dilalui
diperboleh
ahad
museum
berduka
konsernya
dihukum
obses
left
subur
freak
disebelah
ketagihan
vietnam
secepatnya
thataanma
db
fik
ign
nc
suteki
##oper
##gun
ngangkat
##bagai
tren
melekat
bahawa
beta
pembuatan
pembenci
didalem
pesepeda
pesantren
##ersey
##itizer
interest
perkuliahan
sariawan
nctdream
ngegame
dukun
wkkw
tmc
tawuran
lipst
lumpuh
membagikannya
membersihkan
dipaksain
46
aaaaaa
hti
puny
sans
##eza
##pyo
##lud
##jar
##arna
##urity
ngundang
##jaan
banser
##edur
ikl
terlintas
##angkaraya
##cho
berkaca
membernya
skolah
syurga
konspirasi
been
tuku
antis
##ations
shope
baso
menyaksikan
minded
perdagangan
tatapan
speed
tnpa
berkerumun
singapore
kapolri
indosiar
shieren
dst
ritu
##zu
##yad
##uno
##ukupi
##itnya
##esang
##uhur
sempro
##eha
##ampah
##tukar
stak
##udukan
padet
jelaskan
##saan
##shot
##show
pendewasaan
chatime
ngebatin
lembang
dihargain
nasehatin
candaan
pict
termurah
jngan
##engkareng
kabinet
kompromi
##muhammad
##omosikan
aih
fals
kua
pst
##zing
##cut
##isih
berinter
berurusan
##ongjun
memendam
temui
paks
pemes
apprec
ado
usir
dipuji
koyok
kntl
pembukaan
jauhin
##pto
meneruskan
sengsara
senyumin
doktor
apaansi
pencitraan
palangkaraya
terdiri
latian
zonk
berproses
berterimakasih
chenle
kuarantin
mempelajari
bertiga
cma
cengkareng
jim
kunt
lomb
ooh
##mal
##block
kezaliman
diundur
##eplay
kelakar
##uarakan
##iniin
serahkan
2022
ngerayain
percepatan
segelas
mouri
dipecat
ups
idan
politisi
ngejudge
pendem
rame2
golek
rapot
nafkah
kompas
schedule
nyanyiin
tercurah
gemesin
organik
bengkulu
hindi
ngidam
merenung
dorm
number
##juni
##atah
##anga
peroleh
##older
orangtu
memudah
mengatas
amril
pasaran
##kron
ditangan
usd
tentukan
tentram
caramu
senyumnya
##emenpar
jajanan
##127
nanges
future
bwt
tutur
almost
perpus
berminat
##ugiin
prosedur
cedera
sponsor
amrilmuhammad
550
centang
eth
msi
ppl
sf
sag
##yur
##del
##nect
##gil
##vv
##5k
dialami
menandakan
##ebe
mab
jangan2
##andar
##jug
cook
dikenang
koyak
grand
##lion
macam2
dicer
##unaikan
bersih2
##bale
jabar
adminnya
winter
cacat
bambu
literasi
xixi
distributor
disertai
asdf
kriminal
subhanallah
trailer
alfamart
hoodie
nutrisi
bunc
caw
dot
doll
ntb
ukt
##rus
##py
##bannya
##2kan
##arki
dija
guee
##riy
kese
##aju
disatu
##anjian
##ijakarta
twiter
acuh
wkwkkwkw
heav
usahain
kerasnya
##hhhhhhhh
bacotan
kepergian
tabah
question
gituuu
daddy
manfaatnya
##khilafah
moralmu
wedding
sngt
ticket
cosplay
steff
diperbolehkan
imm
jersey
lahat
nape
rai
yeee
##did
##mata
anon
pret
benef
nyo
pengajian
paku
traff
##andi
sesayang
##angislam
gaberani
tersel
lapang
boj
##unction
sok2an
riba
dinner
kader
pancoran
##icky
hidayah
friendly
yunseong
##pejuangislam
diusir
rasane
memusnahkan
hectic
600
700
fed
lenyap
mangan
tup
wam
##raw
##wor
##och
##kot
##dat
##anch
gac
##agukan
menghir
bgtttt
##oha
lift
tho
indie
##ituindah
##ormatan
ekstr
##loud
resik
urat
tanya2
institusi
hitung
##lll
hidayat
purbale
##iwara
pengelolaan
##lihatkan
purbaleunyi
##eed
##kor
##nnya
##cal
diad
perti
##orsi
##epit
kalopun
##abumi
kaz
nyentuh
pakiram
lohh
berhijab
berkenan
tersadar
nangis2
skala
ngejaga
mandarin
kontribusi
mantau
hatake
##bert
pantau
salting
moodnya
dariku
simpati
ngedumel
wonwoo
epic
##ipuisi
hajatan
tajir
berkomitmen
bidadari
emosinya
waduh
gombal
yowes
mengapresiasi
delivery
4k
bni
gali
lant
nenangin
rubah
##o2
##ooth
meni
sekilas
ketok
disuka
menyal
kurasa
koin
dilanjutkan
masukkan
slh
salon
tepuk
mempan
berfikiran
kiper
kompor
25k
borak
borobudur
grabid
##reku
gini2
pembelaan
pelangipuisi
tremor
berinteraksi
d1
ramb
##dian
##ford
##inda
##isir
akbar
beredar
ngag
##pact
##ores
##adiyah
##ehendak
kamer
mengumpul
##anaj
kelurahan
halte
dibatasi
manado
krit
spy
itb
kedewasaan
teliti
parti
##aste
tanganku
insta
##ostal
kapten
ngehalu
bangkok
##boi
ongkos
hopeless
cashback
deserve
materinya
pakiramdam
hunter
nep
reli
sari
##ease
##radar
##ugh
##gw
##86
##ahlian
keahlian
##ekas
baikan
##otek
janganm
##indra
ditarik
ehehe
begimana
masa2
##stop
diperk
tersimpan
##shin
dihitung
proc
remeh
frontpejuangislam
lsg
garagara
ct
eye
fh
jema
rakan
rasional
##mt
##mid
##akali
akum
##ulik
mengarah
##ibun
melemahkan
disney
##alif
half
temen²
count
bersosi
blur
blng
smile
gapenting
mempermasalahkan
persetan
boikot
menjalin
gizi
beradab
responsive
boyfriend
tebet
nerapin
vibe
minggir
opinion
lunas
menyebarkan
sotoy
perjanjian
imagine
leyeh
pramugari
##argetkan
##adudomba
farm
giat
hong
ieu
lwt
paan
##uak
##amba
##isatukan
##ingungkan
##ihab
tere
teringin
maem
##abil
bgini
pengambil
membanggakan
amalan
##jub
sesulit
dikampus
ditemani
menye
shot
segen
cher
child
ibumu
dongpyo
##ancis
##istem
naz
naon
terselesaikan
devel
transjakarta
hapal
diginiin
pilihlah
##ungkit
gantengnya
milikku
sensasi
winwin
##elanabi
tunangan
akhlakmu
tulung
nyalip
ax
fajar
lent
parang
poc
tisu
##zet
##emasan
##elap
beragam
ngont
menak
ani
##egi
barisan
nyem
keseharian
sebutan
pemad
##idupan
adel
ngerubah
direktur
mogok
dimaksud
ngelihat
sehebat
wkwkk
##enceng
urut
gils
tokped
2011
ketawain
statusnya
remuk
ketidaks
milikmu
muhamm
gangguin
tontonan
hajisatukan
songong
mingdep
eric
beranak
ngestalk
hoki
dusta
kepemimpinan
pilkada
pinjaman
imajinasi
##rekuensi
himb
neb
pnt
sungk
tunda
##yong
##anak
##ask
##esehatan
ngilu
##ago
memad
apain
##epend
##abel
dibunuh
##uddin
##ipin
abel
dirawat
due
demon
polit
kedok
kuliahnya
gelombang
tbz
##kaya
sorg
##gagal
anyone
woyyy
ptg
irene
durhaka
sambutan
##smtown
nyusun
feedback
hyeongjun
oshi
memudahkan
hajisatukanumat
cri
gakan
kandung
mma
rud
rich
##sn
##h3
##lantas
##41
##inj
ngubah
##eknya
mash
kalender
barca
##ambahan
temen2nya
menyuruh
namaku
ekor
ikut2an
tersembunyi
##vert
spesi
mush
beza
yahudi
esem
penghuni
ngedeketin
anyway
dibangunin
gonna
##queen
felix
nalar
jengkel
47
eeh
fon
hira
lebat
nih
sopi
uyon
##som
##banser
##56
##ako
##elat
##elang
##elawan
malware
haloo
ara
brian
spend
##hlist
projek
##aaaah
hrd
gaje
submit
jepit
tertipu
maskapai
merespon
frontlin
rosak
produce
##cirebon
kebangsaan
lipstik
kuhp
ling
nuduh
sib
taruh
usi
yong
##rup
##93
##cker
##erto
seut
##istimewa
##emend
inbox
masya
##akanlah
mayat
bangeet
kaltim
kelam
haruskah
tppk
serumah
##acker
ngelawak
hadee
mantul
kehidupannya
##ueue
editan
##olehkan
ruf
kmrin
berikanlah
dijalanin
catet
sinyalnya
majlis
bende
##bitkan
itu2
##ecahbelah
hadapilah
dikeluarin
waspadaadudomba
kerusuhan
recommended
fana
jyp
pudar
yekan
##yama
##91
##zed
##apis
##iso
##ire
meneng
memicu
alon
pray
maknanya
keliru
kesur
##mudik
minoritas
smbil
##empatan
##ujin
##ttttt
##awatirkan
##oblok
yakk
##herbal
pleas
goront
cairan
ngambis
humoris
bengkel
sapu
yusradar
rancangan
dibohongin
heuheu
terngiang
kepolisian
gog
rot
tuhh
wind
yb
##mana
##amantan
##urad
##omas
menged
loyo
disia
##chester
must
cukur
terburu
##untur
jawatan
mblo
urutan
beau
klen
menggambarkan
kpi
wishlist
parahnya
hyuu
nct127
musiknya
moveon
pecat
menguras
wkkwkw
intel
junho
dngan
sandi
tribun
telfonan
gimme
gibahin
shooting
terpercaya
jahanam
yusradaridesa
bile
gate
kitu
lp
manj
pung
wik
yam
yog
zah
##ux
##adat
dium
diut
diwar
berucap
akuuu
anw
tapii
semang
##uation
##aiya
mengant
bansos
keringet
kerabat
ketul
##teran
kepuasan
berhadapan
soo
ditempa
drastis
umbar
batam
semangatnya
ombak
digantung
babu
##akatau
token
sgini
fanmeet
metu
sensor
peluangusaha
sungjin
##prove
perhitungan
gdm
sejenisnya
mengerikan
sefrekuensi
doraemon
religi
1k
cind
dude
limp
##jumat
##itch
berulah
##ekolah
gaess
##agn
taktahu
memaks
##osmed
melet
pemakaian
penista
dises
livi
tidurku
padal
ngerugiin
smlm
##ancial
sepuas
bangunnya
pdi
berpotensi
dideketin
frekuensi
tuker
terpapar
penyekatan
gelem
medi
pizza
bedua
bijaklah
tabel
dluan
tauu
didalamnya
geser
fighting
penyebabnya
charge
jancuk
berkelanjutan
gonta
pengawas
berperan
menyusun
lngsung
launchingco
author
stranger
ditahun
apakabar
loncat
pertanian
##ostalgia
ipar
kanc
lon
rantau
yth
##jh
##eser
perayaan
##dahulu
mengembalikan
kelulusan
nyimak
membingungkan
kembar
terus2an
negur
usus
##stream
agamanya
brapa
101
marahnya
geleng
happen
simpang
pamrih
angkasa
firasat
boyz
mahluk
lets
komplen
diselingkuh
berkomunikasi
##mahfud
memilikimu
dibubarkan
lompat
nimbrung
taufikm
bata
gfriend
jon
paul
raut
soh
##news
##adjid
##uloh
alun
melon
diturun
manusi
dipermudahkan
kakaknya
pdx
##ieq
mutlak
scan
##laah
mbak2
snack
24jam
fannie
backup
tangisi
tenggara
absol
paksaan
##islamituindah
sapamantan
mempromosikan
extraord
kebersihan
menghadapinya
ukhuwahislamituindah
appreci
hyuuga
taufikmadjid
py
tuntut
visa
viv
##oong
##ikh
yaiy
iniii
meriah
bangetttt
##ingguan
kasut
doing
dibentuk
dikosan
arisan
##embah
dipastikan
champ
airmata
puskes
bapakku
interact
tokyo
seungmin
milenial
artisnya
##ough
kann
defisit
populer
efisiensi
lalunya
kemanapun
santet
johor
mimpiku
##ospeksi
mohmahfud
energy
begitupun
zombie
frustasi
mohmahfudmd
65
easy
hent
jee
yuh
##ison
##aulan
menanyakan
dand
memel
tuaku
serabut
jalankan
independ
##olly
meal
airport
uler
##ities
0877
insentif
11fess
hukumnya
relev
syaratnya
proker
sirna
favorite
##leyot
buyer
bubarkanbanser
terorisme
little
stakeh
himbauan
dalih
fk
landing
manggar
nay
##kl
##az
##pari
##b7
keong
##itt
diare
ngalir
##rie
kelelahan
ketahan
diskrimin
menyatukan
kecanduan
pelab
brisik
ngeles
gover
gamungkin
panic
marha
##unculan
dospem
korg
teguran
ayahku
tkde
coret
thats
wibu
mosok
massage
pertamina
nadiem
kepanasan
menabung
gasabar
kepalaku
mengumpulkan
jember
kib
rombongan
wer
##adut
##onk
diusah
menjabat
##orupsi
hariku
sajak
mengikut
##aluinya
emm
pemandangan
sig
penolakan
bersembunyi
##eeve
menyia
manchester
##tiful
berkehendak
bagitau
timbang
notab
kediri
impact
hahahha
muti
marilah
utamakan
cantiknya
huhuu
tarian
##batasan
kendor
metro
astagaaa
jurang
jumatberkah
irit
lalat
##ubungin
##ejahtera
bullying
smuanya
rontok
balance
knalpot
muhammadiyah
tppkemend
kesurupan
extraordinary
bont
function
hans
hack
ich
lisa
lengah
ndi
quar
ulu
wgl
##sar
##kala
##but
##eneng
##ising
##engalaman
gayo
semprot
apaaa
##ativ
sekat
karep
merasuk
meratapi
biologi
##ibet
trakt
pemak
menyuarakan
seseorg
pembenaran
##ffer
jawapan
sukabumi
klop
sekolahnya
pontian
suntuk
topic
denial
menyangkut
cebong
senggol
tsunade
ngandelin
97
bash
binder
sda
sarang
sentuh
tuhkan
##wangi
##sat
##ience
##hink
##diny
##juk
##43
##ahati
##arai
kekin
dialah
aki
ngide
teror
anwar
unbox
apbn
sesuk
doc
req
rejek
plagi
pelaksana
##yatakan
sepasang
umpan
hahahahh
panen
league
lembab
rekam
jelekin
udang
##iringi
##jayaan
lunch
signif
together
ngenes
dungu
menawarkan
marhaen
aelah
bond
cg
eek
lans
##jog
##2ku
keingin
yaaaaa
samaan
##otanya
##entangan
##uden
senam
tanganmu
mentalnya
##raksi
ktnya
##audip
dtng
##ibahin
kekuranganmu
standard
header
kunkermenpar
penegak
##etujui
monster
mksdnya
ciawi
muhyiddiny
starbucks
ditagih
janganmaudip
manggarai
kekinian
muhyiddinyassin
dft
mleyot
tinta
yutup
##wood
##dit
##jut
##08
##anah
##eleng
##eleh
gabaik
gawang
##upport
kalu
princ
untuknya
##waw
disahkan
atap
bahasanya
##acun
adm
berserah
dititik
mui
dimat
pelakor
bagi2
pembebasan
##diam
surv
gemeter
mobilitas
garut
sumbangan
datengin
edisi
heru
berjumpa
gaiss
background
pergilah
becus
hebatnya
sirkel
traveloka
difoto
perhubungan
rezekinya
menghadirkan
##emangati
lombok
seutuhnya
janganmaudipecahbelah
hiv
jorok
kick
pure
syang
ubl
##yangan
##malam
##akatan
sea
##eth
##utuk
perman
##agar
melanda
kemul
enough
lips
##krak
doy
balek
laah
khan
ilegal
caraku
##uangkan
pantun
dinyatakan
ujiannya
albumnya
subsc
silent
keterp
pergaulan
roma
romance
found
ngakunya
dkijakarta
financial
likes
ngayon
yeonjun
cile
ln
lect
rusia
wadah
##weran
##now
##05
##xl
keadaannya
##ird
##espon
memisahkan
menggi
merapat
kais
##aysia
dikecewa
##yangin
##iiin
malam2
means
##ingkem
matanaj
nanya2
yey
ngebet
tepar
kebajikan
release
lgsung
jagalah
##anfaatin
menjadikannya
redha
gendutan
sreg
##endahin
difase
ranah
jutsu
menanggapi
provider
transparan
dikhianati
buncit
kunkermenparkey
fck
##4r
##city
##akyat
##alangan
kejayaan
##irr
harry
memenangkan
banyu
##abe
sekolahan
alex
kerind
kenang
kuwa
james
dibela
dibicarakan
argh
soleh
dimanfaatin
konst
ibar
brrti
protect
depanku
terbakar
kembalikan
pandemik
repost
hujannya
ndk
##teriak
perutnya
##igami
##board
hangout
wonpil
merindu
gendong
sticker
majalah
wiranto
menunggumu
velvet
hiraukan
stakeholder
pontianak
kunkermenparkeyogyakarta
hongkong
pew
##yung
##bg
##canda
##irikan
##ilitas
ngode
haramain
baba
##upload
##osss
##lah02
kaito
trit
##terbit
kuala
associ
stelah
mancan
shut
two
arogan
mult
koi
aware
chin
act
baca2
kuatnya
didek
dihimbau
habis212
cakung
cuitan
##antui
gelang
dinamakan
ndang
udan
sosoan
flow
berjamaah
##ahahahaha
nyatet
traveling
tambun
years
##bersatu
mempertanyakan
smtown
tingginya
vocal
manutd
rcti
culture
pluit
beautiful
##terbitlah02
habis212terbitlah02
cud
fams
gbk
hun
hii
hens
jjur
jongkok
ntu
nolong
##galau
##inci
##aramu
##ikatnya
##ingungan
##ury
ngam
##ors
##oreng
yay
nyol
peman
serpong
lie
those
dibl
negaranya
abad
eko
besok2
idi
##arinda
demok
cariin
paris
memperpanjang
##ibukota
garap
lelap
gold
golkar
##izer
journ
berjuta
tsm
dipakein
jagung
##versary
pecinta
jls
keberk
memutus
##ggggg
strategis
penegakan
sangking
hawanya
tujuh
lmao
dftf
duri
host
ihhh
kf
kush
lia
manggung
ost
sukur
##eve
##hwa
##tv
##lon
##err
##erangan
##asalah
keag
##usuhan
##ekali
##omod
prasaan
kelamin
##awesi
pelakunya
berbalik
joke
marai
ngehina
nctsmtown
depart
##yboard
recover
while
quiz
gmf
##236
naskah
nyebarin
votenya
jilat
hhhhhh
tirmid
mengutamakan
yusuf
mengagumi
taekook
ngeprint
pansos
dikecewain
5x
7000
echan
yuri
##hil
##jw
##ahaji
##aps
##apah
kekan
##elok
diandalkan
##etar
berteriak
anin
alas
meredakan
##antauan
##owng
membi
##opy
isl
dipingg
sakitin
ngelag
terkini
kiranya
gamasuk
inflasi
seneng2
kecilnya
terpecahkan
bermula
asalnya
produs
##ellow
donor
##jsjs
##ddd
mengenakan
koar2
gambarnya
healthy
natural
mempersulit
adaptasi
logikanya
khat
liku
tangk
vers
##dung
##pink
##pasar
##fo
##vasi
##vaksin
##ahasa
##aled
##elshinta
berolah
##utangkis
bisaa
selangkah
merantau
##owk
pengikut
##sif
##ewish
pemda
kement
##opat
##active
kepon
bersangkutan
dimanfaatkan
pelun
gtau
imans
babeh
sahabatku
sunscreen
terjangkau
anything
publish
astagaa
diberlakukan
sulawesi
register
##anjurkan
gambaran
dihadapan
nuhun
yaiyalah
tirmidzi
800
femin
kil
vn
##etic
ternak
memainkan
##epuk
##entr
luarnya
##rio
##ibel
trik
siih
dish
disambut
kepotong
parpol
dapetnya
beom
##obaan
tanggapan
##aaaan
salim
wahh
gunain
buluk
belakangnya
beres2
jagor
ngegalau
ironis
dalemnya
hayu
diantaranya
manfaatkan
jungkir
##edulikan
##yukri
##palestina
085642
ngelive
huhuhuhu
nyantol
bejibun
wamena
imansyukri
4x
dna
fla
hug
##yer
##papan
##apannya
##ad17
akong
berga
selingkuhan
banci
kelupa
mencukupi
tahunnya
koperasi
sepuluh
##oof
pertamanya
okee
musuhan
andalan
polda
terberat
imbang
dlam
security
##215
fro
bbl
kondisinya
berpikirlah
statistik
##utiara
metal
dokternya
##biasa
majikan
attention
##jkl
tempuh
51db
dikriminalisasi
memotivasi
##egritas
elaun
51dbad17
dub
kana
nostalgia
palu
rr
tunj
walk
yw
zara
##uz
##dem
##jil
##31
##ating
keyboard
##imalisir
semingguan
mengancam
kalori
belasan
ems
kemakan
penipu
dibakar
bala
mencela
diread
kecemasan
dipat
capres
brs
terkec
##astra
slama
terhitung
gedor
kenalin
##niversary
emak2
jadwalnya
semaleman
perginya
##harus
gugur
dipelajari
widodo
rkuhp
traffic
resikonya
austr
bday
ron
sangkut
ting
##rg
##rep
##kng
##puden
##alunya
##unga
kamus
preman
merata
kenape
benih
##arius
kemar
nick
tuiter
##awatnya
##oboh
halim
adop
dikuasai
pelarangan
##ijkt48
challenge
dilancarkan
tuhanku
gtw
jauhi
pedang
cukuplah
hadu
terhalang
bantuannya
mentingin
##ppp
hargailah
credit
hilangnya
instal
gerindra
educ
maennya
##ancurin
neko
relax
##wwww
##ergian
jilid
##islamophobia
pangeran
rule
ngrasain
mengkhawatirkan
suntik
dikecewakan
##organik
peradaban
jagorawi
fp
hilih
jomb
lali
pian
##asian
ketab
##united
##usul
##gawa
perencana
##tib
saing
memacu
##osenin
##otkan
suga
pemainnya
entr
kasama
sesuat
licik
isa
sof
menyalah
selesain
shik
arc
##ogen
menghampir
malamjumat
pemberi
ilusi
klasik
dicap
gagasan
satlantas
ngantuknya
turunan
pekka
pencerahan
ngehate
kebaca
kebabl
terjadinya
##soon
ninj
rabi
##uuuuuu
simulasi
pendekatan
pager
##122
introp
becandaan
##edulian
branded
yawla
emoji
christychibi
rangkaian
umroh
inovasi
deskripsi
keseimbangan
signifikan
3k
hana
lamar
made
pj
tensi
##ring
##snya
##tam
##dc
##asah
##asia
##eluh
##ulannya
##isai
##ominasi
maa
##rict
##aluan
kebon
kebingungan
bersandar
warteg
kred
build
berked
berbakat
skd
##looking
semangatt
section
minumnya
##unjungi
nabilah
relatif
wkakak
ancol
##oooooo
cerdik
nolongin
ikonic
pemeriksaan
berpendidikan
anterin
ticketing
terfikir
kieu
segenap
association
4g
hones
jod
nangkep
oy
tew
vill
##oin
##vous
##47
##alagi
##apas
##urangi
ngangenin
##amaikan
judi
uneg
kae
##owkw
pemasaran
engag
disapa
disimpen
dibel
setting
terlampau
##ijrah
taati
ekonom
ilmi
amburad
maraton
menjemput
btul
##hoa
30k
mudanya
ketawa2
nominal
idealisme
justin
kemenke
hour
ngepet
denmark
duren
maknae
hirup
hindia
ngeship
diawali
bleach
##236122
pelunasan
085642236122
fungs
giv
mga
nind
nusuk
pbb
tnya
##rul
##bye
##ano
##alib
into
perawat
menentang
bgn
pemeran
kemang
tuyul
tahaj
seret
menyampah
direm
samar
laund
ngelepas
andi
##lychibi
akunku
berpegang
konsekuensi
##ucian
menggoda
myday
##room
monangis
artist
susun
##amaru
tsel
kulitnya
kolab
##uyuran
gratisan
notifnya
nyetok
seolah2
lalumu
mensejahterakan
##woon
ungkapin
##zalimi
mimpimu
servis
cwek
mengkhianati
##gantungan
melampaui
peliharaan
relevan
tppkemendes
pemakaman
kerinduan
kelupaan
intropeksi
gadap
lw
ooo
sja
##46
##57
##enalan
##unity
##eskan
berju
ngo
ngos
teramat
ung
sekarat
keresahan
sudi
membohong
takutkan
warning
krist
grow
aye
berbeza
terkabul
syarif
berpengalaman
##artis
nganu
gelud
woiii
ujung2
nahi
reality
sister
komposisi
milk
miliar
iron
semenit
gitu2
aries
##danahaji
introspeksi
nurutin
running
skripsinya
emosian
dikritik
ambulance
scarlet
asdfgh
mancanegara
kemenkeuri
cid
flo
vpn
##yek
##gm
##2p
##unik
##urt
##idasi
gaara
##agri
memakan
judes
tidaknya
kerip
nyeritain
membakar
##anggi
##ohh
samperin
dibar
diblokir
menyendiri
sher
usut
bakit
pagii
##ancasila
pembagian
ext
##eriusan
##allahu
seorangpun
mentari
jaraknya
peter
exoverse
degil
degree
rp1
tambahin
##ayap
sebelahan
berjodoh
lately
keganggu
##ediaan
reject
##tttttt
menjauhkan
sandal
breakout
najwa
gayanya
signal
beranikan
ngemis2
refreshing
damage
monsta
disamperin
pemikirannya
supporter
taufikmadjid71
berolahraga
frozen
900
eug
gunting
jant
jantan
nb
pangkat
ricky
sink
wira
yud
##kab
##new
semak
saba
##aight
##baek
belagu
makam
keluyuran
masihkah
benernya
penantian
tete
##anjakan
ditipu
mencium
##angkas
##ogel
dimain
agus
bruntusan
okelah
jeung
terkend
pendirian
##ingankan
percayai
secukup
bergel
membaw
sekitarmu
suspend
bokek
tampung
hadehhh
##follback
habit
yuuk
wkwkwkwkwkwk
##fiq
nervous
bungkam
##licious
pekanbaru
snapgram
konvensi
announce
loading
isnin
keagamaan
gj
kri
las
mlu
nuk
naha
radang
##sj
##sul
##kur
##766
##atak
##ikk
##emic
berfaedah
ngena
ngimpi
menumpuk
mengenang
##rioritas
nyarinya
##wayat
pengan
atasi
bersenang
dikangenin
soul
##afal
ditindas
menyinggung
chik
baliknya
ahahaha
pulang2
terbentuk
malesnya
ngebosenin
##orium
bulutangkis
bnrn
dimintain
##market
huaaa
eyes
resepsi
ranking
honor
##angkitkan
pastilah
melewatkan
achie
honest
amburadul
52
cadar
daku
dare
laksanakan
nung
salaman
ujug
valu
vespa
##sis
##hin
##adis
##itm
##emas
berimu
beradap
selemah
##egas
kesen
##ayo
abc
twib
mencapainya
peraturannya
mine
samarinda
kecep
otp
bertumbuh
##baikinya
chattingan
nikahin
psl
##resh
gerhana
galauin
balesan
100rb
golem
##table
sarankan
memikirkannya
wonho
##bener
##incang
ngepel
delay
radioelshinta
bertubi
minions
roadto
##onggong
eksekusi
kapitalis
digigit
segelintir
pensil
puskesmas
gadapet
aespa
jena
ler
luth
mbuh
mamanya
purn
sasa
tod
toni
##sap
##sehat
##a2
##alous
ketim
difollow
unlim
alp
tiongkok
menyatu
blak
blank
pentingkan
kecam
koc
kata²
pelindung
berkawan
kate
dekatnya
umno
telapak
imper
deui
amber
menjer
both
satukan
gelut
teko
rekaman
bayarnya
tertunda
##ards
sarana
uduk
muslimwajib
lembek
kontennya
larinya
intens
dagangan
tawaran
kai121
menyelenggarakan
operasional
sblmnya
adaa
pembaca
berperang
sumatra
gandengan
closing
##humas
lonte
diputusin
dikasur
shawn
dibalikin
##riyahaya
muslimwajibbersatu
gop
kilo
late
sci
suru
tor
##uo
##papa
##ple
##jahat
##engerin
terdiam
anja
##okean
##egukan
sekola
alq
prob
temanya
enam
distr
anji
sedem
hall
manage
mantab
##embar
smooth
grac
separah
jaim
malamnya
bagitahu
jealous
pembantu
bertingkah
ambon
dicabut
dmna
tanggungan
korpor
##banget
kemaren2
sulitnya
nyaut
anggur
mukul
penggemar
kawen
ketergantungan
camni
sembarang
everyday
kusut
pasif
copas
zonaba
kamisambyar
ampas
jiraiya
gundik
bertahun2
lanang
menaati
cyber
indosatcare
kartun
dobel
##aklumi
shukriyahaya
membimbingmu
gravity
unboxing
membiasakan
ealah
hbis
luluh
lantang
pff
walang
xs
##pri
##ml
##lar
##ved
diikut
##ilannya
##utasi
tereak
##imo
semi
takdak
##epati
##iant
menget
mengetik
##atiga
##anteng
kelarin
bgi
pengamanan
trafik
enha
##ambang
##aliin
asisten
sukainfo
##udara
dirib
##ahahh
gros
spion
nangisnya
##lier
ite
aji
malesin
panutan
##diq
straight
kontro
mutasi
sabarnya
bermotor
modelan
sinkron
bsd
monitor
pencuri
lelet
banggain
flek
komunik
laknat
ungkap
menegur
speech
december
nobita
kewangan
nmpk
treatment
meminimalisir
implement
gow
ituk
jet
nara
pf
pog
sarah
zzz
##hut
##mand
##qa
##anowo
##esis
##pag
meneman
##upin
selaku
##ampilan
kesombongan
penak
serikat
doct
berseri
sampe2
menyebar
menyemangati
padu
koper
sakiti
angga
updat
kmna
musnah
pembentukan
memperlihatkan
##rrrrr
digeb
kante
prodi
mnjadi
##sound
universe
perlawanan
msuk
hayuk
simon
cemana
karakternya
bohongin
mengenali
guyss
gulf
tunas
karaoke
ngefangirl
change
rocky
##pasti
naif
manipulasi
pasteur
sedemikian
82
mist
nari
naud
yampun
##reng
##rand
##ying
##mon
##aras
##aganya
##tawan
bangchan
prt
merencanakan
keseriusan
apotek
##obatan
shaming
sakti
##ifi
terlelap
warni
ondel
gr2
koma
berbasis
david
sadis
##essss
##atuhin
skema
##ffy
putusan
sukak
konsen
mbank
klep
bergej
franch
bapake
##your
mentor
jele
bermunculan
penuhi
munculnya
gapercaya
##ready
pilu
nginjek
nyiakan
votingnya
formasi
singkatan
bookmark
blabla
talent
christmas
gudang
##viral
message
married
dodol
privilege
trims
terimalah
stories
entertain
diselingkuhin
mutiara
secukupnya
bxb
gek
hb
hdh
oyi
rol
wet
##pura
##mart
##69
##uruhan
ink
##eke
yag
hart
barai
nyam
bgitu
eman
sebat
##aaak
bahasan
##oboro
dramat
shal
blajar
mendesak
setrika
believe
##luck
##angkangan
useless
cheat
brown
berkunjung
tersebar
##reas
##tujuan
elus
tegak
##ribe
15k
dahhh
##wijaya
donlot
shopeeid
lingkup
bppt
tampilan
youtuber
nyetrika
hours
alaikum
ngaret
blackpink
caci
merindukanmu
gimane
sepatah
jemuran
wedok
##ekekmorotai
forever
jessi
kunkermenparkekekmorotai
gejayanmemanggil
kazuha
kebablasan
5a
cing
jare
luntur
nr
nia
rase
teka
##twit
##dis
##emba
##elo
dida
beriklan
##olim
semena
saint
tidor
sue
lotion
disimpan
anjlok
th9
abai
percobaan
memberitahu
kehujanan
umun
jej
sky
##undupan
akun2
heech
memperbaikinya
beuh
riya
instead
datengnya
jahatin
virgo
kendari
sistemnya
natalan
ciee
typ
melupakannya
iklankan
jacks
essay
ngayal
dikabarin
singapura
ngeshare
hensem
terkecuali
unlimited
86
cctv
dpd
genggam
jid
kimak
motong
nder
rika
sut
wani
##alut
##amana
##itahuan
##usinya
digh
dimudahkan
##ilnya
terendah
##ebob
haruto
taktik
##adab
banggakan
alamin
nyeng
nyia
akankah
pengadaan
takutin
sheet
terlupakan
katamu
batalin
malesan
didap
persyar
##anjutin
1945
terpikir
elemen
maluin
kehilangannya
crew
rektor
evil
bubarin
goodlooking
ikhlasin
##etakkan
kyung
rasah
ikatancintaep2
kanina
##aulama
divhumas
ketipu
banjar
cilok
crypto
kepanit
course
memelihara
fungsinya
aid
hn
ied
ns
ted
tari
##oq
##gol
##leb
keja
keasikan
##usya
diuc
diitung
menantang
memasak
nyolong
bgmn
keteg
niii
anjjj
tiff
sesusah
##ontan
dibandingin
##ication
plong
peluru
diperoleh
komb
nangiss
skf
cepu
poligami
dicuci
##asting
alhamdull
badanku
siksa
gener
aqua
##esign
##itungkan
aziz
bintaro
mengenalmu
##agames
ngetag
nolep
kokoh
osis
buying
klausul
ngunu
strayk
pertamakali
history
sepuasnya
appreciate
konvensional
heechul
cix
hamp
hura
hayang
rain
wingi
##paper
##inus
##amg
seangkatan
berangg
bertukar
ngartis
##order
##ebel
##uatin
baja
belikan
##tery
apbd
jamannya
anak²
blon
minute
chit
##ahayakan
brng
menghujat
dipertahankan
katak
kehang
ahaha
activ
skit
##dulikan
dihilang
striker
keselnya
mudahkan
lemon
##artikan
kehidupanku
##ungkiri
yakini
##imakasi
duduknya
idealis
camera
##pired
ekspres
##struk
##aaaaaaaaaaaaaaaa
hmmmmm
estetik
ainun
konveksi
ngeliatnya
merepotkan
apartemen
bepergian
##receh
benefit
pemadaman
govern
cis
clu
cite
eid
lv
nendang
nasabah
pmi
qatar
rach
##vis
##atim
##usnur
##ing2
##urai
tero
menuhin
maslah
anark
##imanan
##oton
##endung
pengend
membahayakan
suka2
arwah
krik
dipimpin
begonya
enak2
##aksimal
berlatih
struktur
insek
bebaskang
sumur
topup
bedakan
kegalau
citayam
cemburuan
kegiatannya
revolusi
kumpulin
tebakan
porsinya
eunji
##ufuf
##irulin
bawahan
homes
tunjukin
likupang
ngidul
solidar
kecapean
formalitas
2019jokowimarufamin
joshua
kementrian
dimainin
itukah
bebaskangusnur
gy
hest
hore
iyo
xxx
yoh
##hata
##teng
##biran
##lenya
##core
##anu
##inn
diy
diumur
##dahan
temlen
##ikanan
##obo
serentak
kepedulian
salahku
rumahan
##impangan
dilawan
brani
spong
spread
selamathari
pendatang
fotoin
keseluruhan
kostan
sabaran
singa
ngehujat
bubu
laris
##iiiiiiii
berbayar
etapi
kencan
letter
berniaga
pemberitahuan
taeyang
maps
jebol
jungwoo
pressure
dibenerin
membebaskan
ngevote
waiji
traktir
beradaptasi
dara
fasa
haki
kc
vital
zul
zero
##yle
##sg
seab
##ikor
##orot
saia
##omy
keram
prac
temuin
membas
ampl
ashar
nakes
dituk
ditunjuk
shu
sholeh
araw
pelet
pelita
##stand
sepertimu
pembimbing
pdf
berlomba
ambek
mampet
bekerj
elite
scor
tepung
tubuhku
tanda2
pilot
kekurangannya
##kkkkkkkk
pandanganmu
hinaan
americ
hajat
##2021liv
kliatan
pujuk
diproses
photocard
jrg
ladenin
##frenwow
sauce
bersosialisasi
roadto2021liv
roadto2021livecon
8k
nungg
spay
##kon
##pass
##akm
##il9
berilmu
nguap
taken
jugaaa
aladin
barbie
kesil
pengab
pengingat
melemah
loo
apatis
tahta
ngerib
kurikulum
mainstream
abisin
negatifnya
teume
mbk
kluster
lear
nikahnya
##ungkot
sabi
putuskan
##spot
supermarket
mulutmu
mnj
goodnight
herman
ngecas
international
perhatiannya
tubuhmu
milyar
tmpat
afrika
keterusan
sanitizer
##strong
common
fucking
gigih
koki
turki
hokage
luput
rilek
membesarkan
jemaah
pengambilan
keberkahan
laundry
huu
##yg
##yans
##yjkt48
##pang
##life
##arr
kepa
##adha
##elnya
diob
##engek
##esek
berta
##ulat
##ulut
maz
keranjang
meronta
##antasan
gws
trlalu
melarikan
pemangku
baik²
stnk
duluu
malunya
dilantik
tao
sadstory
##ingkirkan
sebelom
bukain
bey
##hamil9
wann
diamond
poni
ponsel
bangsad
realitanya
sunday
goodbye
kakak2
opening
mukaku
fanatik
pts
ciuman
privacy
dianter
bercandaan
mgkin
mngkin
terbawa
logout
menaikkan
viewers
lumpur
zheng
berekspektasi
pengkhianat
##world
akumulasi
ketulungan
kontrover
##hamil9bulan
76
aaaaaaa
garang
hous
ott
zakat
##rani
##kum
##dib
##mati
##led
##jelas
##7f
##anabib
##ininya
dipa
input
##ihin
##ulir
oroch
bait
##egoro
bangat
kayo
benang
asas
ditindak
manukan
manda
abal
shamp
indon
##ifikasi
terlaksana
##angkitan
kroto
dipendam
bromo
eksk
##ancar
upah
##orea
bisnes
chatting
haihh
utas
dosbing
moodbo
ofc
patung
ndin
sumb
##bbas
kayangan
genshin
golden
180
etdah
eksploitasi
08570
rahim
andinharus
durian
taehyun
explain
gugup
pelayan
ditelfon
gregetan
3838
##ketat
dirasain
dipersulit
hendaknya
##iskusi
crazy
norma
tragedi
perencanaan
sesuatunya
diucapin
##hatabbas
orochimaru
andinharushamil9bulan
758
aus
each
fiksi
gadang
hasan
lk
vape
wabah
yal
##wish
##oak
##ogi
##d5
##gyu
##case
##asas
seengg
##isl
##aduh
gaw
##tiin
##oks
##endaki
##atics
such
##perimen
membel
dishub
strict
arth
mencemaskan
kursus
duwe
berkes
bagusan
tentangnya
matre
kedudukan
kemarin2
ngeblock
yaudh
rinduku
##ohonan
##ensif
jerit
hakikatnya
basuh
astra
aduhh
byr
seungri
##eheheheh
zonasi
misuh2
kluarga
yawl
vidcall
dangd
dijauhkan
kapitalisme
shikamaru
tonight
tiffany
beranggapan
85
aot
jake
johan
nim
nusa
rog
siti
wayang
##uba
##pancasila
##vity
##angit
##amamu
berny
##iho
menaf
##olitik
##ok2
memangnya
selam
##otel
unfol
meringankan
kait
melimpah
ami
thalib
cintaan
kurusan
dilap
ayana
musisi
kne
pembuk
extr
ilfil
mission
mbanya
##ucon
hatilah
081
darat
kantoran
summar
ilangin
mnding
donat
angkutan
progres
##arket
ancen
perdamaian
version
minggunya
bendung
bkl
smartphone
midsom
7832
heaven
dipinggir
mbanking
kegalauan
seengganya
88
bct
ij
jaa
nh
##e2
##uja
##uannya
##diri
##akatnya
##inah
##alatan
keujanan
keimanan
##ikbud
##isili
terungkap
perisai
##ebti
##ehati
luu
##abda
dengkul
##right
nias
astro
stengah
sesedih
##anjing
bersaudara
dikomen
soz
ditanggung
bli
mencak
dirubah
warnet
kron
diputer
duet
tersentuh
itmp
butuhin
pedoman
kembalian
bear
terhenti
terpaling
igt
gelabah
riwayat
##ungkam
dinikah
mudeng
streamingnya
warnain
banking
catetan
cuacanya
hambamu
tuduh
membahagiakanmu
vibesnya
fatal
ghibahin
membencinya
mahasiswi
sumpek
##jskesehatan
ngeremehin
vokal
squad
ilmiah
doctor
gib
langs
mkin
wd
##wannya
##iet
##vensi
##enye
##inv
##iket
diiringi
ngopo
memula
##baca
ketularan
##sie
siot
disp
stmm
##arani
##ipan
mouse
gimanaa
masaya
##store
konoha
katil
kakean
lapis
matinya
cari2
siapakah
im3
##illahi
persamaan
learn
##lamasi
deket2
kehidupanmu
masing²
hybe
##enalkan
sikapmu
rapopo
50rb
selfish
kkndid
##isei
nelen
budak2
uwong
ketidakadilan
formula
nawar
searching
savek
goblo
analisa
notabene
##joglosemar
cileunyi
konstitusi
membohongi
value
kepanitiaan
kesilapan
moodbooster
2minggu
cec
df
fuh
geh
hk
ilah
iii
jull
rush
uga
uri
wayah
xx
yall
##law
##fpi
##cca
##arg
##alty
diapus
beramal
perpres
##ekk
menargetkan
##olol
memunc
diabet
nyumbang
pengantar
pengobatan
melak
pemkot
##udan
kepul
dikep
soobin
blitar
##stage
oli
pendiam
puterin
kangennya
dihubungi
dicuri
hapenya
##artfrenwow
satpol
murmer
diam2
jaringannya
offense
lanjutan
pencarian
kahit
idolasm
mba2
flower
celaka
24h
tubuhnya
relawan
lgsng
adiknya
fisiknya
notifikasi
arif
dpet
gimm
xixixix
mengusik
mahasiswab
sbmptn
pidato
##etujuan
research
tsunami
ngasal
rembulan
##esapenari
steffychibi
keponakan
kkndidesapenari
idolasmartfrenwow
buan
cwok
gir
hormati
jw
kyu
mekan
nyak
saku
sli
sastra
##gatau
##vd
##ces
keji
##adata
injek
menunjuk
##oket
##imuti
##adio
memantau
mengontrol
bangeeet
belahan
suic
apatah
bahagian
terusss
##isipl
##echat
##ipis
arya
terlewat
mindah
wartawan
##angkir
dimus
grub
polo
te2p
##ombak
##ggest
digit
##ejas
sehat2
menerbitkan
score
kelasnya
nyaaa
storynya
##ompo
pencerna
remember
later
perlakukan
200k
bayik
minggat
cibitung
##nnnnn
pembawa
##wokwok
togel
portal
faedahnya
jiwaku
pemesanan
menghampirimu
tewas
7581
dangdutan
byaku
cilik
gama
gwa
iyah
luhan
paw
rod
tos
tingkatkan
##yd
##wil
##syat
##deng
##matan
##final
dick
##ument
peruh
gaib
##olin
sembah
semanggi
undi
##endor
mengikat
banner
##edot
kere
kelab
kesitu
pengerjaan
ketir
##iban
bgttttt
melindung
penikmat
penalti
distro
##awok
seruan
##ision
direk
terlupa
krg
brad
##uliakan
olehnya
cerita2
bertau
transit
bukber
naikkan
haq
burem
0899
koreksi
igs
switch
cris
mengeluhkan
lelucon
pribumi
dikirimin
1863
cokelat
firstmedia
bernilai
eksis
praktik
dcfact
pisau
ciputat
ketemunya
365
sidoar
kogoro
##agaruda
nyolot
naudzubillah
jullian
aci
hwa
koh
naruh
tumpang
##bul
##lagi
##0p
##ahha
##usu
diga
##etro
perusak
##oria
yaya
selangkangan
##endir
##ript
baris
pengemis
membagi
trop
pemalu
kebalikan
bahw
##udang
##udud
bersabda
besaran
##arahma
agr
ngoment
timbangan
messi
math
##undi
jokam
secu
secangkir
menggebu
##ankeb
botk
ngebadut
saluran
sweat
gemok
sabah
lebah
urusanmu
terdalam
pameran
terjejas
white
kulon
adikku
biasalah
##igu
##ikapinya
hikd
##urnakan
##osaisei
diajarkan
sandiwara
ridwan
rintik
brgkt
kelaperan
kesimpulannya
dikumpulin
rnb
marriage
migrain
shirt
menghargainya
kritikan
sozosaisei
byakugo
peruhubungan
2jam
fatih
gah
hunting
manjur
nil
tia
##yuu
##fisi
##arus
##aminan
berbaik
nginget
menata
##ager
harum
semangka
takbir
apaya
##epr
mengs
##ampuni
kerupuk
ketebak
sebarkan
membangkitkan
kebes
kebob
tetek
many
##ips
arri
mencatat
kura
usn
krena
reaction
bebel
##ancel
temani
marahan
hadis
secantik
0823
##arto
##unjang
kejut
kejelekan
siangnya
lepasin
jiwanya
dinyan
masyarakatnya
kantornya
nyesal
happiness
pcs
x1m
hahahahahahaha
pancasil
awakmu
menjalaninya
provokasi
2004
menyadarkan
nenen
punyaku
cacing
##bersama
kesiapan
mysejahtera
bitch
wannaone
rohani
ngalor
franchise
kombinasi
fpl
fiks
hoh
kult
kilat
lala
lantak
##off
##aga
##bh
##gin
##cat
##cita
keitung
##unung
##isha
##elanja
diingatkan
diwaktu
berangan
bertujuan
tapiii
semaksimal
##ended
kelantan
##odal
apan
ikat
iklim
##ics
samud
lama²
dipukul
bring
graf
pinang
naomi
okeh
infob
sejahat
##inklusif
##iater
korbannya
sahabatan
igd
jatuhkan
lucu2
until
##ualian
modar
promise
subtit
##ologizet
tercepat
wife
lalai
passing
5000
kostum
jemur
coffe
##aporin
cerminan
dikabulkan
mematahkan
palestine
##rinatics
imbasnya
anisarahma
illness
sewamobilcirebon
menerimanya
kewarasan
hidayatullah
rejekinya
permanen
kuwait
sidoarjo
x1members
dowoon
fant
fifa
tech
zain
##rasa
##sng
##van
##59
##elekin
berusia
semarak
selucu
mengulangi
##ampingan
meriang
guaa
##ibo
sebahagia
melaluinya
pemudik
##andra
pasutri
kepepet
##angsel
buibu
jaeh
tersampaikan
tauk
spontan
berbahasa
mega
kiriman
bertepuk
impres
berpindah
##dies
##ahatin
##iller
utul
kampungan
jeleknya
kondom
impotensi
notis
sushi
fanwar
keterbatasan
wehh
##incangan
radit
napsu
40k
ngucap
##7823
taeil
highlight
tempoh
pundung
turnamen
soldout
yasudahlah
tubatu
cendol
ekstra
handsome
menghirup
champion
pelabuhan
imperfect
straykids
pencernaan
1d
nng
ryan
wb
yon
zina
zalim
##bre
##vement
##49
##cul
##unfaedah
dianjurkan
##irannya
innal
perikanan
yaamp
saje
luah
prasangka
nyah
emirat
apaka
diset
aseli
stgh
##angggg
kenapaa
draw
shubuh
arak
kram
##embuhan
menghukum
laba
ayooo
itungan
mesum
telanjang
ulur
persek
gagah
pandemic
eskrim
terpecah
##plus
murka
perkiraan
##tori
ruas
##enggu
pkpd
joon
ketidake
munliv
ptjas
##ediain
madura
populasi
patutnya
ceunah
purw
premier
##707823
##ology
mekar
drivernya
perpanjangan
bertanggungjawab
disayangi
##wokerto
terbayang
lights
dihatiku
instrumen
wallpaper
malioboro
insekyur
ptjasamarga
##70782354
boh
bentukan
binggung
cot
dab
econ
jiji
lest
loss
nomb
peh
ugh
##oor
##sen
##sub
##safat
##inspirasi
##onial
diagn
terror
perangkat
saja
memaki
##osof
menging
mengawal
kerak
kelanc
bgs
niy
atraksi
##ontoh
hala
kepikir
diket
shg
mendes
setau
multi
##chen
##impikan
dimaafkan
chick
dongeng
buff
engine
##intar
syed
pdip
bisik
bisikin
naiknya
peduliin
##ungkas
perempatan
pindahin
perbulan
bulet
tinder
spoil
ungkit
reflek
bungsu
ngefek
tiber
kelemahanmu
berprasangka
loved
awards
didapatkan
diusut
sediakan
grammar
hurt
kepedean
ziarah
inshaallah
kihno
manusianya
asdfghjkl
##rioritaskan
gracia
spongebob
midsommar
d3
eu
mmm
paut
sukan
wedi
yap
zone
##sian
##hitungkan
##ae
##bag
##lor
##lens
##lobal
seagames
kearah
##unk
diary
bertar
ngub
##ulukan
##umba
terjawab
gairah
menunaikan
baring
sije
disi
sesibuk
sampo
jamnya
thingking
mach
dikunci
menyikapinya
ngeroko
twk
balapan
muf
krakatau
dipisah
dilewati
brc
sekali2
berkec
ngelanjutin
youngk
##esth
##real
iyaaa
berpas
heyy
klaten
persel
persetujuan
ramadan
mco
surel
rebu
depres
tagih
psikopat
praktis
santri
##kesehatan
##free
ogut
changmin
##dametro
boomerang
penyayang
folbek
dibohongi
diakhiri
merajuk
##engsarakan
tmcpol
bontot
kemuliaan
cuddle
alhamdullilah
dop
papi
padi
tusuk
upa
##hn
##gat
##vy
##zab
##ekik
##ols
##oreksi
mengid
##edean
tank
##oduk
membekas
##terus
penambahan
stor
dikonsumsi
diti
ditaro
terlewati
biasa2
awek
choi
maskerherbal
sepend
pacarin
balikpapan
naga
##rev
exit
teas
##anizer
liberal
sbs
bursa
kosm
buny
rindunya
crash
garem
##ampakkan
pasanganmu
ktemu
impikan
notes
pkm
kendali
latih
##puisi
facial
kutu
last2
dsr
tambang
concept
title
unggulan
kandas
kewenangan
hendaklah
##ersihin
menyimpulkan
penistaan
princess
tunjangan
rachel
botkece
##fisienan
ketidakefisienan
eeee
kdrama
rj
roko
viny
yeh
yampok
##uapin
##dankeb
##pin
##girl
##akwa
seviral
teroo
meningg
##oten
##ampilkan
kalap
biadab
makro
kelinci
emerg
melaporkan
##ander
tugu
kuasai
anjj
##anggang
kepatuhan
temenmu
dikeh
##indu
diturut
ditebak
direksi
mojok
mulung
pelupa
maskerorganik
brom
sepihak
rakor
taxi
berbuah
acne
ajig
resume
oth
bertek
expired
ilc
##thohir
bedah
muterin
yaudalah
terpaku
satrio
jennie
promotor
netes
cling
mommy
tks
permukaan
komennya
gado
profit
penjilat
working
ratus
cici
ongkirnya
istilahnya
trading
egomu
##omentari
keinginannya
##adata2021
yampokpok
2hari
dalang
fal
fbi
hhe
##tir
##uk2
##itah
berw
gawat
guard
sema
takan
mengangg
mengalihkan
bantai
##ampuh
kesamb
ketetapan
sebutin
pemko
loba
amek
tuch
kebo
stam
adoh
macan
ika
blink
balap
dirugikan
chris
konek
menghubungi
berbentuk
umah
goyah
laprak
berduit
berdiskusi
terbanyak
infom
##alla
mars
hattori
ngebl
iaitu
gasadar
mamang
##hhhhhhh
penghalang
latah
testim
##dyt
domisili
aplikasinya
pijet
##dddd
freel
major
permasalah
color
terosss
jamban
berprestasi
dakwahbukanlah
beginilah
local
fahri
##morotai2019
ngumpet
imbalan
##fitnahdankeb
absolute
diskriminasi
australia
piano
jodie
jantungan
dakwahbukanlahfitnahdankeb
dakwahbukanlahfitnahdankebencian
lara
vendor
where
zzzzz
##syariah
##fic
##35
##arusan
##urr
##urian
##idol
terik
perum
menikmat
guess
anniversary
##tay
mengeks
belaulama
sekrang
meroket
##pernah
pasan
keluarg
sudahi
##hirt
rumahmu
mencetak
kurung
diperintah
umar
wkwkwkk
italia
lapo
anjirlah
kembal
bukas
dua2nya
jadul
##skhilafah
antre
cepatlah
peace
kudet
petasan
jenjang
hyper
##inaneed
goleran
njuk
##menteri
huwa
bicarakan
kegemb
etis
integritas
zonabu
##belagus
cacian
istig
tuduhan
ituuu
softlens
pemerkos
tarawih
creator
palestinaneed
dilanjutin
mempermudahnya
maskerspirulina
matanajwa
kehangatan
buanyak
belaulamabelagus
palestinaneedskhilafah
belaulamabelagusnur
77
fantas
gust
hj
lul
nnya
peta
rash
rober
wing
##eul
##rn
##ojok
##igh
##dj
##pati
##bank
##apek
##apung
ketaw
##esumbar
ngir
permudah
gaikut
menanam
selayar
kamulah
##akanda
##edang
keruh
nyut
meletakkan
pemegang
disebar
##ayani
tiati
##awin
masalahku
licin
adapun
ditwitter
ditangani
pade
ngerangk
ngerendahin
indikat
menghidup
soalny
##uuuh
tuhanmu
##lie
##lies
ace
tempatku
pembersih
teling
batak
##mnt
hatta
slide
filosof
##arts
arahnya
sehari2
saringan
kuny
openbo
bucinin
morat
menyakitinya
sembunyikan
srs
##penjahat
pemberantasan
tipes
hold
eunhyuk
commit
ada2
liputan
bentol
bimbel
##cares
tnp
jokowimarufamin
roller
melewatinya
erickthohir
experience
rukun
takpelah
ritual
launchingcoesumbar
recovery
selamathariibu
diabetes
chicken
96
gif
hft
lc
ozil
phy
pori
taf
##rom
##rise
##hwan
##kati
##pur
##mikan
##fk
##cter
##ardi
##onfirmasi
diarah
##illi
##umentasi
##oret
takd
kerna
kela
ketar
lop
lobang
##tera
appoint
penel
adak
sentim
##ngg
caps
pelanggar
chem
mainten
agnes
##uliah
kurangkan
ngelad
##cium
keharusan
manusia2
berbunyi
##rey
berdasar
bertamu
bertentangan
dihancurkan
ramen
suplemen
filsafat
salju
gemas
riweuh
dinda
hamzah
##kwkwkw
kucingku
layu
tumbl
pindahan
mengharuskan
perbincangan
mnrt
phk
##enggang
politikus
latsol
playboy
syukurilah
miiko
ulamabukanlah
ghaib
jumlahnya
kopinya
mks
intro
tomohon
kumis
wfo
rider
kinda
anugr
kongres
spm2020
persibday
pengecualian
thdp
lain2
pramuka
fadli
nebeng
aninjkt48
nyengir
kelancaran
bertarung
ulamabukanlahpenjahat
duar
gurun
glam
himp
mup
pangkal
wee
wkk
yor
##work
##mek
##lampung
differ
##engat
orangkaya
sawit
##aii
##entur
mengizinkan
alice
pru
meredam
##riz
bgd
ketel
tubir
##acara
sedetik
##luv
##ckc
##ograp
berkutat
pintunya
##estan
ahahah
berbincang
skck
skli
betol
##pranowo
beud
##uahkan
cewe2
pantengin
inspir
rpw
ngehe
pekerjaannya
ilmudc
##mies
##linenya
ampuni
kegedean
threadnya
merasakannya
volunt
restart
freeong
kemenkes
intake
ditambahin
cause
dicintainya
sambal
menjatuhkanmu
pcrn
sedeket
wujudkan
killer
menyukainya
penaw
ditanggepin
ganjarpranowo
jeonghan
banyuwangi
ninjaku
pembuktian
tmcpoldametro
blah
eb
eat
fem
gany
honey
msa
##oja
##bung
##gah
##lakuan
##jami
##fin
##akalan
##ared
##angu
seta
##urst
beruang
pengajaran
trimakasih
pemula
kemah
disengaja
tahni
lion
orgil
##ipm
##umpat
krja
reun
bakti
dilaporkan
dipermudah
spir
abistu
resi
oty
khay
batur
pending
pendamping
capek2
berlagak
chattan
apalgi
##ersihan
terhibur
terhubung
koran
sokong
deketan
##engkal
renov
papu
ndas
contr
ngehibur
perutku
palagi
based
hahaa
fanboy
kadal
milo
provok
defense
kesepakatan
sunghoon
##eshop
mosyans
fasilitasi
ciptaan
godain
serumit
kepedihan
berdoalah
dihilangkan
kegembiraan
citer
mike
tad
tiri
tebar
uwa
uwe
yer
##will
##igr
##ht
##gd
##gaul
##lembah
##yaz
##apu
keadil
##usta
##engarnya
##ets
##esu
menter
menempuh
massal
##epak
##adaya
##edisi
luffy
kesej
##ibar
tuamu
dikom
##icated
kring
bakteri
dimak
dimaki
sayange
kono
katam
##istan
skl
nikung
matikan
khabar
terbeb
improve
kangenin
didengarkan
hais
klas
##year
wejangan
frank
babe
ngebi
##yoon
##seo
sumbar
mmb
remehkan
gobloknya
fanart
keputus
karyawannya
##bln
kemampuanmu
msg
kemenhub
gebet
scrolling
##unyian
##paduan
bundir
penyelundupan
tired
distancing
##163
##baliem
character
sertifikasi
closed
dijauhin
safety
lecet
famous
pesonafestlembah
lazada
lipstick
keterpurukan
purnama
pemerkosaan
jokowimarufamin2019
pesonafestlembahbaliem
bee
cang
deh
haaaa
haknya
jangg
jongin
kiki
ld
mkan
pkn
wdyt
##wn
##lamat
##fu
##zim
##anta
##asu
##adalah
##uso
##usuh
inn
ngli
ngirit
teross
##olis
##ebek
##osari
##edy
mere
sebanding
lovel
##opang
paspor
doamu
dikos
dramas
blood
indra
mulyani
pelem
##ollim
yodah
##auhid
komedi
tdak
pembersihan
##oyok
gamon
berpart
##trin
sblum
having
hpku
##yiin
burn
weverse
myt
sok2
insy
diny
hamdalah
angger
ndes
sumbang
##ugat
dahsyat
pencucian
pilihanmu
tkp
hotspot
##eeeeeeee
2009
ngadep
majelis
##shshs
explore
vaccin
3000
gituh
midnight
lsrael
ngapalin
berkeluh
royal
memories
sperma
wanginya
lontong
menghentikanmu
boncengan
mengabulkan
ulujami
grosir
bertaubat
teasernya
emergency
tahniah
aah
f1
font
kj
role
tenda
tula
www
xi
zion
##wp
##chat
##ange
##adeh
##elsel
##ilir
berjiwa
ngur
nguras
##idiki
teran
menendang
unpad
kalik
kayang
kelabu
suasan
trima
apo
kebanyak
seseneng
tetes
dikend
neger
soda
ditr
ditembak
ngerawat
balita
mencaci
##angkatnya
koch
gres
komod
goes
ujannya
sering2
mandal
mandinya
uringan
esensi
penyampaian
##group
siang2
##yyyyy
sinis
##ensasi
nomin
makasihh
##izinin
grupnya
abang2
gundah
hrsnya
kegobl
selfrem
bestnya
wifinya
dominan
##kominfo
komplit
sragen
psikis
daddies
pinggiran
followersnya
ngajuin
##ergerak
##onceng
kdng
minimarket
concern
gblg
##uslimah
dipertanyakan
ivan
xiaomi
nyanyian
islami
tahajud
kolaborasi
diikutin
ngomentarin
others
2th
jew
pho
rampung
sengk
wni
##dong
##dalam
##lip
##vote
##zel
##zol
##61
##ukuhp
##ades
##eme
##ilit
bereks
berapapun
##ulintas
##olos
selasas
unlock
mengumbar
nyemb
##tui
kesatuan
sudd
##ibe
melamar
peniaga
tubi
aty
astr
##ubang
sedekat
dibentak
isuk
mencet
dirusak
wargan
chef
dilempar
brb
10rb
mewajibkan
demand
ajarkan
ot7
##oyan
teladan
hahahaa
##umpahin
mbe
dosanya
salsha
seharga
##odohi
dibaikin
ndelok
alien
listen
soshum
worst
susuk
kebab
kebaya
whole
silat
bpjskesehatan
ributin
biasnya
lawannya
legit
linknya
dibikinin
gembokan
nanas
undang2
limited
##orbanin
smartfren
indonesiagaruda
suamiku
rekomendasiin
rayuan
dihadapkan
autom
kodok
selesainya
tuhannya
dibubarin
dugem
harmonis
gentle
suwun
trnyta
##abilaa
jenazah
##hutla
bergejolak
infomalang
salshaabilaa
2d
dut
dha
gom
goo
jor
ladang
mangsa
oon
ppp
row
sori
tjah
tangsel
zee
##renya
##oya
##nc
##like
seja
sepagi
##ituh
ngop
sabang
##uate
memant
##jav
##arab
karno
barulah
##iber
melunc
melihara
##ewanya
ame
lif
##udin
coc
dikembalikan
padan
##angkung
brant
gabakalan
ngelamun
tersulit
ajal
##ffff
ambulan
##digan
dihindari
giler
omelin
knpsi
nyari2
yaud
connect
murung
would
woollim
dijul
pencari
phobia
##tablet
sopir
borong
hancurkan
##ehehehe
mintanya
pemberlakuan
##ampingi
diskonan
laporin
kokas
##ecially
huaa
mengutuk
odp
honda
##dreams
screenshot
ngeprank
properti
gencar
##amerkan
greeting
especially
nyemil
##ollywood
survival
jaehwan
orangkayagatau
##willb
selfreminder
jj
juk
jengg
juri
loro
nihhh
site
til
yup
yedam
##hb
##ken
##x1
##asiku
##ukanya
injak
bertah
##oleransi
ansos
memory
selisih
##jajah
mengekang
sud
melul
baikin
disetujui
ath
##uding
##ecare
senkom
around
dimuka
broo
brother
##epankan
tetapkan
##estory
terser
idih
times
##amankan
##aksinya
berdebar
muluu
parking
##untaskan
berlian
memperdulikan
bosch
amazing
repr
antisipasi
wanitanya
pool
cluster
mahal2
accept
internetan
bulannya
tergantikan
tabrak
migas
##uyur
webinar
##1058
yokk
kanak
taeyeon
punah
sbnernya
anniv
jahit
yunho
terbayar
##ampions
lngsng
bersiaplah
sesimpel
cawapres
lantaran
chikajkt48
government
anarkis
solidaritas
johannes
brctablet
perselingkuhan
appointment
anugrah
berpartisipasi
7k
azz
cemp
eaw
gs
handa
kinc
lis
mlah
mecah
nir
oil
##ster
##i2
##kej
##pda
##mil
##bandung
##ges
##anku
##asut
keenakan
##onic
diumbar
##etz
inner
inikah
beritahu
##okah
jubah
##yaknya
##oter
udahh
kalut
kelola
##tuurst
keteteran
##ternal
##andeng
disentuh
disindir
astu
doong
adonan
ingt
magelang
diputar
pla
dilewatin
brut
gabener
kehormatan
tersandung
toyama
skalian
kebijakannya
bapuk
maren
##arty
intervensi
psm
papasan
turunin
sinergi
monang
kecewain
##ize
sunat
##ofth
140
irl
cane
darahnya
freeze
intoleran
##onser
##door
jantungku
dibawain
cemer
ketiwi
memutar
humble
gugel
rizieq
mostupdate
dibantuin
nyelesaiin
ragil
creep
082215
terbitlah
cultuurst
kobam
figure
iklannya
##pariwis
subscribe
beomgyu
##766cca
5a766cca
persyaratan
bernyanyi
selasasambat
sudden
cultuurstelsel
buh
catur
gengg
kama
lose
lfc
tggu
yosh
##more
##mood
##39
##alth
seong
diatasi
nguatin
terob
terimakasi
menebar
guanya
##ungut
memajukan
apa2nya
selalunya
biasan
##owd
pengl
##inggit
melody
semuaaa
##opini
penentu
asian
tetang
diblock
salahgaul
menyep
shio
##ifik
bagong
olig
berburu
##2089
sksd
kiro
polsek
respek
kembaran
pusink
besarkan
mbl
dihasilkan
mempermainkan
burjo
##eraan
##berry
hubungin
rindukan
pond
summer
lancarkan
mcm2
ngedate
aduhhh
ngejelekin
azam
madep
include
katakanlah
##ampingkan
pupuk
ngomel2
mempercayainya
ikatancintaep288
##enghujung
flyover
obatjerawatampuh
bojong
merasukimu
chinese
kushina
terkendali
sijeuni
berpasangan
kosmetik
stamina
menikmatinya
istigfar
indikator
cemerlang
mostupdate1058
0822152089
082215208920
1jt
ahir
khh
lr
paran
paud
tgn
tawan
wash
##yh
##sman
##mor
##murah
##cmn
##akwah
##amilan
##emur
diotak
ngib
##idan
menon
menindas
orba
mastiin
semau
sai
selo
merebut
buatin
kao
kening
nyalah
kesem
ketempat
lope
penurunan
kebakar
##nyz
ingkar
bersusah
dikac
ngert
blkg
wake
induk
setulus
muba
minho
bolehin
capenya
pelosok
setiab
bre
##yarat
taiwan
mikir2
sbux
##pton
menggenggam
gaguna
fred
##itive
tlh
##minkan
turunnya
dinam
##hering
adek2
##anyol
whatever
1830
ngedukung
fancafe
kebiasa
byeb
lembaran
rasisme
material
ibadahnya
persiapkan
legowo
gusmenteri
jinyoung
mangap
seakan2
sorang2
bigbang
kitorang
azminali
palestin
patrick
mahkota
sesimple
twibbon
digebukin
ketawanya
meluluhkan
221
bike
core
fri
fobia
gomen
jompo
laaaa
lino
lindungan
nemp
ojok
panti
petik
qna
rara
ronal
ranji
rujukan
tuli
yelah
##wakan
##bela
##isiku
ngiri
orde
##orak
##antam
ember
sebiji
sampingan
##aranin
negor
tidurlah
##icious
dipasang
##ijinkan
champions
spec
acting
##intang
goc
noob
ajj
lapisan
battle
berpel
berlibur
berlayar
konseku
marta
##yeong
slmt
##max
inside
ohiya
crot
##ulloh
nethink
masio
perbatasan
##menfess
bude
budiman
goodluck
bngun
bersihkan
pamungkas
bacotnya
berjauhan
bicaranya
##emanusiaan
kolot
jepun
mvnya
catat
taubat
eksperimen
tanding
nano
tawarin
psikiater
daster
ganjen
##whwh
editing
bambank
kelihatannya
beraninya
##ampiaskan
mencerminkan
nyelesein
mengusir
product
bandarq
dihatimu
pengelola
senggang
nyepam
##imasker
##pbh
shanijkt48
paksakan
esemka
##reasure
memulainya
mahasiswabergerak
maintenance
pesonafestlembahbaliem2019
3hari
bina
gentar
gotong
kada
misa
rer
rendang
sutr
yose
##rebu
##wu
##ight
##dur
##normal
##lem
##224
##fw
##erc
##enam
##akh
##army
##adam
akhiri
ngiler
terbar
##pab
##imuslimah
orange
saos
takbiran
##jaja
diaa
alfi
tanak
membara
pempek
disco
serunya
serakah
##anggilan
##udutkan
anak2nya
cogan
iklas
manc
##ipal
abpbh
induknya
mendominasi
pler
##usiakan
brangkat
berkont
kataku
berbalas
daesang
kirimin
bodong
strap
##uction
ngebuka
antih
sikon
tekak
siaga
sinerg
anggun
kesalahan2
reza
lampunya
ngedance
terjalin
quiet
##formasi
adik2
border
payudara
sembako
##ssssss
googling
karawo
gugudan
society
##seragam
cupsl
jahe
smtowng
mengkritisi
lukanya
mengutarakan
akaun
mitigasi
083870782354
lindungimuslimah
satu2nyz
##capil
loyalitas
tendangan
##bergerak
ditabrak
diutamakan
lectur
menyalahi
nabilahjkt48
##dibalik
fatihah
ngeladenin
dramasweet
senkomcmn
smtownglobal
lindungimuslimahpalestina
senkomcmnp
ahhhh
dehhh
nular
pgi
pgen
tayangan
vinc
yet
##adara
akulah
beranda
ngis
perda
perban
memancing
apaaaa
##bayar
mengad
mengajukan
##edoo
almar
##riwal
makian
kemalasan
bahay
sesorang
dititip
org²
balai
minor
bolehkah
dipenghujung
mainkan
branding
sepeng
inginku
##empati
mej
sket
policy
anjirrrr
bertanding
tolongin
siapanya
##ghter
gamis
bisu
btob
ngebully
##ejek
penyidik
convers
scre
tenangkan
insting
sabtur
ndue
menitan
urusanku
wahyu
bacod
##itea
sgala
berjarak
dinginnya
anjrt
aktifin
jleb
rabun
korbankan
radikul
syarikat
icu
travelling
##untukk
ganas
breaking
rabuambyar
bahagiakan
benteng
speaking
hafalan
##omania
disampingmu
waiting
##edekah
sarawak
survei
hshshs
membebani
craving
eksekutif
psycho
##celona
mengawali
mengamati
fatinsl
limpas
kemarau
berkedok
tunasdibalik
scorpi
##akmuran
summarecon
kebesaran
impression
testimoni
kunyit
physi
sabturebahan
tunasdibalikseragam
agak
bkan
cemen
guk
js
kle
leet
mingkem
ojk
wakanda
##wkwk
##sor
##fn
##cara
##erasa
##arrr
##amad
##ikant
##autan
ngiranya
##ulaan
menular
menipis
ore
maul
memerintah
juve
##ianatan
mengemis
kalung
prest
merugi
kenali
melenceng
##ewon
aspal
menyengsarakan
drak
setor
setres
maging
anjingnya
dongo
sepertiga
##istr
##intan
##akses
mempercepat
habisin
bojo
slank
jelang
bermimp
sald
fokusnya
##yane
##rakor
genose
tvri
kakakku
sayuran
penggemuk
eren
gega
catch
ultahnya
##iptain
ngemall
500k
kotoran
ijinkan
mumpuni
throw
merekalah
##bisnis
tayo
mewujudkannya
anjinggg
available
hemm
ricuh
naturalisasi
street
kedokteran
##jutsu
alquran
penawaran
cz
few
fuc
kckc
ode
oge
peb
risa
villa
w1
yur
zat
##oain
##hid
##gub
##ginal
##zat
##eraian
##injakarta
kejak
##ingkan
##eset
nganggap
##idz
perjalan
yaak
##okie
menguap
kalini
karhutla
meragukan
##asib
kesamaan
pengantin
membesar
##sium
kemakmuran
asma
stag
hallow
dog
dikenakan
ditekan
##asilin
drum
waktuku
mencar
minhyuk
moal
##luas
use
dipin
koas
ceroboh
##olla
nawa
spasi
berbunga
umatnya
death
didat
daripad
yukkk
terpampang
psim
lepasni
jiyeon
kudeta
rekrut
ramein
##kwkwkwk
nex
kucingnya
##tbot
degrad
bneran
hakikat
##enggut
ikhlaskan
pkai
fleks
permohonan
aduhai
terjamin
berjasa
cabean
tesis
chanel
pilar
ukhti
##tttttttt
walo
##presikan
jagoan
hadiahnya
penthouse3
japri
menjelek
saputra
julidin
nyelem
nyelip
bentrok
fatmawati
cancer
earth
jdinya
complicated
verifikasi
ditegakkan
kisaran
unjuk
disembunyikan
ignore
orangtuanya
entertainment
##belaislam
350
gint
hemb
hacker
larat
nhi
sot
##euk
##sik
##hijrah
##dang
##mpt
##bdg
##06
##enta
##ahit
##gae
peralatan
gaenakan
menuntun
guest
##okong
##ebur
##epe
seko
prancis
merc
kaf
nyungs
kesunyian
##inggo
trejo
meleleh
##andan
##andanya
##opoli
##juara
##ayy
##arane
adit
dikawal
##tifikasi
##ipul
menduga
##itugas
dipisahkan
magernya
capt
pelac
brt
##ancy
lainya
bug
berkabar
ngelus
kompon
kominfo
spp
berbenah
##raan
telek
ambigu
jokitugas
ulangi
dua2
bea
daerahnya
marak
##ucinan
menggila
menjdi
keselek
##good
sleman
lemas
1994
ngebela
##ustakan
##place
script
gelaran
##anggain
ofis
sinov
neo
tanggalnya
kuno
mukmin
khilafahwillb
totally
berbaur
buahnya
tato
bengi
berasumsi
gulung
##2925
compare
kdm
sentral
mendekatkan
pressing
sugesti
egonya
lumrah
abdullah
diurusin
agnezmo
klepek
firstmediacares
suasananya
bpjskesehatanri
khilafahwillbeback
ayang
bitung
cela
cumi
ez
epl
einst
gitulah
hibur
paman
pkk
ringk
sow
uke
wanti
yatim
##hd
##buhan
##09
##fre
##zul
##ennya
##ukuran
diapa
akomod
##etta
##iris
berumah
permudahkan
##eker
meniru
masakin
antiv
gueee
##endo
##entea
belia
karyanya
##anting
benarnya
niq
disug
liyo
dibantai
kepingin
could
##ipat
ngerespon
ab6
direp
moge
kecium
realisasi
##cket
##emburuan
dimsum
brenti
sepup
komnas
kmi
##reat
skt
pembub
ngejawab
badak
didasari
##alll
yaudahmau
menangkan
kesalahanmu
##hero
monoton
golput
bercita
mnurut
ulangtahun
##aksaan
berjalannya
kiw
anyink
thankyo
ampunilah
silam
trial
2232
ekspor
camtu
jins
sialnya
junkyu
ghost
eksistensi
rahman
majah
##jakarta1h
##motivasi
senyumanmu
trying
gituloh
woojin
hijrahmen
dihadiri
auditdanahaji
menginjak
seberapapun
bner2
##892925
chocofitjakarta1h
selayaknya
0812892925
genteng
merajal
aplg
fiktif
kameranya
pocong
##ativitas
ibaratnya
beyond
volunteer
byebye
antihold
dramasweetdreams
bermimpilah
kejaksaan
chocofitjakarta1hq
081289292543
ejek
hoshi
ianya
lrp
mamb
manjang
nunduk
pjj
rung
wih
zen
##yut
##uel
##uasi
##jahan
##zik
##angayo
seorg
##isy
diujung
beradik
ngatas
ngorok
menas
menaikan
##olik
##orama
takboleh
##upas
##otot
gakpapa
##ending
##uaq
sekar
meros
kesampaian
bgr
##persi
pengacara
melati
amel
takutlah
penang
kasta
kualat
disiapkan
disiram
pasuruan
atik
dulu2
##kring
##cayakan
##ecahan
bikinnya
menyis
padah
kecemburuan
dilatih
brid
diperiksa
tetapjokowi
##empurna
terkuat
matic
cobaannya
hahahihi
berlimpah
bisyar
kejang
##resm
garuk
rendahkan
cocoknya
ngedengerin
harapannya
fire
kulo
hahahahahahahahah
milikin
syukurlah
tampol
startup
ajaaaa
kimi
##organizer
overthingking
pijak
geter
prev
siram
detox
adaaa
jisoo
tenggelem
menyerap
objektif
lindungilah
dingerti
wolf
mengawasi
sbenarnya
##4410
sf9
plagiat
membawamu
pogba
moratorium
menyepelekan
tunasdibalikseragamjkt48
ab6ix
yaudahmaug
##angayoalas
b1
buar
bulus
rg
sund
tuman
tunjukan
yoga
##gal
##lap
##424
##3k
##anis
##enn
##ahannya
##aralah
diwajibkan
inih
peril
perantauan
##ekaka
iniih
##kantor
sama²
tidk
kamarnya
##edor
##ed23
kalsium
belang
prak
prima
pride
buatkan
##owechat
##sional
penangk
kuf
kebongkar
atw
##ipe
ngerekam
shi
shame
mencerahkan
kurasakan
##chu
dipertimbangkan
##emuin
##2018
##oyokan
matter
##erior
gilaaaa
sabarlah
slam
badanmu
##timate
ignya
gantinya
renungan
moodku
realitas
leluasa
produknya
budeg
duhhh
piy
kebaikannya
stuff
permulaan
bhi
paketnya
kutemui
aminn
persij
lengket
redup
performa
promosiin
srek
porn
problematika
sungwoon
ngintip
funny
##5812
software
candi
linekaka
51b7
booming
menyebutkan
laden
tumpukan
penyelenggara
teriakin
wewant
ketutupan
dalil
penjagaan
country
develop
dipatahkan
08570224
mengsedih
martabat
yoseob
linekakaowechat
51b7ed23
085702244410
bih
bim
equ
genting
ganja
kkt
mangat
mij
nisa
rodi
zzzz
##ratis
##design
##papua
##gang
##leng
##alama
##alisi
keda
##isimu
##itnah
##eling
masif
analog
##adiun
bai
memul
memint
##ba5f
seliw
mengumpat
##egel
##ediksi
prem
##dae
makes
membuahkan
appl
penind
disamain
atle
##obar
thomas
ditik
menyany
menyarankan
##ipina
mendap
pules
##ngan
plin
plss
dilem
brondong
onoh
dipermainkan
upil
uptweet
mesir
reset
teater
##video
berpolitik
yahiko
serial
babang
pilih2
penyerangan
jelly
sempak
comfort
##ibukkan
moody
kerendahan
petak
pale
sosiologi
biroj
calo
kupas
biarkanlah
mahar
folls
durung
mengakuinya
excel
berisiko
telkomcare
##nnnnnnnn
ngmong
##islamkaffah
shippuden
##585812
hdp
penyelamat
##240585812
destin
lhoo
terbaca
gbsa
fellychibi
##esterol
082240585812
photos
menagunfaedah
rileks
pedulikan
festa
peminat
greentea
lempeng
idiot
mindahin
bahwasanya
tuchel
gusto
reunian
khayalan
mandalika
sinovac
2232ba5f
merajalela
dingertiin
cn
eit
heee
kuna
kyo
mira
nti
ohhh
##ros
##hm
##dn
##bgt
##lima
##cet
kef
##ikatan
diupload
##ingati
ngb
ngemb
peranan
menusuk
mendaftar
##olek
##yakin
##otr
##otol
mengata
sekampung
##anter
nyinggung
janganng
suzy
truth
kuwi
kebumen
anjng
asri
##ubarkan
ther
thro
advent
menyumbang
manusya
mendew
perceraian
##iftah
##ansyah
sepet
##oook
buyar
##yarakat
spbu
abisan
betis
notip
pembalut
sbgai
uangku
mantra
usahaku
ngebandingin
penyus
situasinya
kamarku
##ujuislamkaffah
sarkas
perbandingan
dibuatnya
##egaraan
kiya
jojo
tergesa
##rahman
tabrakan
berduaan
hahahahahah
hadirmu
called
tampar
##rp1
##oved
hangus
diharap
##aulatan
internetnya
saudaraku
junewish
tatto
mangkanya
nangor
senyam
##gggggg
ugal
##bdj
najib
##persatuan
hadeeh
farhatabbas
berkelana
gbisa
berkerja
gandeng
naluri
device
fleet
ngata2in
membantumu
nihil
mengedepankan
rp1lampung
didaerah
dighosting
dinikahin
grafis
subtitle
bunyinya
rakornas
cupsleeve
degradasi
hijrahmenujuislamkaffah
seliweran
fard
fiz
nit
waf
yess
##rs
##home
##uwe
##dm
##lr
##jing
##xing
##adh
menuduh
preg
karb
kelanjutan
##ajah
sick
logi
disemp
disarankan
dibo
dika
dikurangi
ditaruh
##elasannya
maggi
mina
smw
chance
agent
konvo
##olll
kakel
twitternya
jauhkanlah
gamasalah
##trik
bisikan
##001h
dihabiskan
kuliahan
marvel
##uce
namain
##ejin
pekat
tegal
gerbong
kahkah
waspad
silver
feels
totalitas
lawanya
mahir
pesenan
sembilan
ketiak
lagiiii
nasionalis
nasionalisme
bajet
tenar
rahasi
##danrp1
##amahi
##uktiin
spesifik
muridnya
##rrrrrrrr
bentak
jebakan
##980
nurul
jahatnya
alahai
jackson
memproduksi
jeketi
choice
appsdanrp1
bbrpa
gubrak
memilikinya
tqh3
stupidity
bluet
ternyaman
sbenernya
sajalah
distributorresm
dollar
gorontalo
lieur
cidera
sinkaj
achievement
menjerit
pengendalian
sliweran
lightstick
##syariahkaffah
brctabletalk
mubazir
lecturer
fatinslquotes
einstein
##persija
tqh3001h
duper
fest
gamp
jaksa
limb
nut
pih
ppn
##oyak
##kamu
##01
##xq
ketu
##usolat
diw
##nyaaa
juyeon
##bae
##otis
unyu
alibi
keret
disingkat
##alize
sedalam
door
dibuktikan
sudahkah
satuan
drag
dipak
smakin
plz
youn
upchar
jeon
gocar
cepatnya
pembinaan
mati2an
matil
##pei
telen
imigr
deobi
berlarut
misqueen
mbc
weird
botnya
antek
salat
video2
poop
moneter
mnd
waktusolat
outlet
kendalikan
kolej
geer
geografi
jasm
diberitakan
##dayaan
diliat2
somad
tangina
kental
sulung
senyaman
##666
##imbangi
##gabut
##issue
kipop
##eseung
micin
brief
muchomania
janjinya
explorationinjkt
uhd
hyunsuk
mahasiswanya
sebercanda
dihatinya
wqwqw
penjajah
ketuker
tntg
melipir
dibebaskan
momentumhijrah
supplier
amrilmuhammadmp
sungkem
independen
implementasi
##investasi
mengingatnya
seagames2019
robert
kegoblokan
tetanggaku
persijaday
atleast
momentumhijrahsyariahkaffah
333
84
acha
bass
bohongan
cian
giant
jy
jos
lalang
mob
vet
women
##wer
##sad
##huk
##kit
##uya
##tamar
##nasional
##bor
##cation
##aker
##angen
keing
##unin
##emunya
##esus
##esona
ngarti
sayo
##ompat
baz
judg
selektif
uncle
##endi
##edekin
pengurusan
trump
melintas
##ikanlah
kempot
kuant
kuingin
ate
asahi
##ohhh
tetangg
kaulah
couo
krs
seperjuangan
brpa
bray
pertanggungjawab
berkelas
sangat2
nota
khair
berpuasa
kembung
sector
mantu
##uncang
gagalmu
conv
surah
medali
sibuknya
modul
nduk
prodimp
##imane
weeks
ayamnya
respons
jurn
belanjaan
lahirnya
calling
azan
mahfud
bernegara
ekswan
registrasi
durasinya
haluan
dakjal
getting
gosong
ditutupin
##7088
jobdes
##siregar
semacamnya
hdeh
istriku
micha
osama
360
royong
penulisan
qurban
cheese
return
kunjungi
menyangkal
meyakini
teriakan
pojokan
instruksi
082121
berbulan2
dorongan
skuy
journal
##atakemenpar
brompton
creepy
##pariwisatakemenpar
oligarki
rakornaspariwisatakemenpar
dhl
e100
fufuf
hl
hoy
lungkot
national
rug
slah
tissue
##kol
##disk
##1n
##ϟh
##itation
dijalanan
##urit
berontak
beropini
ngana
##orinya
yaall
hartanya
semac
apaapa
mail
##ampe
bell
sekeren
albert
merayu
benahi
bij
paka
siak
apapa
astron
seset
masalah2
dikembangkan
##eeeet
sampean
abt
saksikan
minj
moist
##strasi
diperb
timbal
engene
terkutuk
muluuu
##peo
sadarlah
parad
berputus
ilham
infin
##think
menggantung
yahhh
kira²
##hoot
botstrong
bermuka
surau
salak
tlong
fakboi
##bby
petuah
##original
gedein
listening
anginnya
temen2ku
panci
ribut2
ckup
ngesave
##iayaan
motivation
standby
njirrr
saudaranya
pipiku
##kkkkkk
keberangkatan
ariel
##acted
mirror
freeport
kebenarannya
detective
guyon
##bekas
tempor
huaaaa
menyangka
motto
advance
henry
memanusiakan
kutipan
pucuk
meliputi
maskerspirulin
pretty
axis
pnting
diturunkan
pemanasan
departemen
gjls
korporat
diributin
jessica
chitosan
different
lovely
handayani
dikacangin
saldonya
pembubaran
wewantkhilafah
##708858
082121708858
3kg
fund
nangan
sitik
taste
yn
ybs
##dki
##ms
##muslim
##akir
##akum
keur
##adit
akt
intan
nganc
##umma
perint
mauu
sains
bajakan
memasuk
memaklumi
##epok
gakenal
##edom
merancang
kelaut
sucks
melampiaskan
penjur
kuber
disin
standing
berser
bersel
bersiker
pulisan
baleg
mencob
terlarang
pelbagai
##ansih
pertar
##istika
balik2
ahs
pemberani
chatingan
mboh
kontestan
dman
frame
friday
digibahin
tanggap
##ejkt48
##aaaat
##obile
huhuuu
puja
sumut
dikiranya
tvxq
##ondo
penghinaan
menyerahkan
berjil
kolesterol
menemukannya
jumatpuisi
bhai
tercatat
##iiiiiii
perjuangannya
##iayai
berakibat
fier
bernapas
kusuk
familiar
ceue
ganyang
kreativitas
purple
bahagiamu
tingkahnya
slowres
thru
dikenalin
rentan
buzzerp
kompetitif
empuk
bidan
titit
sngat
professional
advice
thaitea
ngagetin
menggigil
flaϟh
##tibmas
blonde
wannable
nombor
plaza
daripadanya
janganngeluh
e100ss
bersikeras
cloud
eli
hwang
kth
mih
mangkal
silih
tc
titan
tauhid
##roy
##sab
##ied
##knya
##met
##mant
##galah
##gala
##anas
##anmar
##eneh
##asam
kearif
##ikom
##usap
bere
nguli
takmau
bajak
memas
memandu
mengay
mengungkap
sekamar
printer
karm
bibi
nyuekin
kesemua
ketangkep
bgtau
meluka
##ewek
##andong
amnes
penambah
##alip
##awar
##ohin
living
##ubris
pakein
tidurr
orgtua
mendarah
selesaiin
direvisi
##ifti
##chant
dipojok
cermat
agresif
ekos
jelasnya
berkeluarga
berbisik
bagiin
betina
##oyeon
siape
ngejek
express
burik
esk
myanmar
kejepit
berminggu
cowo2
tinggi2
forget
gasalah
sarap
kalimatnya
basm
remote
weekday
komenan
paid
beresiko
kolonial
kutukan
tampaknya
assist
works
kubilang
##erdas
##untuksiapa
gesek
djar
editor
arsit
ngetwt
fiskal
memperbanyak
diapresiasi
inisial
graduate
tabunglah
harmoni
##vseharian
jokamlicious
sweater
kebobolan
mengekspresikan
##ikantvseharian
nyungsep
janganngeluhterus
kearifan
dbl
find
hoseok
lendir
napi
yank
##wes
##whe
##bagi
##bangsa
##lep
##5m
##alongan
##ukud
##ukupan
##emarang
##esco
insi
gaaa
menampilkan
akuh
##uput
guepersija
seluas
##egrasi
merana
merayap
##rick
kenek
##odong
##ambakan
##andel
##open
tuit
kuch
anjinc
atribut
##krang
keluar2
kepanjangan
isoman
menyingkirkan
mendengarnya
##emban
dipl
dipost
peluh
menghianati
kom7
syalan
kekeh
polemik
imo
##untik
##osiasi
apalg
dicur
beku
jokowik
pantek
salad
##seok
clip
pegal
simpanan
permata
ngedrop
gabutuh
astagfir
byung
ciy
mili
pendapatnya
someh
geblek
domain
priok
mengubahmu
kumpul2
workshop
overthink
freya
kusadari
ipad
##harge
colek
fath
kdang
##ternim
cipinang
tameng
ngawi
menyusul
0838424
##37980
duniaku
komentarin
psych
kenakalan
ekstrem
hadeeeh
lansia
bergaya
hestek
poloqq
semaunya
keluargamu
commitment
peneliti
adakalanya
gresik
brutal
083842437980
cwk
eur
fau
finding
huuu
hollywood
lika
ledakan
mother
nde
teki
tower
##name
##namakan
##03
##cor
##cow
##copy
##xs
##enzo
##as2019
seiman
##adhi
##emudi
akurat
berwisata
##uts
##utuhan
orak
masha
##okes
semper
memanjakan
memuliakan
bangt
belon
##anten
kaji
barcelona
bib
kesebar
ketum
##ibus
sebodoh
pakenya
pemaaf
sendi
##jud
tiup
dota
dibanggakan
isok
issu
##indarin
menyeg
menyanyi
shani
##ifu
plng
dimainkan
namin
ibrahim
aha
berbakti
gojo
kekos
bertumpuk
semangattt
mandir
mempertimbangkan
board
bekel
menggores
filem
raisa
convo
elegan
##ivor
##engkap
pekok
islamsol
##ashop
dijahatin
##ahagiain
petual
ngobrolnya
##akakakak
ilang2
rout
heleh
superhero
presidennya
cakep2
worry
lemahnya
outdoor
ngedrakor
kolek
ekspedisi
labuan
##ernasi
membiarkannya
audio
rusuk
akhlaknya
##288
matcha
understand
dibayarin
pahitnya
hafiz
hahahahha
selimutan
identik
ftv
##pppppppp
photob
yangyang
pajangan
ueueue
xiao
sindiran
diceritakan
pertiwi
##alifah
ngonten
frontliner
diusahakan
ketabrak
innalillahi
terrorist
himpunan
katamutiara
ngurusi
dikendalikan
menonjol
somehow
93
aamin
cegukan
eq
fto
hq
hng
hwi
lir
oct
ride
tumpul
vin
ze
zz
##aak
##aukan
##balik
##losan
##jc
##qwa
seisi
##isisi
##usuri
##etek
ngum
ngiang
##ulo
##ulung
tertuju
tertahan
termotivasi
##ebalan
##ebatkan
seler
##jaw
##entil
##eger
bani
##abutan
kari
barkah
membubarkan
##ambon
##oprak
diseles
disband
sampingnya
orglain
manner
arajkt48
susah2
koo
chil
dilayani
bruh
berke
memberatkan
toa
berbusa
idm
##liam
##2000
acad
itukan
betrand
tdnya
kedap
libra
infos
dicampur
bergaduh
##berd
desak
nyai
panjangnya
monday
jarakpun
mmng
depress
endorse
muktamar
anymore
firman
rapet
lembah
##usinasi
tauuu
madara
napasi
four
##struksi
wtp
problema
robek
##okoan
wlpn
lovestory
uhuk
records
ditahap
comingsoon
lentera
frontliners
yogya
##paganda
sentimen
jenggot
halloween
through
dvd
eo
eve
fira
hv
hoo
lurah
mangg
nasinya
rasi
rans
sv
surut
timp
##hanya
##dtt
##non
##merah
##lusi
##just
##ahir
##aluk
##aph
intim
nggar
ngancurin
##umandang
perpp
masok
masternim
##orant
##uhuhu
saving
##abak
merampas
nyatu
##ingggg
melaka
##ambak
##opot
amanda
##obic
seratus
malasan
##uburan
these
dibulan
##udak
##udakan
sofa
##indukan
menyengat
shaf
bloon
##ahahahh
arr
mendamaikan
mino
reach
##challenge
smga
begal
solution
##impit
dimohon
told
brow
menghantui
pertemukan
pertokoan
##imax
span
ums
dema
ngeue
gatse
airl
##untukan
haz
mbatin
beut
manteman
cantik2
myxl
filipina
ngebales
evan
sinau
sabda
##aleman
##hyuck
hakiki
allow
allhamdul
mmf
lawanislamophobia
muslimah
perhatianmu
bucinnya
calm
kuper
##arkoba
restock
##usinegeri
kemenpar
kannn
keterampilan
##uuuuuuu
prior
campuran
srim
sebutkan
tune
bantulah
antaranya
commer
cold
##move
bencinya
shipping
menambahkan
nggih
sentuhan
menyeru
ditakuti
folder
kemendesap
congratul
dobby
menghadiri
ketaatan
syndr
250rb
ngupil
keripik
practice
sumbernya
rashford
provokator
janggal
##usoft
mecahin
penglihatan
komponen
menasehati
##bdjarum
fiersa
islamsolusinegeri
kemendesapdtt
1m
91
faj
fwb
jink
lai
nuna
nanda
renda
sni
tgs
wta
yela
##yata
##hati
##peng
##fast
##818
keulang
diun
digoda
difollback
##ilanjut
nganti
perahu
menantu
##agaman
##adig
bisaaa
##omay
memaham
tidakkah
mengada
banda
meri
##arium
kelel
nyuri
melompat
sendri
apadaya
kasak
##awk
##acak
halang
##anjeng
dikem
jalan²
##eeembok
20rb
sha
##ici
##unggulan
bolehlah
pagi²
biasain
##angsat
brew
sepedah
##angsungan
##empak
##empas
kmarin
timing
sebener
berteduh
kha
battery
terbalas
##vid19
wave
obser
persisten
##yke
superior
##haz
menurutnya
menteng
bermutu
tlpn
##uruskan
##ocok
film2
dripada
haiii
##ugihan
jodohin
##izuka
snow
deputi
weekdays
muke
tindih
##alkat
kejadiannya
##eneca
##alangin
ngegym
pelajarannya
handuk
langkahmu
kemenp
2008
kantuk
pnd
camne
puasin
gituin
tanduk
lakinya
freedom
##elein
porno
menganggapmu
lesu
menjelma
##beauty
haihhh
jahil
seojun
alfusoft
aaaaaaaa
aktiviti
auranya
berhari2
culik
ngadi2
luhur
fairy
dibatalin
demonstrasi
spesialis
lonjakan
cgv
tintabijak
dishare
honorer
filosofi
terbebani
insyallah
kocheng
tjahjo
routine
5jt
71
bmi
eehh
fif
gall
haku
netw
noleh
oa
xleh
yi
##yr
##sing
##dol
##nul
##nai
##mel
##bike
##laa
##akon
##alon
##astic
sealed
##unch
diump
##esnya
terinspirasi
tertera
##ekkk
menampung
menembus
guide
##ungit
harlah
mengajari
ale
barista
suaramu
sebarang
baru2
lobby
penempatan
livia
##ipo
bleh
setannya
segimana
dimensi
toll
brasa
menghimbau
gabi
spirit
berbelit
##ingkai
sksk
ajari
yaaah
otoritas
televisi
hadeu
secepet
ultr
sbel
heels
sumpahh
dicancel
slipi
##usted
menuruti
salatiga
curcol
presid
masyaralkat
contekan
postcard
nahh
liburannya
enggaknya
ktika
palanya
dilakukannya
##encanain
setengahnya
rapper
nyampein
khilafahsol
bismillahir
dagelan
##health
pijit
mensyen
##gerung
robots
##beer
hibernasi
jayapura
uwuw
hdup
bentaran
nunjukkin
##enjangan
csy
dirutgar
farhan
maklumin
tertibkan
menyeramkan
maiyah
dzuhur
sasori
nadia
berjam2
2019jokowilanjut
brazil
wewenang
ikatancintaep291
menyimpang
mahkamah
menghargaimu
squar
variety
popularitas
berjudul
dilapangan
semarakfest
kesambet
nyembuhin
##bekasjerawat
djarot
khilafahsolus
b2
fing
gong
kuman
nont
pim
ruh
stim
tangi
xxi
##don
##dia
##makin
##belanabi
##1ty
##fifti
##vj
##vens
##400
kei
keabisan
##adir
##elih
diyak
akai
##nyawa
bertab
ngorbanin
##ulia
##ekok
dananya
juak
unta
menges
already
merpati
##ants
##antah
benj
biang
embun
siiii
penetapan
sendiri2
atlit
asuu
tahi
serangga
##acing
##acha
##acuni
malih
sederh
##ilangin
adid
dibidang
cov
ditelan
abdi
blow
setlist
dirampas
kecurangan
##ogok
ehehehe
##strak
butir
diperketat
diperhitungkan
jazz
ayuk
tail
##aruhkan
twitterku
bertolak
param
parag
##inginkannya
panah
markah
btp
198
yea
ngebaca
raiso
##pleng
else
tengah2
psg
instink
##def
fakkk
panjang2
dijakarta
joging
##zzle
pindahibukota
mne
terdepan
##enggal
##imanalagi
nafs
kompensasi
pukimak
cannot
##iptanya
camer
universal
labuh
##955
biayain
membangunkan
nganggo
ippeo
purwokerto
breakdown
nyalon
indonesiaraya
panglima
bomat
##bisanya
kemendesa
kemendagri
tinggibadan
psikologis
ngalong
secreto
##aknai
confident
ambulans
galaxy
geger
failed
cubit
##arnav
paulina
giving
nindi
ayeuna
rockygerung
amplop
clingy
diperintahkan
ragilfifti
conversation
scorpio
leeteuk
fleksibel
fardhu
keingetan
nanganin
kongk
lane
nona
tatan
watu
wapres
##rebahan
##tinggi
##akaan
##ahhhh
##asap
##onj
ngaf
teru
gays
menung
menebak
##agil
##ongkan
##asayang
##osit
##ians
mengah
jadii
banyakk
tempel
kesembuhan
kesenjangan
bgus
tran
melongo
amar
tuuu
disemangatin
ats
##obby
##ontarkan
dikampung
ditangkep
menyala
##ipkan
mendaki
settingan
##ico
terlena
##keren
krama
mulakan
ples
koalisi
agensinya
menghalang
separ
##uugm
baggy
##estik
kehamilan
datanya
spanyol
mein
nangisss
##oreaan
gapai
kedaulatan
batasi
atasnya
dihajar
macamni
perselis
propaganda
menjag
##eravens
##antuyy
elak
curr
beratur
jatuhin
gemar
gemoy
path
wahhh
memprioritaskan
udud
sndr
ngejelek
cabul
keputer
kolong
sangar
bhay
pilem
##ovie
msalah
motivator
nasdem
##presiden
kopit
poket
julukan
starter
##alsuan
mekap
teuing
diterusin
ketidakp
obrolannya
menuliskan
tapos
three
kongsi
mosyan
alfie
pickup
##croll
tracking
sasukeravens
garansioriginal
kartini
livenya
##ricorn
##festival2019
mengatasnamakan
farmasi
komunikatif
kontroversi
dinyanyiin
upayakan
dikehidupan
diarahkan
mytreasure
setiabudi
yaudahmaugimanalagi
ekosistem
94
clim
fz
gusi
hep
kna
lys
moro
nl
ovt
pimpin
sisan
wamen
ʃƪ
##eor
##kulasi
##guna
##cis
##eragan
##alak
##asimu
##apapa
##aduhan
##ural
berand
##gaga
perpaduan
##eket
##imon
##ebo
##tax
bisabisanya
memang
selebr
belibet
belanabib
allaah
merint
bene
##alamannya
pengamat
ketoprak
meluangkan
sich
##opak
keberapa
coz
dikait
##antigas
abon
katabijak
capricorn
sepert
pelaminan
dilirik
##stv
namatin
diperjuangin
memberlakukan
twitnya
kmana
batman
##urui
berpuluh
##track
jokoan
hadirkan
dihormati
ramalan
cui
ngebolehin
ngebuktiin
pikir2
menerangi
insiden
pacarannya
##erakkan
forward
cru
perkenalan
fakk
garud
tegaskan
anggotanya
gass
ngobrol2
##ardy
monek
ktm
##lanet
njaluk
joong
ngejer
risk
khilafahlah
erti
kadalu
##kirakan
listriknya
perlunya
mengatakannya
etik
##aseru
menyadarinya
tasik
testing
##cleared
kusam
##wins
bela2in
topiknya
mekah
colokan
compet
indomart
nurse
indihom
situation
kompeten
gelasantigas
sewot
hister
ucapannya
kemendikbud
syahdu
landasan
marketplace
berturut2
bonceng
الل
sihir
##riham
memelukmu
##bbbbbbbb
mimisan
trnyt
diaduk
childish
memaksimalkan
missioncleared
brader
konsekuensinya
amnesia
perselisihan
mosyanorganizer
jokoanwar
bwa
bomb
dumb
hue
kangg
myaz
odet
punc
silah
tgg
teduh
uitm
xtau
##eem
##eep
##yes
##wati
##habib
##kec
##deh
##panggilan
##lod
##leman
##jep
##jane
##full
##qin
##akita
##atul
##ature
berz
beraturan
ngetr
terpe
terdaftar
dancer
yailah
yaela
##taf
juvent
lubuk
karin
merry
barokah
##ajinya
truck
mele
meleg
##opens
amalkan
##ayoran
tix
state
##acauan
lipt
maleh
sedara
hal²
dikode
berhutang
##eeen
ditemuin
ikea
shim
##angke
usik
mulfan
lupaa
naya
ajasi
pembahas
pembohong
reser
parcel
pedalaman
berlawanan
##eries
chatt
mbo
menggonggong
##mask
desper
patungan
perkhid
petisi
##utaan
gerai
conte
##ordarah
updatean
tumbuhan
##coku
herd
notebook
bobot
celot
buleleng
ngedap
bird
undip
muslimin
muslimunited
tabok
rm100
kawat
watsap
investi
sobek
##orge
standart
mahh
taulah
tawakal
skornya
audi
##jjj
optimal
frontal
##fest2019
rencanakan
resepnya
personil
sleeping
beha
aurel
fahriham
ruben
##reditasi
suntikan
awokawok
cfd
galaunya
dibatalkan
anonim
pertigaan
ngegalauin
dibarengi
astraz
suicide
sependapat
ngliat
dinyinyir
zionis
suddenly
genggaman
birojomblo
pregn
fahrihamzah
bx
fw
gps
hek
hint
izz
k3
ladi
mia
rong
tangkep
yix
yellow
##eong
##radi
##yn
##yor
##wkw
##pos
##pilih
##pula
##mum
##lb
##jja
##1juni
##750
##asuka
searah
sechan
kejur
##elain
digo
##urnya
##irez
##ilni
ngonser
##umuskan
##umbu
##idmat
terisi
menindak
guwe
##ebus
##eboh
semwa
semog
baji
##bay
menganggu
mengejut
mengampuni
bana
##edu
sekret
pras
nyisa
suck
suwe
melemp
pemuk
kemaleman
envir
takuti
sesal
##acunan
tetibe
sedotan
bersedekah
dikond
ditujukan
ngerap
indikasi
twet
mendalami
dirmh
lamaa
usulan
##embet
diplom
##ijinin
dilanda
##iiw
koncoku
groc
dipertahanin
komit
##estine
novi
andil
mate
theater
bapp
##kks
pesugihan
##0000
mbek
stroke
maruah
bergetar
hujatan
kejriwal
##plan
##ppo
jualin
patokan
tegakkan
##sport
genk
jatin
harapanku
##ajaranislam
lelahnya
phil
potter
output
subuhan
##audaraan
hueh
tabu
x1official
rm1
natap
kotok
watching
##uyghur
bonyok
perjuanganmu
nonstop
artian
assalam
university
knows
ngetiknya
ep5
tumbenan
asapnya
pemberdayaan
modelnya
gasiap
delapan
breakfast
##later
diteruskan
merdu
##enjot
300rb
penontonnya
decision
menyertai
roommate
dianggurin
##embunyiin
disekitarmu
cenut
dunianya
dugun
diladenin
##music
menerimamu
gencatan
obsession
##junior
zahra
diumumkan
produsen
kristus
penganut
nyamannya
##pancasila1juni
kepulauan
##esthetic
freelance
klasemen
teraniaya
brantem
sutradara
berkontribusi
almarhum
adventure
pihaknya
jurnalis
penjuru
mencobanya
insight
##moveon
harlahpancasila1juni
gelasantigasaudara
##opensuper
perkhidmatan
##ilnias2019
69
aim
dikan
dud
hshs
ilove
laf
mdo
ragam
rowoon
sgn
tung
tongk
yust
##eut
##rl
##daran
##ganti
##lunya
##83
##akep
##adow
##elaka
##usic
diedit
##esai
inj
##ilikan
ngik
ngul
ngepas
menawan
##ebaya
memecah
##ott
gaktau
kerena
kelautan
penguji
kemayoran
siomay
looo
##opia
pasta
##obak
jam2
dibungkus
kepiting
bersambung
ditek
dituju
menyemp
mania
20an
aborsi
diragukan
terlemah
dipam
dipungkiri
smaa
plongo
kook
rakaat
diperd
##1924
kekirim
kekesalan
kekacauan
anjirt
kedip
parta
parent
negara2
ambruk
##eriakin
pesek
bispak
haik
heeseung
inget2
digubris
##jiwasraya
korsel
##ejer
##grab
sdng
scen
tertindas
tegaknya
##ensor
##uguran
150k
##raktir
bnda
malaysian
ngehubungin
imposs
suster
menangislah
ngedown
nikmatilah
lokasinya
gmau
##efully
tmsd
rokoknya
hanat
syaitan
redacted
rahsia
kualitasnya
audrey
rajabot
teknisi
sellernya
kesiapa
decide
kekasihnya
distribusi
personality
karenamu
dikelola
jangn
embel2
iqbal
##depok
hahahhaha
keyword
kuharap
##5f955
jenguk
##alokarnav
skuad
gorontalokarnav
satukanrasa
samudera
graciajkt48
diturutin
##lipse
berekspresi
azzam
kinclong
2215f955
buaran
byungchan
commerce
alfusoftmedia
myazaria
x1official101
gorontalokarnavalk
dya
juru
lung
muna
pump
woman
yum
zoro
##ruh
##kai
##tak
##dil
##nest
##bc
##leg
##vee
##vcs
##alh
##amon
##amasuk
##asp
##unyah
digabung
##urau
##eteksi
##irakyat
perund
gabawa
menstr
##oker
##okrat
##eba
semraw
unblock
##arawo
##endum
##edain
belit
keracunan
merta
tanamkan
bangettttt
membusuk
tros
##anduk
kuad
disediakan
kebuang
station
##obe
pernahkah
##acher
##anggaran
lies
lifest
bersepeda
##indanah
ditol
ditiru
blbi
selesai2
setitik
mujah
magnet
minna
mou
samakan
usakti
kroni
react
dimalam
pertik
katakat
ayen
tersirat
split
oliv
truss
pembuka
pembangkang
jauhilah
##undupin
bisang
persaudaraan
##ajajan
ramenya
suport
digun
digembok
dosaku
kemanaindanah
pusingnya
cape2
kantoi
crop
dinamis
mantanku
hyoyeon
##week
##spirulina
##kahi
jodohmu
##elling
basuki
malasnya
bisnisnya
fanfic
fanchant
##soal
tabut
kerjaseru
pinterest
by9
raport
cikal
bangkai
hikss
##bster
aslii
showcase
ngaceng
yui
##field
zonajajan
starling
##ologis
difitnah
range
bahagiaku
bapack
300k
menuai
degdeg
##provokasi
victon
cimahi
jengkol
rubber
tahukahkamu
ceritaku
nyempetin
nauzubillah
membesaskan
rendr
doesn
mengatasinya
memadai
gogon
kaisoo
##4rk
demokrat
honestly
americano
secuil
##engkalai
##oftheday
plered
menyisakan
michael
memasukkan
bereaksi
basmalah
srimulat
terpejam
pembahasannya
gorontalokarnavalkarawo
kemanaindanahajinya
2beer
66
73
dum
fort
het
juse
madiun
nembus
ox
pph
ragi
rif
tkn
wth
##iasi
##dl
##mobil
##gur
##loth
##07
##fans
##fashion
##anikan
##isen
##ukn
##adesa
ino
berim
berpac
ngarang
perli
##oral
answ
saingannya
ludes
karangan
karokean
##riya
##rigger
keten
memburuk
trakhir
pemir
sigh
siji
kuj
anjuran
##obun
##ekaan
thesis
isih
isyarat
jalanmu
puls
##ituistimewa
seganteng
samyang
smh
small
dilingk
memberanikan
berbobot
kekadang
terbes
terbengkalai
libatkan
bergum
pikirnya
##ilanak
satelit
gelo
woiiii
ndiri
monopoli
benda2
pencurian
allstar
impul
##manis
momo
##engganu
##ybody
nuest
janjiin
donordarah
pamerin
tsub
responden
laptopnya
bhsi
##coin
mirip2
mengurusi
kane
##ektak
linked
##upayakan
gembor
showcon
regul
fotograf
ipb
29e
ngetes
diselenggarakan
jambu
early
bimbing
booked
lukaku
behind
sugih
lumba
##sukamahi
stadium
periodik
expert
diawasi
merangkai
npwp
##kurikulum
dramatwitter
nsfw
vitaline
bekerjasama
shampoo
pancasilamasuk
imperfectbeauty
fantasy
barkahsukamahi
yixing
pancasilamasukkurikulum
aesthetic
dadar
ieq
jitu
mistis
omn
ruma
tone
tsk
##yl
##yatan
##seng
##hol
##teluk
##dani
##pod
##body
##gini
##likan
##2n
##fh
##fand
##xe
##778
##anangkan
##atama
keego
##adol
##aduan
dialihkan
##etah
##ilink
ngungsi
terengganu
menelan
menkeu
aneka
##ebes
baiq
mengis
##edug
banged
luwih
algor
merasuki
nyiptain
suz
emery
sebungkus
membat
membelah
trf
lobster
##andak
##muda
bahannya
sedep
##anjal
thun
adlah
bersua
##afm
shinta
mencarut
pose
dire
##ilaan
repack
pagiii
##embira
dipas
seperlunya
dilaporin
jail
katolik
youth
##istry
upin
daan
umrah
jeje
gapengen
kekeuh
berdekatan
##oyou
berlama
##ulitkan
dihal
memperker
persebaya
hapuskan
jeles
comedy
125
mamavote
tekst
##emberut
amanat
liburankej
kapag
accident
sunset
partnya
penghormatan
pamitan
maksudku
kenduri
##fatih
pt3
puber
tercantik
irama
alamak
chanbaek
penjarakan
hayati
##uuuuuuuu
kesederhana
kwkw
500rb
gesa
disekit
##ogjaituistimewa
yhaa
coli
gurau
middle
turis
membalasnya
pemiliknya
ciri2
dzolim
rayle
menginspirasi
menpora
tembakau
dwp
meluapkan
pokeronline
cherry
spesies
diumumin
werner
multitas
kf94
sherlock
luthor
gowes
yalord
melindungimu
drakoran
penangkapan
pertarungan
kekosongan
pindahibukotauntuksiapa
astrazeneca
dinyinyirin
ladies
##irezim
impossible
##telukambon
liburankejogjaituistimewa
4th
boo
c0
dpat
dort
dangkal
fab
gea
jia
lid
linc
ntt
nimbang
neduh
reh
sdah
xnak
yupi
##sasa
##side
##hop
##lanjut
##1t
##1101
##53
##ankan
##att
##asuh
##ap2
kedah
keutuhan
##adwal
##adane
##iton
##onment
aktr
beralasan
##ule
##utuh
teruji
pernh
gaza
oras
##imba
samain
##asailnias2019
##epasan
mengar
mengunjungi
mengartikan
sekil
along
pramb
kardigan
buatnya
makenya
pengumpulan
pengamen
seberang
kemkominfo
penah
liqu
doub
dibersihin
##ecanda
isin
iseh
dikta
dikota
##eey
##indones
ditusuk
menyindir
saka
minhyun
minkyu
lamaaa
kecuri
##chron
##ngn
##ijat
dilip
grogi
sepem
##amatin
membuatkan
ahelah
sksks
kho
khalifah
pdkng
cewek2
didpn
pesakit
benarkah
opm
klan
berger
bergurau
omset
kagok
bott
ngebangun
rais
jumanji
cmiiw
puzzle
yakinkan
dijodoh
nduwe
110
edaran
alig
tutupin
mamake
sunny
goods
terdampak
ngeluhnya
sorenya
munir
respond
nulisnya
bknnya
nasibnya
galian
ninu
160
backstage
dsini
romant
##udahi
lakik
nerusin
pesonasailnias2019
cicil
disekel
##lukkan
colok
bahagialah
recehan
nyeleneh
gugat
pupus
diselamatkan
##leset
jungmo
dzikir
##eldzik
bravo
dikumpulkannya
forex
patient
westand
dinotice
animasi
##lomerat
jiwamu
thoughts
takpayah
lensa
presentation
rambu
memadamkan
khatam
##struksikan
clue
xixixixi
permasalahannya
dinamika
distributorresmimasker
minjemin
diumpetin
azzameldzik
azzameldzikrie
372
3bulan
ao
ebook
gho
jgan
lomp
mee
nemen
nmax
oom
pomp
siku
tmi
walah
wots
zal
##warah
##dand
##jp
##jir
##cerdas
##enuhan
##anguskan
##yaaa
dial
diungkapin
##etes
##esraan
ngu
ngembang
ngapus
##umit
##utes
##oloh
masup
annye
##agat
##ongnya
memudar
apaansih
##ep1
mengomentari
mengijinkan
kalib
pric
##antine
making
nyaranin
temper
janganhanya
##pert
sebb
##alive
kenapaaa
dibagian
dibanggain
ditang
menyudutkan
gimanaaa
muli
mulfand
##ansantuy
brh
breat
angke
oned
sepantas
buj
gabungan
dipermasalahkan
##amater
spurs
dekil
timnya
duniabijak
wkwkkwk
sedihmu
kekebalan
berdampingan
khal
improv
suke
infeksi
heys
menggambar
estim
istirah
gedenya
##engkel
bby
cepat2
riuh
pekalongan
sume
membazir
clas
sosis
engko
bawahnya
hahha
latte
dprmand
astagaaaa
##hield
##endery
##adzim
scrub
semeny
wks
berakal
dompleng
becak
gusipul
manaa
mulainya
tipikor
mksh
##amahin
guysss
starship
tomat
##bilitas
becandain
meneteskan
##evaluasi
##putra
bwf
laporkan
anjerr
finance
talking
diprotes
triple
dipelihara
aisyah
anxious
##jatim
hehehehehe
validasi
##gantirezim
pangandaran
ryujin
strangers
dolar
woles
120k
pokerindonesia
episodenya
martin
diblg
##unikasikan
keceplosan
roleplay
kepagian
memunculkan
girang
throwback
mendewasakan
##opensuper750
ieq1101
membatalkan
rayleigh
distributorresmimaskerspirulina
janganhanyagantirezim
dprmandul
ieq1101b
2b
81
boga
dup
dahan
fish
gik
nump
rini
susi
wetan
wooo
xnk
##reg
##ratan
##wash
##ouse
##takan
##nr
##pg
##pangan
##malukan
##malaya
##bol
##gantis
##4n
##cape
##aliti
kehat
##isin
##emate
aksara
ngor
perab
menempel
anyar
memukul
jujutsu
sels
##epotan
##osna
gakk
##abang
bipang
nyebat
suu
ema
emb
membalik
lohhh
apd
apar
##opan
##oplanet
amet
disita
kepilih
makan2
dikurangin
negaraku
##afi
ditempuh
ikaw
2023
drmh
pull
##lex
usha
##chara
##chain
plk
plsss
sakit2
##ijikan
menghangat
menghadang
berkira
pintas
olimpi
10jt
berbuka
twitcak
kekec
teluk
exist
kabulkan
didenda
##sesi
bisalah
dihentikan
strim
jgn2
bosku
followernya
panduan
digantikan
tanggepin
terputus
sokongan
salf
medical
kerjaanku
tokonya
sabarin
sumuk
115
pete
tujuanmu
round
statistika
superjunior
sneak
asiknya
remot
celcom
celebr
bacotansantuy
relay
mutuals
kawannya
kynya
ngeganggu
penjelasannya
ngescroll
backsound
dukcapil
##10s
grabwhe
berakhl
##eksinya
domestik
000z
lagipula
includ
nelayan
kwkwkw
icon
ipin
ngrokok
makasiii
##moon
ketidakm
bibirnya
bkal
perpust
linjur
ggmu
ubur
membuktikannya
nampol
guling2
trouble
anjingggg
membagikan
misterius
penjajahan
sterling
mangkel
##alokasikan
mxc
kwave2019
sholawat
punyalah
process
ngontrak
politic
henteu
kesenian
seabrek
##kumham
dikepala
tafsir
##zolimi
ronaldo
sepengetahuan
pelacur
ngedapetin
environment
jatinegara
kecurigaan
bkk
dustakan
ehhhh
jama
mj
muar
mund
oala
pbdjarum
tis
till
zuz
##sb
##hani
##kata
##cam
##aking
##amenya
##apuskan
keun
##ukk
##ukakan
diizinin
akoh
akumah
##etika
##iraman
berir
ngarah
##ulangan
##ekal
gacha
##oru
##ebag
##ometer
##bacot
##ently
mengukur
kali
##abal
sekurang
prilaku
bari
kelima
kelanjut
##tub
penget
pengajuan
sebucin
disosmed
anjin
##ontang
serendah
halusinasi
diblok
##antiajaranislam
mencret
segiti
susahkan
dipub
smng
capee
awat
brows
grat
menghemat
dufan
bagasi
##empur
kakiku
ummi
musa
berdetak
kharis
tinggalkanlah
ambing
didikan
panel
hehee
secapek
ult
datanglah
mengger
menggemaskan
slamat
slesai
esm
mcmn
cuak
raono
penyiraman
insp
sctv
rebo
instant
peti
pov
wahana
dahi
naras
lampau
ngehindar
mragil
##yuz
##eritaan
angkuh
joe
logam
jajanin
staycation
belanjawan
subuh2
setidak
##ebarhoa
##ault
pergunakan
##incer
hidden
results
nafasku
##rrrrrr
##idikorupsi
arghh
##agonis
##ield
##aaahhh
sepatunya
changbin
selangit
srius
ginii
lady
jedug
uripku
billboard
komentator
aquarius
announcement
##asingkan
##semarang
ritwit
##malaysia
ekstrim
disiapin
pelembab
sesetengah
ganyangka
odetoyou
liptint
desperate
lifestyle
sepemikiran
annyeong
##gantisistem
kehatimu
3d
89
aam
cj
canti
cemberut
dadang
detak
hulu
kutub
mangkat
mola
rice
sare
tac
wek
##kara
##tw
##tin
##pcs
##got
##lup
##lee
##fotr
##code
##xh
##anh
##enaknya
##aly
kean
##emuan
##elle
##ilap
ngko
terapin
termen
##ekalan
##tional
sail
sach
bajo
memihak
##eglang
##abrak
bella
makass
nyamain
kesandung
kesuburan
succ
sebadan
##ajan
encore
asah
sukaa
##anjel
dibumi
bersumber
dikalahkan
dikaji
dikhawat
arian
setakut
minusnya
kecolongan
dipatuhi
ehem
##paign
age
bros
baginda
sprt
noona
ajasih
pergi2
mataram
bertempat
kedekatan
pendosa
pesannya
infol
straw
lewatkan
utd
carpet
1998
tangani
kerasukan
murce
##minfotr
taruhan
climax
pcas
dahil
##izinan
mndi
bacotin
komen2
risma
metab
seungyul
broad
kolor
tandain
memikirkanmu
hahahahahh
rasaku
hadirnya
derma
##anfaatan
2007
2006
hikmat
somay
calonkan
lalulintas
dianterin
nangkring
laaah
reguler
belaga
ganjel
perbedaannya
tuntunan
caca
istiadat
bebaskanl
sentosa
perpecahan
llminfotr
eyelin
kehadirannya
taylor
behel
menginstruksikan
klakson2
kafein
important
pojokmoveon
##umbuhkan
cimol
kepemilikan
konteksnya
sihhhh
figur
biayanya
dipindahin
ataukah
paksain
##egiatan
usianya
windows
pengabdian
mekanisme
kelayakan
##esuaian
keputusannya
##ipalestina
diboongin
imigrasi
##berduka
dikemudian
khilafahsolusipalestina
##wins10s
histeris
keegoisan
kesederhanaan
olimpiade
llminfotrafik
bam
borang
cena
daud
d4rk
eaa
fank
gut
gita
jfc
kbs
laksana
rombak
syak
tampa
tiru
ude
veteran
wok
xda
zumba
##ear
##rist
##yas
##sak
##negeri
##link
##1b
##cek
keunggulan
##adhan
##itzy
##elasi
diver
diungkit
##irrahim
##ilasi
berik
beracun
berinvestasi
ngakuin
akuuuu
anas
anind
##ebang
saiz
##ong2
takjub
memuncak
unfaedah
unmood
##egat
diaorang
bangka
kalii
##abik
karina
kelebih
nyewa
sudh
suaraku
suggest
haruslah
##odai
##enaan
pemimp
kemun
enih
approv
##amber
kucinta
kuesi
diseg
asuma
asline
stal
##oboyo
sesabar
dibonceng
kepalamu
isac
ditanyakan
ditingkatkan
ditepati
sakjane
direbut
pastiin
akhir²
dipuk
pemerintahnya
ago
sampaigantisistem
protein
rakus
##saja
##jaka
memberiku
spider
spektak
twittbot
umobile
acu
sebenci
##aksono
berdebu
matur
parlemen
ulet
##dio
bergembira
ingetnya
digoreng
##ahasas
desc
ganti2
elakkan
riang
dinyal
betulkan
betullah
jelek2
gasik
gedean
click
genpi
celsi
kiy
kenderaan
mentionan
terganti
lingkungannya
pukulan
nyanyi2
geo
milea
gaiso
binasa
instagramdown
afk
campaign
gebuk
inggrisnya
##owochallenge
sims
sensitive
##oooooooo
miras
melepaskannya
caffe
yuvin
menyeluruh
##uthfi
refleks
micr
minimum
valent
sheeran
fangirlingan
hhhhhhh
cases
mhs
kemasukan
febri
smgt
diakun
expos
huftt
rempit
ngusik
scammer
berkhianat
jimat
disukain
##alifikasi
sohib
adopsi
##golkar
learning
gimmick
equip
logic
gallery
sbelum
semarakfestmorotai2019
tatanan
lysn
aow
aish
bow
c19
d4
dudu
gess
ica
jfff
lew
mest
ness
situlah
tti
tint
ttt
vampir
wiba
wafat
##rum
##solusi
##genya
##gto
##loh
##lingk
##er2
##arsa
##alala
dipagi
##urahkan
##irt
beradu
##ihati
terangan
perhari
##ekut
menampakkan
menuntaskan
danc
danur
takagi
##aiz
selaras
##otbah
uno
unse
kamuu
meroyan
##antaran
kaitan
nyek
##alucu
ketenaran
membolak
lobi
display
anjenk
##activ
male
##kuy
adakan
dibujuk
bersep
bersalin
berhembus
##hatin
abstrak
arsip
muj
smpi
toleran
agk
jelasinnya
ngelirik
ngelatih
pinalti
membership
tainya
10x
##reet
sadboy
sedihh
skept
buka2
coba2
pdg
terbebas
dejun
##ief
hao
franda
slim
pandeglang
carut
bottom
botardy
antum
otakmu
salto
tweeter
dekatkan
videoin
dines
##ertiban
hamas
wood
gereg
pota
gede2
shoppe
pribahasas
mulutku
sebelahnya
setengah2
biro
bisnismu
tergolong
bahasannya
fitrah
reading
lawas
hayoo
pipinya
gendeng
friendzone
regi
##jdorama
ipm
ngetok
##raflow
bilas
hopefully
cobak
quotesjdorama
woooy
nobody
##255
rencan
cutting
folback
gondok
gramed
sensei
reformas
raffi
bikos
tntng
muhyiddin
engaging
##a2d5
kaitannya
mencakup
kebalikannya
kerakyatan
ditiadakan
nexmedia
##jawatan
airlangga
fajri
juventus
pregnant
dipamerin
estimasi
menghangatkan
perpustakaan
zuzur
segitiga
d4rkbot
pribahasasunda
quotesjdoramagto
anya
bisi
cnn
ewe
ebel
famb
hendery
kbb
m3
mtu
mimi
nata
pwt
ssh
suna
vik
wtt
xium
##yem
##kemenpar
##too
##pul
##lw
##4l
##cil
##eret
##akw
##akkkk
##atohin
sejadi
##iseng
##emes
##elai
##used
akang
ngah
ngontrol
##utannya
##agh
hare
bayu
##aiannya
memaknai
uny
##araali
##iannya
mengkom
banter
ketamp
ketomb
trl
trash
melebar
kemasan
apologizet
asasi
sesengg
seseru
##ontol
##acc
adala
dibes
ingus
##hhs
cousin
dikunjungi
soeh
ditendang
##ipulasi
indeks
arist
mendong
##ifer
minang
##kers
kecewanya
kriminalisasi
##jurus
##alayak
diprak
cerpen
konter
grade
buil
##ciuman
komida
##estarikan
ahl
dekati
daur
sehati
knetz
tempat2
polah
otor
##ffle
transformasi
##trad
ilangan
##ombol
didorong
##aaaaan
##aaaaah
bergadang
gago
replay
jokowid
cman
##engkapnya
tertampar
tbk
##union
kabarmu
isiin
contraflow
nominasi
rookie
##anyw
maenan
fave
kampusku
celengan
merahnya
nomornya
gmbr
bhwa
hahahahahahahaha
kmrn2
##ilingmu
keinginanku
aminnn
tasya
tipsnya
wkwkwkwkwkw
ati2
sepaket
##gawati
bibirmu
sexual
leading
manajer
teman2ku
cuplikan
rental
merindukannya
selebtwit
##areth
nyebutin
nmr
rempah
rempong
085221
millenialcerdas
condition
##eselamatan
harimaumalaya
disepak
##ludak
kunto
menyalurkan
diperkosa
nazar
linglung
peluangusahaonline
quarantine
alpha
hartosna
ketegasan
gebetannya
biasane
vincenzo
jokowikebut
bappebti
omnibus
heysaraali
eyeliner
kelebihannya
kuesioner
##a2d527
ebelia
xiumin
2m
68
cung
cengk
daha
gani
gyul
iyakan
lanj
lukai
ringgit
t4
town
ueki
##suh
##aang
##pedek
##mya
##badan
##fak
##fams
##enamnya
##apenari
##ikn
##itma
##emia
##usun
##usmi
diolah
akreditasi
##engok
##ility
ngol
termudah
menke
##ungnya
##ungans
##dahulukan
taks
memasang
memimpikan
##asaya
bantah
##eding
luangkan
##abuk
prel
keneh
kelarnya
nyender
pengap
melarat
melempar
enk
nipis
lou
amrik
##idupin
thresh
kepancing
seniman
nakak
soan
dito
ditemui
menyulitkan
manakah
ngerantau
dirilis
##uhanan
moyun
##asihati
kecoh
baka
bakwan
dipantau
toler
bebannya
setimp
sayangkan
onew
sekalii
button
menghin
komuk
idr
##rei
##ingkari
tiap2
##integrasi
poli
resid
telef
transf
##erson
persimpangan
oma
##masin
mandiin
tengahnya
##ramadhan
modi
lebak
gampangnya
##emenkeu
##ordanyw
mondar
mentalku
##bumn
tutupi
##eeeeh
cakepnya
nuca
janin
##wibawa
sarannya
dosenku
feelings
lembu
fach
justice
tandagagal
juniordanyw
gemesh
boyband
penyakitnya
intoleransi
kkndes
##rated
dreams
sulsel
everytime
##iyain
fotoku
##661
sungmin
sambatan
deden
punk
holy
jabatannya
ditempatkan
penginapan
pemenangnya
individual
thriller
cupang
almamater
mengajarkanku
cinema
sdgkan
loves
##ahasiswab
elektrik
prabow
crying
taraf
##zhab
gombalan
locals
meminjam
wallet
rhesus
ikatancintaep290
fastr
jhope
ruko
##eteam
ygent
ngusir
pesonafesttelukambon
berekspetasi
wassap
wassalam
ditabung
obsesi
pste
##jubkan
hansol
foundation
pfizer
cingkrang
##embagaan
katakata
nunggunya
im3oor
negeriku
cawapresnya
pondasi
didatengin
memulihkan
fizikal
rahasianya
jasmani
wqwqwq
aktingnya
petualangan
syndrome
memanglah
sgni
liquid
lompatan
ditangisi
salfok
equipment
jokowikebutjoglosemar
##pedekate
threshold
tandagagalpedekate
pesonafesttelukambon2019
1jam
b4
jorr
kij
lor
lulu
mian
mahat
megah
nany
oii
rani
rona
uki
ubi
vag
wort
wasting
##robot
##kuliah
##uuh
##gitu
##jsh
##zk
##300
##qh
##aktim
sean
##ads
##emer
##onor
##uritas
##aude
##esome
inu
berarg
##id2
##idih
##idor
perit
perannya
perput
perantara
menik
menimp
annya
##ebol
##isab
seme
memfitnah
##upkan
##arain
##enteng
mengi
mengundur
##abur
##abisi
kerang
keringan
##antum
##asiakan
kelopak
bgni
##percaya
embat
sebebas
##ajang
kemalangan
apahal
##juga
baharu
##nyah
##ecehkan
kepint
##afc
##afikan
menyambung
manjain
abd
##ices
direncanakan
samas
samasama
##chool
captain
awalan
chi
jujurly
broke
menghayal
buc
ayul
spidol
england
##ingkatnya
mesej
betawi
kekuat
kekeny
berdusta
selamatpagi
pare
terbagi
kabari
##osial
berlapis
hadapin
infogen
oplas
menggiring
##ykat
tikt
digar
semuanyaa
##arenya
##areness
terpendam
##gres
medium
pejalan
menangin
joglosemar
ngobatin
edgy
pgnnya
clay
rujak
genta
general
kapeteam
fever
udh
budal
remidi
dibuatin
terjerat
avatar
related
aeon
logat
meteor
feelnya
shining
1442
##cover
gaisss
etnis
bintan
fandomnya
##232
levelnya
madam
ngadem
lajang
durjana
takdirnya
##shshsh
29a2d527
tolakru
dcf
ngetem
dket
laporannya
yawlah
syariahkaffah
pemerataan
mencerna
##mmmmm
cantumin
sriwijaya
lambang
pengaruhnya
jihyo
ngereply
trisaktim
seberuntung
package
dipenjarakan
perfom
wonderfulgrab
santainya
diturunin
yayasan
ketimpangan
mnjdi
ngirimin
##andongjogja
photobook
ngumumin
semrawut
bhsieps
fankit
sesenggukan
soeharto
kkndesapenari
trisaktimebel
wonderfulgrabandongjogja
2jt
3jam
bomi
hln
kst
nop
nina
nani
numbuh
rik
ronta
silang
susan
tender
utar
uae
wn
wabak
##yono
##sr
##sun
##song
##sari
##ias
##iit
##kp
##ners
##panda
##500
##qn
##atanya
##asal
##asul
##isap
##isim
##ukir
##add
##emak
dion
##engers
##irakan
beraksi
beruntun
ngi
ngape
menumbuhkan
##agor
##imun
tapiiii
semampu
saji
selembar
##epal
mengamuk
mengamankan
sekumpulan
kelemb
bget
pengirim
pengerahan
##ibisa
##ibadi
sebrang
##atane
tranding
ameen
penyum
penolong
kerjaanya
liur
sedot
adrian
kepleset
##elahi
isine
dikubur
manyun
dry
shay
##ahahha
waro
usil
gimana2
bakul
##cher
dimimpi
konkr
sepenting
sepaham
kesehatanmu
buahan
berkoar
berkegiatan
##jakpus
##uuun
memberes
taurus
dayaku
enggk
actor
skang
duitku
tengil
khalayak
bathil
ngaruhnya
##unty
puso
didzalimi
##aaaaaaaaa
klos
persemb
dicanangkan
kontaknya
bosnya
weibo
utek
terhebat
filant
bbc
president
ceker
terakhirnya
sore2
##quin
sarut
ktk
lampard
mempedulikan
##olakn
udaranya
kuduga
tulusnya
miliknya
jasad
artis2
kisahnya
sebulanan
##ibahasa
menyakitiku
wkkwk
camkan
gebu
defend
scroll2
tandas
nanaman
bocah2
stick
ditutupi
berkembangnya
penerus
pesonasam
##labla
##salim
karaa
bantul
##whw
pijatpanggilan
tidoq
kidquotes
nadin
visit
perpindahan
disayangkan
kompetensi
persibjuara
mengkonsumsi
cengengesan
pulihkan
kapolda
energykat
ferdy
ketekunan
snmptn
ngewar
ootd
dijajah
kecepetan
menemanimu
evilbot
ditukar
ngeributin
arthur
fantasi
meluncur
##angayoalasfest
cianjur
ngancem
academy
##ipooll
presidential
multitasking
istirahatnya
regional
setimpal
##ahasiswabersatu
ayulicious
kekenyangan
infogenwan
pesonasamangayoalasfest
energykatadata2021
79
civ
came
cinc
carane
dink
gulu
jot
jones
kadi
nul
niaga
pist
ugha
vv
wara
yos
zikir
zinc
##rm
##scare
##iyah
##dor
##ax
##malang
##bpa
##gul
##lil
##larang
##f6
##fun
##880
##anamkan
##eno
##alar
##apal
teratasi
pera
gain
##agum
##ebah
juanda
##baikin
##otasi
##otweet
banned
bangganya
##abad
pren
##anaan
##ukaindonesia
##riv
bench
##dayakan
nyediain
bgm
pakat
melaju
meluruskan
kemane
kemusuhan
##ops
penye
kerjaa
kuu
terusin
##ubit
halooo
adoi
senar
ditjen
##asilitasi
##akuasi
allahumma
posthink
kasus2
usual
kecer
akhirny
kata2nya
beber
dilangit
sampai2
katalog
##reunion
itin
itik
ujaran
kekej
tempatmu
twitterreceh
terbongkar
negaragag
berlipat
kuatin
panadol
benar²
sumpahin
option
##allindung
klim
klise
marc
menjijikan
omel
serigala
tanggerang
cuz
ngebunuh
##faat
lebur
dokumentasi
contin
hiyah
sarw
menyap
bercampur
##aann
nugg
ibukku
penggerak
relakan
kawinan
handal
bangkitlah
task
deadlinenya
mirac
melepasmu
srg
caesar
##unyam
melayan
nerobos
##ssssssss
writer
##ichil
ukurannya
##amalukud
almet
plotnya
sonor
ngapasi
tamak
jendral
eeeh
gempamalukud
##illaah
choose
syahwat
citilink
##dikbud
##eduliin
graduation
ricis
##xbpa
##685
spekta
##cheol
##udhoy
lpj
disesuaikan
padalarang
##vaksinasi
adopt
mengetuk
didapet
banjarmasin
##ledge
stmmahasiswabersatu
terooos
perilakunya
development
menyanyikan
##rahmanirrahim
observasi
yustisi
katakatak
digunain
metabol
reformasidikorupsi
menkeusmi
sarutobi
infogenwanipooll
negaragagallindung
gempamalukudukaindonesia
negaragagallindungirakyat
baling
faf
gegar
jip
jera
nanyak
nish
rian
tangkis
vul
##sand
##surabaya
##sible
##aar
##mod
##bikin
##bakar
##last
##2i
##fmn
##cantik
##3b
##akno
##inho
##arjo
##atangani
##asti
inikan
ngpain
##idara
pern
##ektan
menunjang
akuin
##iment
##omend
##otolakn
mazhab
##uaan
sekilo
alisnya
prin
karier
##rive
maker
##uluan
meluas
melamun
kasat
tps
##awards
##obek
seramai
liye
jamur
doinya
thohir
adus
##eceh
##eclipse
diksi
menyamakan
shower
shihab
direkam
minutes
kresek
dipad
dipengaruhi
awareness
chung
##patch
##angsit
##angisin
grey
berbelanja
kmutiara
okes
kekumpul
polbek
polutif
jauhan
bertele
khamis
deept
gamood
dicaci
dicopot
habis2
boongin
maria
kecilku
##yeye
##masalahin
##anday
kagungan
kpu
repres
mcam
terheran
penyebar
penyiksaan
saleh
salib
salary
satur
beratus
crowd
tekor
gasanggup
gasengaja
poinnya
genangan
pribadinya
pokoke
bangsatt
kaco
sorangan
saying
terjer
rm10
kotanya
pilgub
##ige
baygon
denpasar
syafr
##kkkkkkk
ekspl
jaktim
jakpus
##woak
##jdj
seketat
sungchan
mingguku
ntaran
ikatancintaep304
lesen
##sksks
lowkey
punye
##enius
pijatjakarta
penampilannya
##bersam
##exo
hoaxbpa
hidungnya
piket
ngekost
sentul
sipit
himalaya
syariahpasti
ternama
kelapangan
##solutif
hisap
penyabar
##nkri
verified
##bukansolutif
rangkuman
widya
bdmd
blogger
mixlr
kmn2
got7official
ocehan
dinaikin
director
gumoh
synchron
ternyta
mengamalkan
developer
denmarkopensuper750
kesenengan
##price
lvl
homesick
gibran
persekusi
bentukannya
komoditas
jewel
kuberikan
priority
berandadesa
mujahid
answer
kelanjutannya
browsing
cenayang
spektakuler
##solusiindonesia
prabowotolakn
syariahkaffahsolusiindonesia
membereskannya
polutifbukansolutif
syariahpastiberkah
prabowotolakngaji
63
67
7fc
999
aju
cuss
dow
ewh
ecan
hsh
hindar
jol
jib
jac
jangk
kq
nian
nub
ningkat
nite
pix
vr
wana
yk
##kamil
##tang
##dha
##paham
##map
##mun
##bohong
##liter
##4ever
##3t
##anabi
##erus
seaf
##apang
kezel
##etep
berempat
berangkatnya
##utik
perhi
perizinan
guan
##uhannya
takot
memaaf
##asaannya
##adaikan
gakbisa
##entok
menginginkannya
##egeh
banyk
kale
kaliya
prfmn
##rier
kesengs
suit
pengemb
sebak
trk
melodi
pemanfaatan
kemdikbud
ampir
##uary
steak
duluuu
liyane
dibungkam
coxe
dikuc
##eeer
blk
mende
mencamp
##icilan
segudang
##kerja
##apanan
kro
krupuk
reff
smash
menghubung
raksasa
dipercepat
##istri
kom11
idenya
noah
noda
syp
pemberitaan
niki
parenting
bingit
berpengh
males2an
ulit
ultra
informat
memperluas
bega
fotocopy
boi
jadual
buriq
dmnya
##akeun
suri
pein
pegawa
tekun
moder
sumbawa
doktrin
lancau
promonya
##ahuinya
##otaan
rambutku
partisipasi
kiasan
permain
permusuhan
aqs
totebag
kerjaku
umumin
gmareth
george
kutunggu
pmk
##102
starting
ekspekt
##eluargaan
wehhh
someday
##ektembok
ngaku2
redman
ppv
diantar
tebang
fotok
ngambang
prioritasnya
bekasnya
puro
##gabutan
karaokean
##70daf
powerful
blacklist
##kesini
diterapin
imanmu
proporsi
ngeteh
nyelundupin
##forum
keselamatanmu
pelajarilah
nampar
disusun
orient
##aaann
dimasukkan
pendukungnya
##agakerjaan
gubris
082134
jongdae
mengabdi
membenahi
daiping
http
steril
inovatif
manipul
##alimantan
kuntilanak
immunity
menyalak
mengarahkan
maemunah
digantungin
dandhy
activity
ridwankamil
chemistry
##gesektembok
kesemutan
penthouse3ep1
merosot
ngbrol
ynwa
perintilan
berjilbab
gesekgesektembok
issues
diyakini
sepertiku
dikodein
bergumam
berandadesaid
7fc70daf
prfmnews
informatika
gmarethaaaaa
64
clo
cgk
ei
gmm
gantik
hain
hiii
kwang
nid
nemb
nepi
ssk
yy
##kali
##nun
##pahati
##bogor
##51
##inari
##arma
##aput
##isss
akta
##engsi
ngumbar
pered
menkes
ortuku
yach
anat
##aget
semanis
saver
##otcom
unesco
gakmau
##endar
##egri
##abisa
guaaa
nyangk
temuan
penguatan
sebal
##inggalan
tracing
##sic
six
baruu
##opsi
tuw
tuo
disem
disiksa
pasai
hidupsehat
coaster
dikuatkan
dikorupsi
jalankesini
ditolong
menyet
drink
wkwwk
##unggg
ward
kurleb
dimari
dimasak
awasi
dilamar
agamamu
dongggg
dongkol
sekaliii
butut
sepotong
diperl
##ollllll
duel
berkenalan
ngelak
##angsungkan
memberantas
memberkati
ahn
sedih2
kekeluargaan
sebenrnya
pembatas
pendendam
dean
deidara
teen
marah²
didu
didekat
sblh
tugasmu
mboten
dicicil
booster
menjilat
##years
tikungan
kosongan
babik
ngebahagiain
koridor
##yout
terpakai
antik
jelema
comander
elang
insert
diamkan
peak
wisma
riweh
##sey
yakult
tekat
##ensive
senang2
maksut
cekik
##bbeee
##ories
monb
bangsul
hiu
kapital
##vies
1001
produktivitas
mnjd
ngecr
penghapus
celananya
##glory
tablet
kenangannya
kegilaan
##etakjawatan
cabaran
shino
##ombongkan
hotline
rabbi
dery
william
perguruan
ngepoin
pentol
legisl
balasannya
nyeseknya
ppkn
proklamat
targetnya
kopid
beruntungnya
prioritasin
ganchar
menyayangiku
iseng2
##xxx
26bbeee
sandaran
##polri
dpan
covernya
gurih
gigolo
foodpanda
pisces
welcom
bungkusnya
##oshop
penampilanmu
indomy
rupawan
##rokes
linu
wlw
lukis
royalti
sidak
leptop
tembakan
lambe
tanpanya
students
varia
duniamu
weight
penjawat
cetek
##notis
comberan
##bpom
mamamoo
menakjubkan
klopp
berkesempatan
ilahi
##isiplinan
perusaklingk
menganggur
kemenkesri
kemahalan
reproduk
dititipin
keretanya
dicurhatin
##udakancut
##818880
dirutgarudakancut
cikalong
sekililingmu
kekecilan
##ebarhoaxbpa
085221818880
millenialcerdasbali
##ungansebarhoaxbpa
keringanan
##ibisaapa
##685661
##udhoyono
syafruddin
seafood
082134685661
comanderz
proklamator
26bbeee9
perusaklingkungansebarhoaxbpa
3rd
4s
bwh
colo
eja
glo
gelasan
haul
kia
meb
mamat
nant
niru
oya
pawang
rand
rangga
tny
ucing
wm
yad
##eel
##rade
##sah
##hobby
##nudzon
##menc
##mode
##bad
##jaran
##cream
##alur
seon
##apasan
##ems
##using
##usur
##onegoro
akarnya
##engkr
##etuak
berapi
berai
ngat
##idulu
##pace
menjurus
anth
##aging
sempr
baq
selengkapnya
##epis
mengum
mengep
mengerahkan
##edik
##ampil
kita2
##abas
dengn
alu
karpet
merembet
kausap
barak
pengaduan
keters
ketuhanan
##odok
aplot
##andal
##optim
penis
disuatu
kebas
kebucinan
tiwas
asean
asking
askm
maless
##anjir
kepeng
bersem
dikar
##eeeng
ditilang
ditimpa
dituding
shall
dirancang
##unggah
kecip
dipeduliin
dimna
dimaks
maskerch
brubah
soalna
ngeledek
kehapus
105
meong
ngomelin
wkwkwwk
ngomong2
##orejo
##shi
##shuk
gaptek
kekampus
oton
berdatangan
cobaa
bingo
##inaja
putu
putaran
##trans
baguslah
bissm
sumpahhh
dihanguskan
beer
klaster
jadah
boston
manteb
menggangu
weish
slese
bermalas
bersyukurnya
gelandang
patrol
rekap
reklamasi
##kwkwkwkwk
maksutnya
bsr
mantanmu
kawanku
buanget
layarnya
realiti
kapel
##vious
curhatin
pier
bngsd
berfokus
pause
kegaduhan
bypass
gmeet
##eeeeeee
keputusanmu
everybody
hoon
dago
hayat
##ematik
tattoo
gendang
##zier
##penas
cucunya
pemberangkatan
##pelanggaran
atuhlah
ntahlah
powerbank
mwu
##evit
giginya
iyasih
90an
charg
dulur
kokk
perkembangannya
gimanasi
tonjok
bitcoin
pundi
detailnya
kulineran
hiruk
berperilaku
cheer
kewalahan
sebegitunya
jikook
citaku
ngejauhin
chocofitindonesia
##sukmawati
konsultan
fergus
ryn
ckckckck
shahhaz
shukrinatics
jumpscare
nyemplung
merangkul
tragis
ronda
dibelain
sasaeng
ekskul
crisis
yaampon
playboygalau
ditrans
paranoid
perbankan
##intanpahati
akomodasi
sepupuku
farhatabbaslaw
bluetick
perppu
finger
kanggo
dilingkungan
fotografer
aktris
bebaskanluthfi
pemimpintanpahati
skeptis
mengkomunikasikan
disepakati
perputaran
##23295
sarwendah
gantiketuak
reproduksinya
shahhazvee
gantiketuakpk
399
92
busan
cali
cell
dye
fasih
iam
jkr
keng
mpe
nampung
poo
rsa
sangg
vakum
wgw
yuuu
##rim
##ritik
##has
##dew
##disik
##pih
##bur
##lib
##jf
##3n
##ɑº
##enix
##atanggungjawab
##alapak
##apon
##apura
kegabutan
##ukar
##ukat
##emil
##usss
##esen
ngulik
##idrasi
perpa
iniiii
##ebarkan
semamp
unpop
mengaji
##abuh
kerusi
proof
karni
##ante
benua
kelip
nying
##pera
##owdy
pengemudi
emenci
melancarkan
siangan
sicepat
nic
apah
amad
penusukan
penciuman
dispatch
atok
asih
statis
serapah
##anggasuka
sederas
mereka2
halunya
thu
##eeeh
besuk
twet2
positip
dirindukan
sakitkan
dilak
siapaa
brusaha
bruno
katague
spin
spanduk
106
kadangkala
##empit
idris
timun
mintain
skrip
kirito
pembicara
andre
berdakwah
keduluan
pdam
bappenas
teacher
bukn
luarbiasa
heii
konsum
##ankeselamatan
cart
terhambat
alasanku
bermacam
coment
satis
malu2in
kampusnya
ambilin
nyaw
##fair
garasi
sumedang
dateng2
bumil
pencerah
bercerai
curhatnya
remind
##outnow
stoppelanggaran
aqsa
soptie
gadak
ngejatuhin
silau
coron
pecicilan
glass
triak
tindakannya
motivasinya
spoti
teamowdy
afdol
sanak
##iasain
jkt48hobby
asliii
musuhmu
greatreunion
500m
excuse
gasii
eunwoo
parkirnya
1000kat
60rb
officialjkt48
girlfriend
chair
touring
tourism
leaders
tajem
tangkapsukmawati
pikun
##777
dynam
singkatnya
youngand
younghoon
ambisius
sido
meggunakan
kehadiranmu
memperlakukanmu
jedag
referendum
tombak
##arnai
##ropic
memusuhi
henpon
##erjanya
pssibisaapa
blues
##peson
gnti
lesson
makarov
blessed
ethi
##stopkec
mushola
spending
diremehkan
science
shuichi
ngeribetin
dimusuhin
zainal
depression
berwenang
tumblr
spiritu
##oloskan
buhay
##untukkemanusiaan
either
ketidakpastian
investigasi
##elakaankeselamatan
menyempurnakan
[...]
