[PAD]
[UNK]
[CLS]
[SEP]
[MASK]
0
1
2
3
4
5
6
7
8
9
_
a
b
c
d
e
f
g
h
i
j
k
l
m
n
o
p
q
r
s
t
u
v
w
x
y
z
ª
²
³
µ
¹
º
¼
½
¾
ß
æ
ø
đ
ı
ĳ
ĸ
ŋ
œ
ŧ
ƌ
ƒ
ƙ
ƪ
ƴ
ɑ
ɓ
ɔ
ɗ
ɛ
ɪ
ɴ
ʀ
ʃ
ʏ
ʔ
ʕ
ʖ
ʘ
ʟ
ʰ
ʲ
ʳ
ʸ
ʻ
ʿ
ˆ
ˇ
ˊ
ˋ
ˍ
ˎ
ˏ
ˡ
ˢ
α
β
γ
δ
ε
η
ι
κ
λ
ξ
ο
π
ρ
σ
τ
υ
φ
χ
ψ
ω
ϑ
ϟ
а
б
в
д
е
з
и
к
м
н
о
п
р
с
т
ч
щ
я
є
ѕ
ӄ
ө
ԅ
ժ
ղ
մ
ء
ا
ب
ة
ت
ث
ج
ح
خ
د
ذ
ر
ز
س
ش
ص
ض
ط
ظ
ع
غ
ـ
ف
ق
ك
ل
م
ن
ه
و
ى
ي
٥
٩
ٱ
ٹ
ټ
پ
چ
ڡ
ک
گ
ں
ھ
ہ
ی
ے
ۦ
۰
۲
۳
ࡇ
क
ग
ड
त
न
प
म
य
र
ल
੭
દ
அ
இ
க
ச
ட
த
ன
ப
ம
ர
ற
ள
வ
౪
ಒ
ಗ
ಠ
ಡ
ಢ
ಥ
ಲ
බ
ෆ
ก
ข
ค
ฅ
ง
จ
ช
ซ
ญ
ฎ
ณ
ด
ต
ถ
ท
ธ
น
บ
ป
พ
ฟ
ม
ย
ร
ฤ
ล
ว
ษ
ส
ห
อ
ฮ
ะ
า
เ
แ
โ
ใ
ไ
๑
๔
๕
๖
ຈ
ཀ
ლ
ᄋ
ᄎ
ᄏ
ᄑ
ᅠ
ᕕ
ᕗ
ᕙ
ᗜ
ᴀ
ᴄ
ᴇ
ᴍ
ᴏ
ᴖ
ᴗ
ᴜ
ᴥ
ᴬ
ᴮ
ᴰ
ᴱ
ᴳ
ᴴ
ᴵ
ᴶ
ᴷ
ᴸ
ᴹ
ᴺ
ᴼ
ᴾ
ᴿ
ᵀ
ᵁ
ᵃ
ᵇ
ᵈ
ᵉ
ᵍ
ᵏ
ᵐ
ᵒ
ᵕ
ᵖ
ᵗ
ᵘ
ᵞ
ᵤ
ᵧ
ᶜ
ᶠ
ᶤ
ᶦ
ᶰ
⁰
ⁱ
⁹
ⁿ
₃
ₒ
ℂ
ℍ
ℓ
ℕ
ℝ
ℹ
⅓
⅔
ⅱ
##e
##m
##d
##a
##l
##u
##h
##w
##o
##n
##g
##p
##i
##k
##t
##s
##r
##y
##c
##j
##v
##2
##b
##7
##²
##م
##و
##ت
##6
##9
##x
##z
##3
##0
##4
##5
##q
##f
##8
##1
##ا
##ح
##ة
##ß
##خ
##ي
##ر
##ل
##ӄ
##ز
##ق
##ه
##ن
##د
##ℹ
##³
##ส
##ม
##є
##เ
##ϟ
##ش
##ع
##υ
##ظ
##մ
##ต
##ف
##ج
##گ
##บ
##า
##ѕ
##ล
##ĸ
##ك
##இ
##ղ
##α
##º
##ˇ
##ب
##อ
##ˎ
##ʃ
##ƪ
##ى
##ன
##த
##ˆ
##æ
##н
##м
##س
##ಥ
##แ
##ص
##ᵁ
##ᴰ
##ᴬ
##ᴴ
##ฮ
##ป
##ξ
##ก
##พ
##ٹ
##ی
##ᵉ
##ʳ
##ᵃ
##ᵏ
##ʰ
##ⁱ
##ว
##จ
##ˢ
##⁰
##ย
##ض
##ذ
##о
##с
##к
##в
##а
##ʀ
##ʏ
##ᴀ
##ฟ
##น
##ค
##µ
##ε
##⁹
##غ
##γ
##т
##ƒ
##ท
##ª
##б
##π
##க
##ı
##¹
##đ
##ˋ
##ک
##ะ
##ᵘ
##੭
##ʿ
##ர
##ப
##ⁿ
##ᵗ
##ᵒ
##ᵍ
##ھ
##ں
##ɗ
##ˊ
##ร
##ث
##ᴱ
##ᴿ
##ᴹ
##ہ
##ಠ
##ᴶ
##ᴷ
##ᴸ
##ไ
##д
##щ
##प
##ᴮ
##ᴼ
##ᴺ
##ᴳ
##ซ
##τ
##ρ
##ள
##ø
##ᵀ
##ʲ
##ด
##ห
##โ
##ใ
##ω
##φ
##ถ
##ᵈ
##ے
##ᵖ
##ธ
##ಗ
##ᄏ
##ɓ
##ᴵ
##ط
##ச
##ԅ
##ᶦ
##چ
##ᶠ
##ᕙ
##η
##ℂ
##ℍ
##ℕ
##ₒ
##ᵤ
##ᗜ
##ƙ
##ء
##ᄑ
##ᄋ
##ლ
##ಒ
##ʻ
##ـ
##ɪ
##ᴍ
##ʟ
##ᶤ
##ᶰ
##ᵐ
##ι
##ɛ
##ℓ
##σ
##ʸ
##๖
##¾
##χ
##ο
##ɑ
##त
##я
##œ
##ɴ
##ᴏ
##ᴜ
##ᴇ
##κ
##ง
##¼
##๔
##ข
##ᴾ
##ĳ
##λ
##и
##ฤ
##ษ
##ฎ
##ˡ
##ᅠ
##ช
##е
##۰
##۲
##an
##er
##ang
##ah
##ak
##en
##in
##ar
##al
##at
##ya
##am
##as
di
se
##ap
##un
ke
##tu
##ik
##au
##em
##is
##ad
##ag
##el
##ih
##on
##uk
ak
##it
yang
##eng
##us
##nya
##da
in
##ing
##ir
##et
ber
##id
yg
kal
##il
##es
##ja
##ur
##ama
ng
##ul
gu
##ari
dan
##agi
men
ter
aku
or
##um
##ek
##pa
ada
ga
ya
##ti
##dah
##api
sa
##ga
per
##ok
##ung
##ta
tapi
itu
ini
orang
##or
mas
##im
##isa
##ol
##anya
##kan
mau
aja
tid
an
##ut
sama
bisa
kalo
##uh
##alah
##adi
lagi
##eb
mem
kam
##yak
apa
##uat
sem
udah
tidak
gue
##ita
##asa
lu
##apa
gak
##om
##eh
ju
ba
ban
##up
##ba
kamu
##ong
##ep
dari
##ain
un
##angan
##ana
##akan
##lah
saya
dia
si
gua
tak
juga
kita
##ukan
##ot
meng
##tuk
##ara
bang
##os
##ab
##end
##ua
##ada
sel
banyak
bi
##uka
jadi
##ati
bel
masih
gw
al
##amp
##alu
##ia
mer
sek
deng
pas
kar
##ata
##ian
untuk
##ed
ad
nya
##ri
ken
##eg
##aa
##unya
##ant
har
bar
buat
##wa
dengan
##alam
seb
ka
am
##inta
tem
sih
##ent
akan
##ini
##ow
at
##asi
##akar
##ai
su
##ebih
peng
banget
##od
##ac
##iri
hari
##itu
##aj
##ew
ny
##ulu
bg
pem
bukan
memb
ker
##tah
ben
##akarta
##mu
lebih
##ena
##inya
##alan
##ika
pr
##kw
tau
##per
jakarta
jangan
em
mak
##nah
kel
##iat
##si
##oh
bgt
karena
##ter
en
send
mel
##ikan
baik
##ingg
##idup
lain
##ay
baru
suka
semua
ap
##ikir
pernah
kes
ku
tah
##and
tuh
mag
bah
pak
ket
##aw
dis
kem
##amb
##op
harus
##ali
cum
ses
##eka
##ib
kalau
tr
sendiri
##utu
punya
##ob
atau
as
ti
mager
terus
##ont
pen
kan
ser
hidup
pada
##arang
tp
adalah
sed
kenapa
##asih
##ilang
dulu
##ub
lo
ing
mereka
##erin
##ku
dah
st
##yang
##ikin
hal
##na
gitu
cuma
hati
tu
do
##ca
##jadi
keb
##ju
jam
##atu
##aha
dalam
##angg
kok
tet
mal
pengen
kep
temen
sm
anak
sen
selalu
makan
##lo
kau
lah
dib
##ec
##aran
dik
samp
##dh
bers
bikin
20
##anti
kek
sudah
##elah
tidur
man
biasa
th
##kin
cinta
hanya
##hir
ni
bes
ch
##hh
##erintah
##annya
##ee
allah
pemerintah
##ind
pad
##imana
diri
##aling
anj
salah
##aga
sekarang
##st
##gn
tw
##aku
liat
bener
dap
nger
meny
##orang
##ip
sampe
satu
tahun
ab
##lu
##atan
mu
kalian
so
amp
biar
wak
org
mend
##ny
wkw
ar
##le
seg
saat
##gak
menc
##anj
sak
pasti
dr
terl
bol
##ahal
bilang
kerja
sh
emang
##angat
ik
ind
pake
bal
set
dir
jika
##gi
##onton
##ungg
beli
##apan
##umah
sayang
sk
malah
##adang
##ic
mo
##uar
ko
belum
##emb
udh
anda
nak
jalan
bl
pul
##ungkin
##isi
gimana
kali
##ud
##ila
tan
dit
seper
kec
co
mana
lama
sam
min
##har
beg
menjadi
nonton
waktu
is
siapa
cew
kaya
##ve
pac
##angk
##arah
bak
gini
sakit
##ahah
paling
pun
saja
##imp
##ump
mungkin
pagi
nam
##oll
be
dim
##ala
akhir
mah
re
##inggal
##ihat
padahal
tol
rasa
aw
eh
on
ingin
##asanya
dong
mul
ketika
##ima
keluar
##akukan
seperti
##angis
masa
kata
dip
ib
nanti
##agia
ang
##ajar
lang
cer
##uli
##ones
##emu
masalah
##pai
##ahan
deh
sep
##ii
##og
##ch
##imu
##re
##asan
us
##epan
main
rumah
##ck
pl
seti
ma
na
##nyata
jd
lg
boleh
##emp
berb
nih
bu
kayak
##sa
##oga
takut
sekali
sus
tuhan
##jak
##uatu
cap
##utuh
beb
sampai
ternyata
kr
##ng
##oo
##usia
ag
pin
besok
##onesia
##apun
kon
##20
pel
##19
##alau
gab
enak
berk
##sung
malam
##uu
semoga
br
##ilih
##ci
bagi
manusia
##auh
ters
##aaf
##uan
yo
##pun
##akin
dapat
cow
masuk
ngel
karna
dat
##ilik
du
twit
lupa
##unia
kadang
##anc
tanpa
tiba
##hat
gr
##eet
ta
##unggu
sese
kat
lalu
km
ngom
dek
ikut
member
memang
kasih
##amat
langsung
membuat
##ulan
nangis
seseorang
kak
dil
dem
ol
pert
soal
##asaan
nggak
doang
ah
##ver
ut
##ilah
susah
##arin
iya
up
eng
##mm
##enting
terlalu
bakal
klo
##ist
abis
##caya
keh
setiap
##00
kang
##est
##yo
minta
jel
##bar
dunia
sangat
##erah
balik
depan
ngomong
mengh
##baik
##oto
indonesia
la
mikir
tadi
ac
sedih
bahagia
neg
rasanya
##pat
ok
maaf
##ungan
##arnya
bag
##tar
kur
sering
id
##man
tetap
tim
mus
ngga
##ine
##iku
belajar
##li
butuh
wkwkw
pikir
##ira
##amu
cewek
##eran
lag
##ore
kas
teman
mes
##uj
##int
twitter
lap
sy
##asil
baca
menj
wkwk
tahu
##ingk
mati
da
##ff
ngapa
##enc
##uran
to
##sh
kom
perlu
trus
malem
go
oleh
seben
kangen
sp
##itas
makin
me
li
sedang
##ukur
##odoh
anjir
##all
bangun
mata
##ollow
tent
mac
##ss
kn
tolong
ped
duit
mulu
tinggal
sebel
kami
berd
nik
coba
air
cerita
skr
berh
sad
bert
tiap
ten
##ingin
nge
jauh
##ie
##uruh
cuk
pos
no
##yar
jok
pergi
##inggu
tel
kl
penting
mat
apapun
ketemu
dgn
sesuatu
##omb
aj
chat
awal
bap
bing
pacar
mulai
##oy
war
##pr
siap
##ami
yaa
gat
td
gap
##usan
##iliki
mand
akun
perasaan
pes
ot
gk
##pe
kuat
pan
tentang
bingung
##erapa
um
##tt
##arti
cari
cep
pulang
cukup
begitu
##ans
##ess
buka
gt
ibu
##ambil
##uru
benar
gam
hat
teng
dapet
heh
##ampu
setelah
marah
il
bat
merasa
terb
akhirnya
##yum
ul
jg
cara
##mn
kab
males
pol
terk
wa
uj
##ses
##tr
##apat
walau
##ani
pus
tempat
jaw
foto
te
##gh
res
kepada
##if
berarti
ngerasa
percaya
##gas
did
bulan
ex
##ebut
de
ked
telah
##aki
##agai
##olah
luar
mun
seh
kemb
suk
##kk
pend
selamat
bahwa
je
##abis
bad
kapan
pemb
lagu
##tif
mencinta
##umpah
jawab
10
##kt
##art
sebelum
##ina
##atuh
buk
sej
capek
##ks
##ura
follow
cu
datang
kons
sadar
##pada
##ase
maka
##aaaa
##yi
##anda
kena
mis
##ahab
the
tik
bagus
mb
##antan
selama
##ingan
##alagi
##impi
##utus
##ambah
##ubah
dm
memper
hp
it
##ers
tetep
berhar
bot
##ra
##ulit
##orm
##ate
##antik
gatau
##ahat
##ewat
##usaha
skrg
ay
inf
nanya
seneng
car
had
nama
berp
sini
trs
##awat
op
##uah
dua
##arkan
ngapain
beda
##akah
sumpah
semangat
##wan
bawa
yah
bis
##ernya
uang
##asis
atas
##iran
kurang
##ey
im
amb
dl
##ij
dic
besar
melakukan
and
apalagi
kh
melihat
bur
gabisa
##bab
soalnya
##dul
mandi
tua
berl
terbaik
agar
##aham
tul
ha
amat
kecil
ja
peduli
bek
ama
##ide
bo
minggu
##ly
##rr
daripada
##ki
##rib
2019
kembali
##apkan
bila
jad
namanya
##tiv
fil
bahkan
##eri
##akhir
namun
wan
kuli
bos
bet
##yukur
tuk
##tul
semu
##osi
sabar
gara
pro
cantik
cewe
semakin
##ark
##mas
utk
##yakit
cowok
##ota
inget
seri
naik
hah
kuliah
##gg
##cu
##tion
sebagai
##aat
##tinya
jgn
usah
dimana
sebuah
mimpi
##th
##ye
##yat
seorang
om
##illah
##aknya
mengg
gil
bersama
ur
sec
##urut
gun
##antu
beberapa
terjadi
##erja
2020
kira
tetapi
hub
harga
##awan
##kn
##ahabat
gila
##era
sup
yau
negara
mampu
kag
pers
##umb
band
rib
tanya
pap
##epas
emg
tugas
##owi
jelas
kesel
mudah
semp
lewat
terima
habis
cowo
hahah
sana
kos
ngan
knp
cuman
rep
segini
##ast
diper
##ikit
##anjut
##ej
krn
ig
kota
es
##anyak
tiket
loh
pilih
##jalan
dig
bt
##angkan
##ui
nyari
cak
sok
sol
##okok
deket
##ha
##buk
##aren
ist
hap
nikah
senyum
##tahan
##otor
pacaran
diem
memiliki
belom
beneran
segala
pertama
sahabat
##entar
nasi
08
##inggi
##asiswa
ia
indah
saling
berusaha
##itik
niat
keba
kemarin
##enti
lem
##oba
tweet
##hl
##lam
ngerti
##unj
my
bareng
katanya
##21
alasan
##allah
bapak
str
macam
lib
rak
ram
sebab
tangan
##tim
##ewa
bersyukur
##onal
des
##usi
##ham
ngeb
sambil
##wah
dos
nunggu
mur
##ho
##alahan
berharap
perc
blm
ganti
ingat
mending
disini
apakah
##ill
##are
##tung
dirimu
##ma
das
sukses
minum
muka
kont
##one
jatuh
##rol
##ct
ngantuk
##anjang
semuanya
tangg
##ilan
aneh
walaupun
sb
##jur
sekolah
you
tl
gag
lakukan
wkwkwk
fr
##urun
##tawa
he
gel
##yk
rind
le
##pt
kehidup
##aaa
huj
##ory
bun
kemana
kenal
berg
bantu
##nn
ye
baga
kej
##ungguh
##uc
dikit
##upakan
##utan
sl
yuk
##ink
##ys
keg
dih
##irim
##ingga
##anan
demi
##ikiran
##pl
wanita
##ongan
##line
gem
malu
hehe
##eda
##aya
##bat
berapa
##aus
ant
##opi
kp
kehidupan
##ort
keluarga
##weet
film
pikiran
##anteng
##hamdul
lucu
##gr
gi
para
baju
vide
sibuk
##aja
mc
##ode
rt
hmm
nyam
##urus
siang
##engk
nyaman
jual
terp
badan
yaudah
suatu
sebenarnya
diam
con
jokowi
ri
angg
tt
gamau
pant
##erti
alhamdul
##der
sur
##angun
##ahagia
bs
ged
##tur
##ebat
##ank
serius
##2019
##ust
##ungk
ins
##ji
kesalahan
otak
mantan
ntar
huh
##enya
gaada
pusing
menya
menurut
##di
rakyat
doi
tengah
##epat
anjing
mutu
reb
biasanya
oh
##ix
bod
##go
mencintai
jum
rindu
##min
kemaren
cepet
sebenernya
hujan
we
##af
##pp
##ram
cur
laki
seles
sedikit
sehari
ast
kelas
entah
##her
##lok
haha
##yy
dasar
terh
##ake
keras
video
##asakan
berubah
mener
tdk
##utup
dekat
bodoh
##pon
paham
motor
kaga
ru
sal
##iatan
##ampir
wo
##ni
##isah
tinggi
giliran
hasil
mendapat
yak
##juang
##ens
pd
berat
ji
heran
sik
put
kamar
yakin
##imak
##ash
bagaimana
##ampang
wis
hr
alhamdulillah
12
##una
##aman
tpi
benci
bab
com
lihat
cm
201
menang
##ost
sulit
##tai
##ial
nget
##2nya
buruk
gagal
##buh
##urna
pu
ngaj
ganteng
daerah
##ilangan
##ela
jelek
rp
##ohon
ngasih
jujur
mama
##ue
##aka
par
sat
dij
inter
terakhir
engga
diba
##jek
kor
penuh
inst
barang
cek
hilang
turun
##isan
cr
##kr
med
##amanya
##ght
##cul
##usnya
berm
dew
##mat
##aks
dateng
gmn
##harga
kehilangan
sc
##akat
##enal
maks
putus
cape
##2an
##ilai
##ote
##ingkat
kamp
##und
mood
##uto
kerjaan
prom
##own
jodoh
hahaha
##ember
terkadang
tok
##ce
##obil
tenang
##angi
##yb
ayo
bb
jahat
ev
##hati
rebahan
pindah
sma
mencari
##angga
##onya
kun
fak
pura
din
hi
##la
##anggil
galau
bales
mon
nyes
kant
ment
##ike
##ingat
##anji
##ihan
papua
ger
##zz
##arat
selain
##ori
bac
kabar
berasa
asli
laper
berhenti
cepat
##ausah
pe
konser
makanan
##askan
##day
##cing
##entu
kebahagia
islam
gas
##gk
tar
##erh
kud
kalah
hubungan
##entara
##hhh
jaman
masing
nct
for
##uduk
##av
gausah
memilih
##de
panas
kebahagiaan
sementara
dlm
uda
##alis
untung
arah
umur
gapapa
hy
ngob
sehat
pakai
begini
##ukung
senang
ketawa
ngak
perk
##imakasih
sendir
##uju
ngeliat
##iti
rame
pat
tb
secara
pres
mod
doa
ham
##umpul
##hy
asal
keren
seng
selesai
isi
pek
##antung
##adap
menyakit
##ect
muncul
adek
gampang
##ambut
harapan
##48
denger
peny
el
##omblo
lepas
##oa
bodo
ambil
lanc
##kwkw
##alem
##nt
of
situ
post
##fir
##imin
sekal
##amah
##etan
##ry
##anding
lima
waj
apaan
##ker
dikasih
##anyakan
##paya
##umi
day
##bang
suara
##angka
mention
kawan
ngobrol
##alik
##lik
panjang
##yu
muda
##ambat
##res
story
##akuin
tuju
11
##ka
lel
po
##ea
demo
##adaan
19
pdh
pasangan
100
##date
jarang
sore
pula
makasih
kecewa
jog
antara
mobil
tentu
sempurna
wah
##atakan
plis
berani
kepala
2021
list
acara
##ulis
##uai
##men
gada
ujung
tepat
kebaikan
##amar
##itar
gob
##ation
ne
hampir
##pi
memberikan
oke
##ome
acc
bayar
##indah
agak
##ps
##ack
sia
kalim
##estiv
kayaknya
jaga
##any
kore
##tab
sin
memberi
##eli
jar
##engah
##emen
##estival
##tb
alb
##su
##ban
peremp
lanjut
lancar
usaha
##akang
guys
prim
jomblo
kyk
nah
##okus
##yam
masak
nd
yaallah
##jain
memba
teg
##iden
off
mahasiswa
##cin
##engar
murah
##yanya
tv
ilang
x1
terimakasih
drama
mikirin
##kah
##vers
hingga
super
##ail
##olak
hai
ps
jen
mar
##lim
##fer
masi
sesuai
bentar
30
##uni
##angkat
dirumah
bub
##ber
sw
uni
love
##ayan
sun
mbak
rambut
##qu
bertahan
##apin
dirinya
##ood
bangs
tiba2
deg
taun
pgn
##ikm
kantor
bul
berc
rez
##uma
dpt
make
##ord
perhati
update
manis
perempuan
kopi
ngerjain
cl
ro
##olle
open
##isik
ple
tek
nk
album
##atas
tumb
engk
##rik
##ard
adanya
ren
emosi
##yball
##olleyball
urusan
mba
bus
like
kepikiran
seung
##tan
mencoba
meninggal
dg
keadaan
##alnya
##age
perb
det
ver
##ona
##jok
orang2
setia
##anyi
menit
sab
dengerin
dibilang
##ug
menunggu
##js
mahal
rus
##kip
enggak
##hargai
mom
##uhan
##uatan
parah
gede
##back
maen
ngeh
pc
fans
kesemp
time
prod
bandung
##ullah
anaknya
libur
ih
engkau
berjuang
hebat
##omp
##amai
pri
rek
##uf
##ataan
##unjuk
##adz
tujuan
duduk
##ampak
ret
hel
lemah
jiwa
##amin
kasian
dosa
ali
##anggung
dewasa
aing
tunggu
##atur
##ass
isinya
ikutan
ed
kelar
seru
##cok
berada
terhadap
simp
kond
##kipun
bn
peg
##ensi
bagian
##kt48
kebanyakan
bahasa
art
##vi
##ayang
sd
disuruh
happ
##arik
bosen
ribet
please
##fat
15
dok
maj
kemu
bucin
pdhl
korea
memp
ngajak
bakalan
eks
online
terlihat
duh
esok
buku
bob
meskipun
jer
##ungi
twt
janji
##ke
iri
##jo
lelah
bukannya
mulut
bor
##dian
kucing
dri
uc
betul
##ohong
perut
ampe
##emukan
makanya
##alaman
nj
kah
ulang
harusnya
##ribadi
but
kayanya
##elas
keliatan
##anggu
ud
jan
stat
ditanya
##lan
ibuk
dll
tulus
grup
pet
##tahun
senin
curhat
ml
##apai
ikhl
##inget
duluan
##angkah
mendapatkan
sn
##ite
##agian
abang
diajak
##wi
##fe
##ull
bangga
##hhhh
bener2
kakak
emak
kaki
kenangan
bp
##ikirkan
##aud
##atif
##andom
##itif
##wis
tert
##iman
##eee
mengerti
##ream
tersebut
renc
##anggap
all
pilihan
##wab
##itanya
##co
##ond
asik
ph
sendirian
##etah
ek
##andang
ayah
huhu
nom
mengel
sepi
aman
lul
##ro
##ater
##port
kap
##oleh
berbeda
##ehe
##omi
gre
ngec
pokok
menerima
trans
##unt
pi
sos
muk
##yarakat
bts
gen
ilmu
nab
cakep
##uang
bangsat
pa
##atis
menangis
mr
suruh
##yah
##wit
info
fokus
nar
berkata
##tor
astag
perhatian
##erita
ikhlas
##ikut
##vel
muslim
fan
bacot
kesempatan
dilakukan
supaya
caranya
jo
##ajaran
woy
##enyum
mari
mesti
kaget
ayam
masyarakat
mutual
##yan
##ure
##pek
terj
shop
kudu
ust
san
##jar
##ukum
maap
goblok
##ook
menyerah
agama
obat
sing
##se
cont
##we
##inan
top
##insi
##eki
merupakan
##load
gar
disaat
##read
her
##ason
exo
maksud
##nis
##elin
padat
sor
##rak
net
keny
##ell
kemudian
##engg
bebas
what
lt
stop
ip
##2in
terasa
fl
##faat
nged
terd
tanggal
av
##med
sejak
presiden
dingin
kul
leb
meski
gpp
sis
benda
##esan
rec
##ahkan
##ungguhnya
bijak
sebelah
jas
tambah
##gl
malas
##ombong
mut
##ose
gaper
##iak
hak
##esar
seberapa
tersenyum
##ayah
gor
##tunya
##ajin
siapapun
pari
teh
##pis
##tuh
one
idol
pusat
indo
bud
pam
##enang
##oses
ner
tub
cocok
pekerja
gaj
sum
##ehatan
real
btw
ngeluh
sengaja
happy
##asaran
orangnya
##uiv
luka
##tut
gad
kkn
intern
##ulang
idup
kagak
don
##heruiv
##adzheruiv
bok
##ity
sesungguhnya
down
penc
merasakan
##xt
itulah
##imb
ampun
bego
mohon
vs
gol
sar
##uri
pribadi
##egara
##unakan
percuma
##sel
##otes
dpr
##irahat
lainnya
jag
##tua
yaaa
produk
##uali
ngakak
ajak
##alanya
bekerja
00
bng
dh
##iiii
milih
##rah
diriku
good
belakang
menyes
buang
bawah
nilai
prov
menghargai
kirim
##uda
##be
berita
jdi
bekasi
kt
##rip
kampus
##indonesia
cuek
cemb
kedua
##olat
##erang
nemu
##ush
suami
##alang
apa2
fe
univers
##alkan
bir
hatinya
kac
nambah
warna
line
ego
##com
berant
tbtb
ra
sungguh
jadinya
nong
lemb
##edar
gara2
##iz
thread
kecuali
pot
berpikir
sms
sekitar
##erhana
##eta
dep
guru
season
angk
msh
##adikan
perm
wkwkwkw
gabut
sta
rem
aq
bangk
##enak
end
bas
bic
bumi
berjalan
nikmat
putih
segera
terg
##no
nyanyi
kebi
au
sombong
beban
cita
not
ujian
barat
sedangkan
maunya
wor
aduh
full
##eral
pokoknya
menarik
bayang
berikan
live
awak
lampu
lawan
##po
pengh
jawa
joker
mcm
jogja
listrik
##anja
yaitu
mie
ob
hukum
##mi
##adah
say
bias
sikap
move
wajah
tutup
sekalian
berhasil
##enangkan
##jawab
##alahkan
milik
anjr
gamb
hidupmu
sampah
setengah
alias
pon
##alin
##way
##ebihan
nu
serta
was
cik
##dr
##alo
ditinggal
ci
##irkan
##alui
event
gtu
pinter
jaj
ngurus
ngerasain
##foll
berj
pria
imp
ketid
##ikat
kesehatan
##ukai
kepad
mant
proses
##lock
membuatmu
persi
##get
kejadi
artinya
hatimu
nyesel
##aksa
##wisata
nulis
##ence
##masuk
##eman
bro
##enci
semes
##inginan
cemburu
hit
cakap
part
stu
##pu
##ancur
bertemu
liburan
rencana
istirahat
status
##ft
##alas
bersih
17
##luar
sholat
baper
##follow
game
##dur
##bh
bed
qu
naf
gemes
mor
##ekat
##olo
baw
dar
fac
mengatakan
ngomongin
cab
retweet
hot
##to
##ainkan
##ish
kmr
nnt
juta
disana
satunya
##edih
##idot
termasuk
melupakan
pariwisata
##ehy
waktunya
hatiku
24
##utuhkan
mencintaimu
seharian
sifat
##uuu
jat
mn
wajar
tai
##out
##ulai
selamanya
tahan
##top
order
pertanya
tmn
##urangan
auto
seminggu
tubuh
##inj
komen
kejadian
lari
##ganya
keknya
##firullah
sekian
##bb
##alk
any
##ikmati
##itan
berbuat
##irip
tab
##tuju
mcd
ttg
lulus
##aut
tengok
rezeki
memikirkan
lum
jus
miliki
mengingat
desa
skin
keper
perju
rah
##alon
18
fix
##ihak
##oran
##ilahkan
negeri
##aranya
nyata
pesan
rajin
##ikasi
##amiin
##ingnya
##ibat
media
pec
angin
positif
week
##esa
sisi
##abar
kaw
##sg
kad
hob
kiri
sang
##alitas
berakhir
##bo
merah
out
##sek
##ahahahah
##so
##fek
peson
universitas
sg
##ous
##ekan
saran
##ds
karya
miskin
aamiin
mm
rap
berf
##ili
lho
stress
fav
sob
tind
syukur
hadir
boc
gm
##ots
sehar
##dai
sekedar
berdua
ki
prog
melalui
teriak
sebelumnya
berdoa
hm
##ner
##agram
politik
olah
ulama
kosong
kekurangan
warga
terc
bukanlah
penasaran
mirip
##emin
hang
harap
pelajaran
uk
##iii
festival
##care
##baikan
kerj
lgi
dear
##hone
ts
langit
papa
ngeg
nyampe
maju
over
silahkan
##teri
##asuk
dre
mam
bau
kir
dosen
menemukan
sept
mengeluh
kup
minat
sejati
elu
log
teens
macem
##kanlah
laptop
bint
jep
cint
lay
khus
jarak
jb
sorry
pekerjaan
fpi
##tikan
instagram
titik
##me
beres
ide
goreng
dlu
alam
rel
er
woi
##enuh
hidupnya
inginkan
mutualan
##ampuan
subuh
bola
##alisasi
artis
13
beliau
21
##ipt
tanah
jajan
seharusnya
musik
aktif
skrng
sempet
bicara
dipake
##bi
sederhana
lol
ato
tetangga
##ula
bahas
pintu
napa
##ting
##eeee
##olong
##ampus
belanja
kisah
tk
##riend
kekuatan
tgl
##uku
##ujud
mi
ge
sil
keinginan
berangkat
untukmu
tanda
berharga
kebiasaan
ris
ty
14
##agalan
mempunya
seluruh
best
kenyataan
##adzheruivan
sdh
##inasi
tanggung
kondisi
dibanding
segalanya
lok
wib
##oritas
##nas
##ame
pls
kalimantan
##agu
bin
##ef
kemampuan
provinsi
detik
pertanyaan
ir
just
##dg
bay
geng
bisnis
bgst
vir
##empat
##sy
##alahin
smp
lahir
dipikir
posisi
tamp
jur
pal
let
wil
##ment
##woo
##iter
pemain
cel
##kus
##rb
##eksi
mempunyai
ketingg
kegagalan
hey
##ice
mew
tang
2018
bon
ky
kesini
sehingga
##akuan
setan
##ogor
admin
anggap
promo
fb
adik
sub
sosi
temen2
terserah
respon
rab
komun
tag
##war
pengalaman
##icara
taunya
that
biarkan
geb
read
##uji
kol
omongan
gapernah
bec
##my
##pir
mengapa
##bal
##endam
##ayalah
dibuat
fir
kini
##innya
menyel
hrs
50
##ies
meninggalkan
gegara
##ean
ngumpul
asap
ceritanya
menjaga
lelaki
mental
bangkit
paket
istri
wisata
##wal
gaji
kereta
##aafkan
infok
ujan
nasib
##itung
skor
##atain
sepertinya
mundur
mark
polisi
##auan
##idang
prof
won
bali
kend
##amarga
##za
percayalah
hahahaha
jualan
##ibl
ae
##tus
membantu
dikira
teb
bla
macet
wh
##bah
mineral
bkn
##ikah
ngar
pulak
gratis
lagunya
umum
astaga
##ith
gasuka
rela
##erid
perjuangan
##ahami
##daya
bintang
tant
##form
pengg
ribut
by
ngej
gambar
##untung
menikmati
konten
slalu
patah
ms
##hi
komp
chan
program
dalem
fisik
barusan
efek
okay
ttp
gend
##adepan
##jin
bogor
iz
may
gigi
shopee
grab
september
##imal
than
play
tun
bahan
jl
pingin
amin
##log
terluka
telat
timur
##asilan
##ference
##baiki
bisanya
##ibah
kaskus
hab
##dir
takkan
##etahui
vc
ngad
met
##anggup
blg
##irl
pantas
##iptakan
atur
lat
##yul
##tup
menuju
##audara
##udah
##egang
awalnya
16
##han
##ales
aksi
nges
##22
saatnya
gl
pihak
tiada
nga
##baya
menyenangkan
berguna
conference
##aksi
##asnya
sebaik
##jalanan
rokok
##ono
ortu
kanan
##ig
setid
hor
maha
##jun
##chi
youtu
##bl
reply
blibl
laj
kepo
pulsa
jumat
ultah
tukang
give
diluar
merind
guna
jasamarga
##66
merem
lig
feel
dki
##10
cintai
internet
lumayan
##app
bobo
mcdonal
rl
bangsa
disk
##antuy
##amahasiswa
ketinggalan
##edia
pintar
dokter
lingk
##cak
##bila
nungguin
contoh
##idotcom
inv
drop
bliblidotcom
dukung
nyakit
keter
##iko
intinya
sepatu
mcdonalds
diber
stay
25
darah
##ons
##omba
pub
volleyball
##alob
##waj
##masadepan
greater
der
##iny
perl
tiga
notif
awalmasadepan
sosmed
impian
23
mad
sapa
##volleyball
adil
bolalob
##awaterid
limavolleyball
primawaterid
infokost
ligamahasiswa
new
##tru
bpjs
byk
boy
pil
peka
##esi
keputus
nas
##ww
debut
sop
rendah
toh
##ahaha
kasur
sist
##aul
khawat
justru
enaknya
hmmm
kpop
versi
##antikan
nyet
bsk
##emenin
nomor
rusak
salam
memaafkan
ade
ataupun
und
sosial
ngaku
kulit
sebentar
menjadikan
ibukota
den
sambat
##vid
kasi
##aten
nyakitin
bye
mens
##enter
hay
tertawa
halo
kot
##icial
kmu
##oc
##jual
##ooo
pembangun
bosan
setidaknya
can
trend
##enaran
nyoba
begadang
kmrn
cat
##ola
upload
##urabaya
sanggup
##enin
jasa
moots
##ally
##uhu
apabila
tumbuh
ras
semalem
arti
ekon
lakuin
mab
setuju
bentuk
masalahnya
##view
bh
##atin
share
batu
##kom
masker
##ampun
this
join
tindakan
kosan
pand
##usah
gaya
kerasa
iklan
menyakiti
pt
bertanya
your
##ormal
##pd
temenan
indom
##eheh
self
##ripsi
pembangunan
##ger
disebut
wkwkwkwk
perjalanan
solo
##epin
free
njir
jin
##sss
ava
khawatir
lengk
mil
yes
layak
##iring
penj
lapar
kalimat
##ahaya
##iling
melainkan
calon
##wo
##rp
##by
menyayang
hamba
##atih
dianggap
langkah
motiv
ramai
nyesek
22
dt
bib
penat
seni
puk
##ning
membenci
keputusan
##sia
lgsg
dream
nahan
kesed
menyad
scr
dn
pip
som
##pn
##bung
##paikan
gal
nampak
##nur
##fit
betapa
##irik
menggunakan
085
ruang
diter
ajg
hik
##ou
sembuh
##ehkan
##ohan
##uuuu
ganggu
rom
##ile
##impin
cok
menjalan
##rasi
##ited
200
musim
nap
##erj
##ampung
##uy
##ingkuh
wat
##te
##ene
pacarnya
korban
rata
vote
selatan
wk
##ov
sebulan
buah
lbh
ngilang
gais
mengenal
tipe
##utin
berbagai
kegiatan
santai
jadikan
kim
tm
##unyi
kub
##ober
anak2
naruto
egois
##utama
pasal
nyeb
menyesal
tand
jugak
kasar
menjel
menyakitkan
bohong
duk
##do
ngep
##ariah
saking
pah
##enangan
membutuhkan
back
##alami
##sd
menghilang
berantem
foll
jkt
orng
##utang
support
ck
rm
yu
nyat
##ubahan
sti
inggr
stream
##ologi
##inc
##ito
##ibi
tre
malay
puas
call
##imar
##ongin
dengar
sabtu
##yakan
nyuruh
disitu
maksudnya
padamu
kasus
inggris
crush
##dy
##untuk
solusi
jepang
ari
tengg
dicinta
semester
jab
##iode
##ceng
##ahagi
##akiti
##itip
meminta
gelap
rum
##usak
serem
##umu
smua
##ttt
ekonomi
youtube
##lh
##ahh
##unuh
sempat
##eks
menghad
surabaya
##idikan
kuota
bahagi
ditu
beri
berbicara
buru
hany
pm
##wak
ngikut
perubahan
fakta
##rang
##okan
tas
##asinya
semen
mendengar
##ick
hape
fase
pag
##tasi
berdiri
random
sap
##owo
dicari
pantes
##kannya
sebagian
hehehe
dimiliki
##upaten
balas
jkt48
##embang
pesen
hotel
##yal
##fi
bawaannya
jenis
sistem
gaes
takde
dag
hancur
##isel
pendapat
jadwal
ngetik
anti
nyok
matah
lip
ldr
##uman
##abaran
##timewa
pesonaf
hij
kabupaten
##harapkan
##ll
krna
ngurusin
jawaban
##krong
pur
pij
##untut
ngac
cho
weekend
##cayaan
life
45
##he
##fon
wilayah
et
##nik
##etika
smpe
haj
menutup
##estasi
##youn
ngechat
##raga
membawa
##12
##adilan
bercanda
khusus
block
gus
hand
bayangin
park
dijalan
ketah
##ompok
last
ikan
diatas
tulis
win
taehy
wajib
nan
cuci
bern
##ime
jimin
##ower
keber
diliat
timnas
##ftar
kesep
perd
kebenaran
kaum
with
kesabaran
asl
berfikir
nn
##bukan
penyakit
daya
jadilah
izin
pasar
gojek
dad
ever
nen
menyam
lengkap
pop
sya
##tas
##emi
##ahabatan
jumpa
jari
mendukung
##iksa
##aih
##akal
##ukses
ngelakuin
fot
tom
##bers
##unan
terutama
org2
ehh
yung
anc
hidupku
jantung
sj
##ongk
##encian
nongkrong
##uari
temennya
misalnya
weh
##ings
otw
kepercayaan
kesedihan
tes
##etul
malang
aje
000
law
##rat
perih
##araan
api
##ilaf
budaya
umat
nyokap
##amaan
ngamb
sens
hasilnya
fandom
gisel
berbagi
tolol
hanyalah
##ele
bio
pegang
seolah
usia
##jam
melepas
gemb
diant
baj
okt
follback
kw
taw
menikah
##ebab
ass
bngt
thanks
##indak
rejek
ndak
kirain
##arakan
maupun
harta
harganya
modal
olahraga
##ainya
han
link
non
ninggal
##emat
##ade
terbesar
hadeh
##indahan
31
web
def
samb
##par
##inar
##etin
##indungi
whats
fit
hih
normal
zaman
##ten
keinget
##arian
dibikin
maafkan
nntn
friend
rest
##ne
perkara
jun
sul
sikit
##ion
##ekin
kenalan
melek
sbb
##apus
pandai
lal
raya
ss
via
lup
##aaaaa
##jog
indones
hu
kum
nel
nek
singkat
##mah
##jakarta
##anis
##org
skripsi
##ejar
tat
##iya
##arif
mengetahui
musuh
tulisan
29
data
kara
##millah
gajadi
istimewa
utang
seungyoun
fam
mind
##wu
##akor
emng
##esaikan
bocah
wes
memulai
berlaku
cam
pasang
janganlah
dibales
ibarat
skincare
pay
saudara
yohan
setahun
menjauh
matahari
mampus
##tip
##ping
##fess
##ergi
berkali
utama
##otai
menyadari
##itra
akutu
bukti
wow
##ikap
ngopi
##oooo
berlebihan
bakar
perg
pesawat
anggota
ragu
tot
##ise
bank
aplik
surga
##akit
##umpang
expl
nemenin
##deka
##urang
spo
##ribu
level
sekalinya
beng
leg
##baru
didalam
hobi
pok
vi
##yon
dana
mengaku
ditambah
grgr
kesepian
ustadzheruivan
hitam
##ator
mengubah
##angkap
ibadah
##ance
##kkkk
surat
babi
wif
katakan
team
cor
##kh
##unda
##taw
memahami
terbang
##pen
##17
nyatanya
caw
dak
##edi
stand
neng
sim
##ora
##ute
##ebak
show
pendek
kampung
bbm
scroll
kesukses
selingkuh
diberi
korup
##nyk
gapunya
lajur
##alikan
rev
ujungnya
priv
malaysia
jap
##pect
##fa
##food
dibalik
army
ketiduran
akses
beruntung
kebangun
##inking
##uck
semb
keberh
bunga
##99
yaampun
mencapai
ds
##engan
kurus
cuti
ninggalin
hadi
rup
##ld
##jb
##ampur
drpd
buta
sepanjang
##umber
##iminalisasi
iphone
keti
##ebar
materi
kesuksesan
##inginkan
whatsapp
##egan
pendidikan
bismillah
muter
##tian
##arta
sayangnya
pulau
af
bnyk
hamb
perang
baek
brp
##akt
##ender
dilihat
kpk
halu
##engen
misal
diberikan
##bs
##str
##ujung
mv
panggil
seakan
udara
trending
pn
##dar
##atang
takdir
##ompet
fin
anjg
##jokowi
mamah
##osan
hargai
kebayang
##jem
sebanyak
##ajak
nabung
eun
kumpul
manggil
##act
plan
seungwoo
damai
##asikan
email
cobaan
didepan
anjrit
basi
##cer
blok
daftar
bantuan
hangyul
mengambil
selagi
menyukai
favor
del
##ehat
tingkat
##dd
ketua
awas
peluang
hahahahah
taehyung
cir
vol
##ron
panik
gos
lab
wong
##tum
berak
persahabatan
cem
##zi
##13
sekit
##ach
kelakuan
pamer
gro
##erak
bayi
lingkungan
div
kualitas
andai
followers
500
gan
kelak
thank
streaming
gh
jak
akibat
##idi
ngant
niatnya
ucapan
ep
mang
##tok
prioritas
kus
sisa
##yun
##ema
ngambil
##ulama
ngetweet
promosi
##lak
##78
shin
dapatkan
dibawah
wahai
membaca
##pirasi
keberhasilan
habib
##amal
mendeng
insec
jemp
##eline
tega
bermain
##ement
##intas
have
tergantung
motivasi
pukul
kut
membangun
first
az
santuy
##etak
##antau
##resi
##kl
##erjakan
##adar
##idat
gunung
##unjukkan
hina
##set
##uruk
##eback
##andung
arab
sekalipun
##ikuti
##entukan
dicintai
##ty
##akter
jadian
astagfirullah
dtg
red
sod
##hing
##kop
int
susu
bertindak
temb
biarin
inform
nda
sung
##2per
##alur
base
##ign
kartu
jago
dur
jul
juni
mengalami
kode
##iba
##oris
##ayu
##tttt
sarapan
nnti
##upa
##wang
##nak
akal
meningkat
abs
ce
##win
##aruh
apalah
syg
jokowi2per
next
rejeki
##lm
simple
menghadapi
##antai
##ikum
menilai
pastu
sebalik
##indari
solat
desember
##ibur
muh
##aan
##kul
penari
area
tdr
##akak
##umur
bersam
bersedih
mlm
jatoh
oktober
nag
##dut
##undang
lar
why
##hari
##eboh
drakor
##ungkinan
##ssss
wisuda
kit
##uasa
##xic
##endah
##pay
stan
##tahankan
jumlah
ribu
dest
menteri
kelompok
thn
bedanya
gul
##iasa
##utuhan
know
batas
nyamuk
model
tri
##uarin
##embangan
kpd
jokowi2periode
epis
fre
got
##sos
##amz
ako
judul
rusuh
##das
##ily
nguc
ala
enj
urus
gang
os
rob
##mau
##dan
##akai
karakter
bersikap
ambyar
aturan
payah
##sana
##ewati
care
tal
##jaya
##indung
bokap
insecure
perusaha
##rrrr
cp
even
gebetan
ready
##imaruf
dendam
potong
40
sweet
##ahnya
kebencian
anjim
##ormat
dibawa
jerawat
menolak
serba
spes
bunuh
single
fa
fikir
rapat
##let
##uci
ngem
##impan
ref
kaka
masing2
nugas
nat
##23
naman
sejauh
miss
melakukannya
senyuman
cina
rat
##owimaruf
melawan
skip
bete
##assar
huf
pala
segitu
menciptakan
toxic
##shsh
now
menganggap
baiknya
##eck
berlalu
jurusan
beras
##ulkan
menahan
disel
gerak
##ts
##zy
ketul
baik2
halal
demen
nasional
bbrp
tumben
##ipta
dompet
ngangg
ngirim
beliin
gunanya
mir
kesi
asa
##isten
biaya
##ibu
##tarik
sebaliknya
##ital
##yakarta
timeline
spe
viral
##akaran
asing
sakitnya
plus
ialah
##jid
##oration
kemungkinan
badm
gau
##ret
gaenak
treas
wifi
dom
diet
##amaian
semalam
##edaan
menyayangi
aplikasi
cmn
por
##adak
##ulah
##amping
sebesar
kelebihan
faham
rs
##ait
mengajar
sejarah
nenek
ded
tertarik
lau
##arm
iseng
telpon
astagh
laku
pandang
ungk
mala
manfaat
##ucapkan
ngumpulin
hutan
membuka
target
sinyal
enjoy
get
##away
##ual
ngatain
asy
situasi
##etap
##ship
perusahaan
cup
keadilan
##ogyakarta
gajelas
ati
##vo
##asana
memutus
tenaga
perbuatan
anying
##ject
##50
aktiv
##esalan
terang
seketika
star
konsep
rada
uas
alami
bahaya
kunci
pijat
kunj
##iarkan
sesama
khilaf
rugi
##kriminalisasi
nyi
luc
suaranya
agus
pelan
##yukuri
bantuin
day6
group
mendengarkan
mt
##yaallah
##adinya
##ukaan
doain
##pet
nyalahin
maksa
pener
##ecew
januari
##pool
##uny
##utar
##antis
indonesi
28
##mad
##ock
wkwkwkwkw
##witter
becanda
giveaway
nang
tep
##tak
##asia
negatif
unfoll
##iban
liver
##fest
##ampilan
melangkah
##lukan
##ajari
still
bersalah
year
##afik
mukanya
jbjb
ngikutin
tangga
##bek
##aring
mask
##osa
app
sesek
mall
telkom
##ahagiakan
cod
samping
##jarum
##ras
kenap
##antinya
heboh
sir
##uangan
kalinya
liatin
seger
aslinya
bengk
sand
##iaan
start
temenku
##tro
caram
kenyang
ngambek
##zan
kompl
##pres
terbiasa
hapus
nyel
abu
##encinta
help
nin
bangtan
suasana
panc
tinggalkan
tante
ape
tips
dada
fo
gemp
##bel
nyerah
bebaskan
membuatku
mmg
lee
rasakan
##ahter
pikirkan
laut
sr
sebut
sbg
##entuh
boro
menjalani
semenjak
##gu
##adan
sial
makna
trav
sopan
bamb
txt
##uter
kerumah
##kkk
book
momen
exploration
hadiah
bidang
ho
##mar
perform
kerana
asu
tida
bnr
astaghfirullah
##uhkan
membahagiakan
##ece
pln
gig
##jabat
##endak
laporan
bibir
##alat
gaboleh
nov
official
cawang
lak
##inga
rad
wal
##een
##emangat
ngin
semarang
dead
bunyi
nerima
fi
hoa
##urn
covid
##anjutnya
celana
korang
##otamz
pemikiran
tokotamz
stopkriminalisasi
lupakan
uu
##enda
##asannya
##adakan
terbuka
hubungi
kejar
biru
memutuskan
cop
elah
##park
alat
isu
##hatikan
indomie
stopkriminalisasiulama
##jah
nyen
dibeli
bodoamat
informasi
jga
pis
##rt
sama2
atm
ahh
pohon
bersabar
##ijakan
betah
liverpool
campur
##ze
mengalah
pemimpin
curi
gausa
##kg
##fc
harini
kesana
kebutuhan
##indir
ngeluarin
snd
lek
rew
sant
##ikal
makassar
tolak
gmna
hiks
og
##jd
mengikuti
moment
angkat
##15
diambil
##iki
kering
goog
berhak
gunakan
toko
favorit
caramencinta
hoax
##gus
##ins
##amkan
black
diman
sepenuh
tour
item
budak
berisik
kebijakan
psik
mrk
ajaa
kenceng
benc
##sign
penyesalan
seen
##usa
bilangnya
utara
##quest
pesonafestival
##jogja
kotor
dikirim
berkembang
fun
jk
lant
mimp
##ated
berman
##eku
nyangka
cover
lama2
receh
every
temukan
dipanggil
nafsu
hutang
pingg
##16
##umen
##umsi
memandang
selanjutnya
protes
ongk
perbedaan
##enuhi
malaikat
dc
tamb
##imi
##oss
sekel
kekasih
wisatawan
ngucapin
##sir
lagian
kaos
tae
sekitarnya
##oni
maki
magh
rasain
uts
tiktok
jungk
yok
jalani
terkenal
habibie
meet
ngajar
alay
akhirat
matanya
match
repot
tangerang
langg
lurus
##cinta
mengen
organis
##entingan
nafas
mump
##chan
from
##etulan
##mp
##anakan
##atian
pengennya
sah
##jkt48
diom
mengur
##mudah
pre
mandiri
gund
gedung
baby
##ingetin
##oper
mantap
cua
jalur
see
##itmen
##idah
adem
apasih
kebetulan
##inyir
##akti
ngab
canda
hum
##king
ngr
big
berkah
neraka
kacau
pecah
guber
bre
tribu
##38
##akangan
##oro
##ebu
gabung
##ancam
semudah
kontak
bergerak
stie
bermanfaat
tribuana
atuh
lim
lirik
##mati
##gan
kebakaran
minimal
memperbaiki
##etahuan
horor
kya
mampir
batik
##bd
##ume
ketak
disek
doh
keuangan
stm
ngeri
soft
ship
bekas
world
diterima
##elakang
##asional
##gggg
##nnnn
komunikasi
episode
ai
akunya
##ipu
moga
request
hamil
cikarang
menyelesaikan
gubernur
##ern
##orong
##acam
liatnya
omong
riau
sodara
ges
##pad
smart
gatel
##ungkapkan
berantakan
overth
spesial
##angs
adakah
##obl
##ubung
comeback
posting
tandanya
27
bend
kk
yh
##mo
save
gading
##ids
exc
kedepan
nctea
hype
aud
bsa
home
##agus
kepentingan
##iah
bae
##intaan
respect
kop
lambat
##jt
##olan
##pret
jend
ril
##con
##etik
berenti
prakt
mendadak
ditunggu
iman
kre
##rab
##inggung
leh
reg
##wujud
##use
##iru
nyadar
kemen
##young
resiko
tarik
risih
julid
ks
laa
##ening
##epet
merdeka
##alamu
##hyun
2x
jir
##car
dianya
keyak
blom
isti
warung
tulang
kunker
##syariah
mabok
maghrib
debat
hid
seanda
##upun
ca
yun
##11
huhuhu
gengsi
meraih
##juangkan
tersakiti
##rrr
##hluk
##menpark
pegel
kunkermenpark
eps
##you
##thday
fact
destinasi
cahaya
##erat
orangtua
##oskop
kaca
dibuka
##aaaaaaaa
kejah
##yyy
obrol
undang
somet
organisasi
##aturan
kai
menyalahkan
upfoll
nanyain
keset
##lean
kasihan
burung
patut
nabi
cil
maw
ngm
gug
kata2
sukanya
diskon
diantara
asyik
dark
halah
kuk
mitra
oper
##erta
##ainan
unik
belakangan
membunuh
makhluk
yauda
buset
cintaku
bw
qs
##ge
##tanya
##ful
berteman
kira2
agustus
##gar
##orban
didunia
aib
mode
pent
##ebabkan
cib
##lat
pengetahuan
##obat
tetiba
then
gabakal
laen
persija
gendut
26
hew
mw
##list
##ech
lemes
bnyak
##enterian
seandainya
pass
membiarkan
bagiku
telfon
##oseok
pahit
girl
lin
##adio
sii
##sion
##atuhkan
lamb
ow
yas
kementerian
cerdas
peluk
matamu
ngarep
latihan
nt
ntah
##iss
##itakan
pemenang
jalanin
##ingkah
pedes
wae
##tra
lega
merindukan
travel
##lum
##lakukan
##33
##erasi
##ese
tsb
##kar
##bing
##amakan
##ebook
##edul
boong
lebay
##ror
##anjur
mula
##ching
knpa
menurutku
instan
edit
bung
##ungsi
juara
##ope
dibandingkan
keyakinan
nolak
sumber
##hee
##engsek
##umpuk
semesta
les
##ikian
##itis
butuhkan
rahasia
ketakutan
dam
djarum
##det
##ahagian
berter
##anggilan
iki
jawabannya
deketin
dinas
##gen
##va
##inisi
##atasi
penampilan
head
kejahatan
dp
euy
megang
##ris
##ihatan
nyinyir
ngeselin
hhh
pp
##96
sesi
keep
sepak
mainnya
ngejar
google
jis
lha
mek
##92
##agam
menuntut
suci
meja
polusi
optim
##pektasi
melepaskan
nantinya
##hu
##70
##ataannya
are
aceh
cowoknya
topik
korupsi
mingg
nunjuk
alesan
kent
##jadiin
sobat
cust
tong
##eluk
check
dimulai
nomer
ketidak
06
has
berikut
nyuci
##obi
anjer
ingatlah
bubarkan
kawasan
col
jil
lampung
some
##phone
##cle
##jol
##bas
##80
sekuat
bakat
riz
kepadamu
sgt
mensyukuri
hir
kelem
##shop
download
japek
gundala
uwu
##akkan
maafin
tonton
##xx
##asar
ngatur
##olusi
anu
mengharapkan
merubah
nyawa
ajah
bm
mg
seju
##endang
adzan
doakan
pagi2
##insip
melindungi
angel
pinbb
bertambah
denganmu
syarat
kedep
ramah
##nd
##ahu
##elan
menjawab
##oko
##ewe
##chibi
tawa
##km
dijadiin
##gain
perbaikan
##light
mean
batuk
nyambung
kado
vcs
##ex
##ling
##amatan
##asama
stres
bersamamu
mos
kamis
##able
kritik
front
hmmmm
deadline
##nal
##ien
ketim
##iha
##kwk
senja
only
kendaraan
ruu
##bu
dif
berku
masjid
abadi
bru
digunakan
high
tegar
cac
song
##ahas
##als
##ikhl
jalan2
masukin
##hyuk
choco
##sang
mengejar
merusak
nakal
ngetwit
jamb
##eu
munafik
##ucap
salut
huft
mengajarkan
##won
##jir
makasi
gopay
project
puasa
##ecewakan
aa
run
##24
##bangan
##88
##aris
prop
maba
sekaligus
muntah
feeling
ganj
mini
tadinya
##sal
##entuk
sev
ketauan
stalk
##tabut
mumpung
##ev
##54
perp
##upang
##endiri
pasrah
##odo
##ubungan
##ecah
cha
kapal
pesonafestivaltabut
hewan
pesonafestivaltabut2019
wel
kalem
selasa
menjatuhkan
kin
bioskop
##ohongan
sudahlah
misuh
mentang
rumit
##kes
menurun
tido
sesaat
dahulu
sepup
oleng
ngajakin
jaringan
dul
tap
##eja
##por
bela
##entasi
pengerti
bandara
anggaran
body
##untungan
birthday
90
ceng
pic
##alih
##ebasan
enakan
char
akhir2
pejabat
point
depok
romantis
err
nor
rang
turut
##rnya
kertas
tahap
dikel
berbahagia
fat
more
nad
##boy
keju
dance
kuasa
smt
menyemb
novel
bermimpi
swt
rabu
cic
ijin
nyal
stasi
dapur
pola
bijaksana
iku
##lin
terhar
luas
probl
prinsip
trau
benar2
tegas
fotonya
fitnah
low
test
##mer
##emani
##lahan
kesian
ahli
its
diganti
sorang
tay
wam
##30
##elar
alarm
haram
kesulit
pertem
ngapa2in
quote
publik
stasiun
power
##sin
##vin
##ilin
telinga
cuy
terpenting
##ueen
morotai
pandangan
ngaca
jungkook
how
jij
nalang
##jangan
##18
##amata
guy
menunjukkan
membalas
serasa
dikasi
jalannya
##alaikum
##emuan
brengsek
bagai
nikmati
naj
##tle
##atukan
##antak
sudut
waras
hahahahaha
sbn
gempa
terpaksa
partai
cuaca
lam
##of
sex
night
##live
duitnya
wish
lelang
rekom
khilafah
##mur
wanna
lemot
jemput
seenaknya
04
cc
food
if
kong
sch
##uktur
memer
1000
daging
hijrah
pertemanan
##nh
##ser
keindahan
##emar
inilah
mengemb
jadiin
ikatan
sejam
ayat
bri
##mark
ngay
peraturan
semacam
unfollow
tris
kebahagian
ngerokok
jalanan
lapangan
##asilkan
##ungkus
dibaca
##engaruh
nkri
sdm
rasul
cash
dampak
seumur
##eti
mengalahkan
##osh
padang
shalat
2019jok
medan
lomba
way
menulis
mentab
anime
##awal
##awatan
keker
samsek
caper
negri
##yeon
kedepannya
kesulitan
bapa
gb
joh
sidang
##je
##angirl
yaw
alasannya
##ways
print
emas
resmi
oppa
opini
pdkt
permainan
lokasi
gin
god
##ahi
##akut
diatur
##oke
##imis
kamera
mengerjakan
thail
kabut
buruan
sblm
##ucin
wooseok
meremehkan
mengakui
##imbang
antar
##osisi
pastikan
sebatas
bole
sharing
kece
##tulis
nongol
gasi
rid
##ez
##ace
besoknya
istr
kenyataannya
kacamata
sobrang
junior
error
tamu
well
##angin
perasa
anies
ikon
##ich
tertentu
work
wonder
ug
##ned
##fr
##aser
##usin
##abl
ditempat
hyung
lembut
ketulusan
bum
iy
raga
##tetap
dijual
##nye
minyak
postingan
kulin
mute
diskusi
thailand
raja
tir
ormas
minuman
ditanyain
facebook
##empel
hate
pssi
generasi
##ople
##000
spam
menyesali
kerjanya
rupanya
treasure
chocofit
gur
kwa
taj
##oul
##num
##ape
darimu
muak
bolak
belajarlah
dasarnya
flash
##waktu
bebaskanust
fess
hikm
nol
menpar
permas
perlahan
anja
udahlah
balikan
berkurang
overthinking
ita
layan
##uga
##eting
ora
tipis
tipu
dibutuhkan
bakso
mbok
2019tetap
ketiga
trauma
tgk
##islam
##esh
mengucapkan
teman2
tampil
ditutup
perduli
assalamu
pengertian
36
long
menu
kampret
premi
sedap
##ubur
herbal
##self
ending
napas
74
##lis
dihargai
menolong
dipaksa
matiin
sosok
lebar
##izen
mengingatkan
lokal
##unyikan
break
kelemahan
terharu
bebaskanustadzheruivan
baruan
##nnn
##ayaan
kepadatan
cb
##ding
##wb
##ukup
alm
pengin
komitmen
cuba
anggep
ustadzheruiv
##bersalah
##antakbersalah
ustadzheruivantakbersalah
rutin
##mor
##can
##eni
##elek
##uktikan
##itadi
cabut
##ehyun
definisi
gempi
fake
##zah
##58
##isnya
menambah
heheh
hadapi
need
ucapkan
produktif
senior
ubah
pasien
paksa
dahlah
menghindari
bertanggung
people
roti
##qq
##elet
bertahun
kebebasan
dikatain
sks
ibunya
komentar
tenggel
berasal
##wh
##atap
##usuk
menanti
##ebr
apasi
mendingan
kerjaannya
plat
ancur
ovo
##uin
ngg
teringat
alh
buatmu
dalamnya
dimata
yaudahlah
satupun
elf
##joon
dk
sas
uch
##77
ngingetin
terwujud
pernik
##ole
meman
adl
proy
##andingan
keman
##reen
jawabnya
perkataan
fuck
##isinya
##ecil
wakil
menghina
mesin
otom
hahahah
murid
##eller
##pisahan
ui
wr
##asarkan
##urat
##olog
suju
liga
##ormati
dipercaya
transfer
limit
custom
##iin
merek
dikatakan
tinggalin
terkait
donk
gusti
dakwah
2019tetapjokowi
51
##fl
ngam
##otin
##inder
oknum
saldo
close
palsu
bonus
obrolan
##usinya
ngasi
follower
ekspektasi
cabe
parkir
form
##oli
sip
taknak
##otong
##indar
ditolak
pember
##zzer
sendirinya
badmood
09
janj
poto
##kali
##cs
##ary
##titu
menginginkan
mintak
ngomel
telor
banding
kontol
terdekat
nyebelin
dini
##sm
##jang
##friend
alamat
membeli
openfollow
logika
spotif
bencana
pernikahan
bent
job
##bali
##akk
##unc
##jab
said
banyaknya
##eranian
marah2
bersyukurlah
sumat
duka
nutup
##wat
##wok
##oi
##ton
##egah
terlebih
young
##lix
istilah
hello
telkomsel
kip
##74
perpisahan
dikenal
##empar
when
01
bkin
giman
mng
panggilan
##fb
##tual
##emah
##adu
##ulasi
kene
kematian
terlanjur
tetaplah
penderita
ngertiin
lead
dihad
pantesan
bayangan
menyampaikan
perihal
bil
pk
##enari
always
diminta
batin
##dge
coklat
rmh
eunsang
cin
hom
##sinya
##engin
##umat
udahan
review
percak
##juangsyariah
php
canc
dy
dkt
ran
##dream
inc
##urukan
yaelah
ann
##entikan
melayu
keberanian
ars
pertemuan
konsisten
opo
jaya
ongkir
kreatif
sepupu
dz
ele
wangi
cerah
susahnya
##anjutkan
ujung2nya
quotes
##oan
##zl
teros
pero
padaku
warn
dijadikan
daritadi
pms
revisi
singk
waw
ngek
bersamanya
pemerintahan
taemin
ajar
dapetin
##astik
##ashi
curiga
jeb
rac
##sih
##but
amer
##uarkan
dimakan
knapa
kedu
haf
jaehyun
##ejahter
ketimbang
##edah
##idak
china
tahunan
yoona
demikian
tdi
##abiskan
bunda
##aksud
ff
ntr
pang
##mem
##yet
##ere
##itasi
##iler
perf
nyus
loe
salahnya
##aaaaaa
##ggg
bully
gajian
golongan
ustadzheruivanpe
aktivitas
bulu
cip
nada
prab
keburu
kris
##liv
##ffah
mempercaya
heart
##resiasi
ninja
naw
titip
##los
##oakan
##banan
##eru
menentukan
memaksa
sihh
sepeda
malem2
memperk
jenuh
ngedit
menjelaskan
##akitin
ustadzheruivanpejuangsyariah
dng
pajak
yogyakarta
##pah
##ble
kala
minhee
kuning
degd
pamit
studi
family
meningkatkan
nyenyak
proyek
far
hind
kpai
md
pup
##eras
##asta
##ulamal
terba
kesah
##fficial
ustadzheruivanulamal
november
ustadzheruivanulamalurus
era
liter
wt
##astian
meneg
teruntuk
kelamaan
optimis
bid
woo
##des
##les
akrab
aparat
ditengah
##odohan
barengan
bubur
##quotes
uchiha
gg
##pol
##bot
##eren
##anto
tuan
anjeng
gula
hangat
nob
pke
##ount
##ko
##ager
yaaaa
##tic
##tive
energi
disakitin
tekn
glow
problem
otomatis
percakapan
hantu
janc
numpuk
##len
##jer
##ert
##ebon
##epi
mules
netizen
nnton
sensitif
will
##dam
##enial
menfess
##gai
nyusah
##echan
spt
boss
60
vlive
##lain
##yaan
##elit
take
suam
che
brand
horror
away
cand
hd
##40
##erg
seter
##elaka
karma
untukku
makannya
menyus
kocak
pelangg
##ift
hade
morning
aksesoris
sesekali
dang
ic
##iram
berulang
entar
dikerja
terlambat
ditel
angka
ngef
mempertahankan
conan
##ashion
sepenuhnya
halaman
pb
radio
tamat
##rek
##yeng
##zon
##ihara
##onis
berpr
##uth
melewati
lanjutin
elev
lh
nur
##tutup
##apaian
selera
##tern
minjem
takutnya
berkat
dilarang
partner
dukungan
talaga
kid
klu
##mana
##rama
##alir
##amas
diukur
paka
##anjung
degan
basah
rapi
##lic
##wk
##nie
##ateg
nyala
kelihatan
disamping
teori
waspada
final
62
hemat
lun
lalin
xix
##pot
##san
##sikan
##cr
##bis
dijawab
diharapkan
##auk
kabur
parf
tokoh
##hatiin
gerakan
sebaiknya
hs
rint
##els
##ilet
##okrasi
##orbanan
harinya
soci
menghasilkan
bapaknya
hawa
slow
medsos
bayangkan
total
fol
gbl
lik
pisan
pidat
##band
##fo
bersi
tip
mulia
berbohong
gofood
berdasarkan
##hae
##box
circle
sndiri
fangirl
##elasan
tern
##uhp
trad
train
dibelakang
##ecial
dimarah
plastik
##estinya
hei
sayur
nganggur
hant
hib
lidah
qur
##flix
ngest
##ular
unt
disakiti
serv
hallo
shini
omg
##aksakan
pdhal
sinet
##ugerah
contohnya
rilis
07
cob
##cm
keku
mengungkapkan
empat
bercerita
ukuran
nginep
spotify
tingkah
##dak
##alog
terindah
##umbar
mengend
##ede
##ayani
try
##cky
matkul
ayob
better
study
##edihkan
pengguna
undangan
0856
mengenai
blu
him
mill
##lish
disi
pengorbanan
hal2
skill
berbahaya
teaser
dibayar
kotak
gon
hon
ii
kik
luk
##hr
##zen
##yaman
##urkan
##ungannya
kentut
##ency
tea
busuk
nyusahin
##36
keliling
##angkut
dijamin
helm
keduanya
basa
gitar
bangke
biji
sepele
lupain
pembel
haih
rambutnya
class
menutupi
muham
hok
nitip
tni
tayang
##qw
##far
nggk
pertahan
harapkan
menyeb
kerjain
iyaa
design
superm
berjanji
nyalain
trisakti
kuliner
city
klean
pahal
##zal
##for
##ino
##ully
lock
sampek
arg
mainan
greg
ajalah
reseller
snap
lolos
tam
zona
##jj
##inkan
##ingatan
pemba
padanya
berkel
##shs
pede
kedamaian
sehun
##utusin
indahnya
sabun
driver
guling
jisung
jung
lintas
##put
berna
perbaiki
##abla
##ody
emo
indi
mov
plg
account
kondangan
profesi
pns
kesetiaan
assalamualaikum
shinichi
jakar
kzl
##mend
##aikan
##uekin
##iw
##kas
##idik
memori
banjir
karen
maklum
kebelet
dirasakan
slot
maksimal
pura2
nikmatin
kawin
vis
##hiri
##nel
ngot
manja
dideng
##masalah
strateg
##engkar
merinding
tur
tib
mengecewakan
add
jelasin
bagaikan
insyaallah
diving
sinetron
ringan
##iel
##edek
prestasi
sedek
buzzer
tempatnya
mbah
ngegas
jah
##tau
##fil
tud
kepengen
namjoon
pelatih
garis
karawang
hormat
##bisa
##ukti
##entang
doyan
##vert
laun
mustah
temanku
trust
dipert
##kaffah
makeup
tercapai
300
ciri
pik
##lalu
dihat
kewaj
##ektif
selim
penumpang
bersatu
nie
##embak
packing
##impen
boker
haji
alhasil
penderitaan
02
elok
piring
##kal
##uskan
beran
##arai
seleb
kue
kebohongan
mulus
plot
fansign
endingnya
ckp
gangg
hua
##oda
##asang
membuktikan
##ayangan
ste
##embunyi
dilakuin
syariah
polos
rupa
dipikirin
something
sasuk
wujud
##las
##lay
##part
##rd
akhl
ungg
pengel
pemilik
daun
digital
2014
netflix
##asuki
arief
someone
pab
ub
##ananya
mengan
##iannya
##alamin
kafir
stok
mendoakan
shit
demam
anjirr
kembang
followback
persatu
pikiranku
##osting
swasta
verif
pipis
gangerti
itachi
##festival
##ilu
nyapa
pengembangan
ent
disayang
penonton
kebodohan
##econ
chatan
menyedihkan
indih
agensi
goda
pantai
series
cekidot
hyun
##ugikan
bimb
cul
ming
##lek
##atnya
kedai
##utor
##adai
##edak
##edakan
emot
imut
pencapaian
kuping
dikerjain
mustahil
32
map
mic
son
##ym
##ampi
emp
##awain
thr
mual
lembaga
bersihin
hidung
elevated
70
numpang
nempel
sena
##luk
##adem
berujung
magang
sesak
##lupa
beasiswa
toilet
simpan
hihi
mengurangi
38
gasih
panggung
##uki
menemani
hati2
dikamar
chen
menderita
mencer
telur
diomongin
05
lantai
upaya
##lot
##ilaku
bant
adu
amal
bgtt
melebih
dibantu
koar
ehe
berkom
pertandingan
haechan
bund
potensi
perasaannya
mum
ros
wu
##fokus
die
peringatan
mengak
seribu
kepastian
allahu
##indo
sayangi
##abisin
kost
comm
dijaga
slog
sekelas
much
##19b
mikirnya
berhati
sejenak
terpisah
##firm
ckck
rekomend
kekerasan
2bb
cs
##ler
##rok
sedar
pinned
##2020
##truktur
infras
jaemin
solusinya
perkembangan
rezim
cintamu
blokir
ayobantu
gangguan
##19b17
2bb19b17
jut
kesal
about
ngomongnya
##encana
##ghit
boom
##yeol
kyknya
letak
dohyon
jijik
john
hye
##ype
##cep
##adari
ngap
kesayangan
iso
agenda
##iji
gelisah
##auty
kerjakan
jabatan
lantas
ngabarin
kentang
2019jokowimaruf
##morotai
tunjuk
##dik
##isip
##upan
sialan
mengisi
##aaah
nyebut
membenc
emyu
cermin
ceritain
mimpiin
ngebac
monyet
room
boros
dmn
hin
jfb
nasih
yutu
sav
##ampau
dibangun
##ogra
pelangi
kursi
today
poster
imam
bubar
nemuin
playlist
ngadain
speak
meeting
rasulullah
degdegan
37
35
kluar
lan
mk
semata
under
bighit
bensin
kekayaan
gemuk
alloh
standar
misi
##kalo
bermasalah
merendah
##awi
menyimpan
didengar
poin
mewek
nunjukin
hh
rasis
sri
##ale
ngisi
menyebabkan
##embers
mahasis
duga
kakek
bergantung
##ause
nelpon
ghibah
pisah
##ral
##ikmat
beriman
menyang
diaj
temp
##obud
doub
##cher
tersedia
hadapan
##ijen
insom
teknologi
kekuasaan
jm
##abaikan
peran
##ews
##opun
chr
##mmmm
baperan
berpisah
teguh
mls
persib
infrastruktur
jem
ojol
##yani
##arak
##asin
true
lahh
biarlah
nontonin
menghabiskan
pikirin
badut
0812
dihati
scene
bpk
pokonya
dsb
bendera
seterusnya
coll
ll
##oot
##ete
##ianati
##wai
keluh
##antian
##udi
botol
##arenakan
ngaji
avail
mamak
baekhyun
elo
fast
##dm
##sem
##jkt
##inst
gawe
##tice
mempr
pengangg
tick
##ecewa
dikarenakan
shi
taey
##amatkan
melihatnya
##play
flop
terdapat
##ancurkan
invite
menjelang
bajingan
ospek
bj
ey
hhhhh
mai
sv
vib
wc
##oon
##cc
##tugas
ngalah
ane
##otan
naksir
buktikan
##ksks
realita
persiapan
hijau
miris
excited
arsenal
meh
##ster
##juran
sew
terbaru
menyebut
##sha
andro
menghilangkan
minder
ogah
##obudur
puj
##word
##fan
##fam
##ety
##urin
benerin
apdet
lov
otaknya
desain
sikat
galak
memerlukan
##low
meres
##edan
dengannya
sukai
pelit
pelaku
##ujat
geli
gadis
komunis
##bukanlah
permasalahan
3x
dpn
queen
tangis
uz
##uilah
##fm
##uatkan
##ehh
serang
awk
uangnya
pcr
bawel
cengeng
##pan
##eklik
##akannya
##edit
##siapa
ketik
orgnya
coup
minim
mao
resign
pendi
persis
nyariin
gelas
promote
pekan
bernama
istrinya
tenggelam
duni
eff
ric
sau
sate
##minggu
ditahan
sear
gaakan
##oma
emos
melulu
trili
salahkan
naek
klau
penyel
pliss
sisanya
tantangan
pipi
slogan
suh
tampak
##wt
##45
##aret
karang
##egar
dikata
beauty
music
wkwkkw
nikahan
ayok
budi
rabb
ketahui
kunjung
norak
alah
gomb
jwb
nis
sangka
##hon
##td
##29
##asik
intro
##etapkan
selca
kuy
stage
nice
chang
waktumu
puncak
hahahahahahah
##residen
kacang
jutaan
subs
pisang
premium
parfum
bem
kg
pep
want
##base
##emon
ngabisin
mengajak
chap
##ibatkan
ngaruh
iu
iuran
ijo
xd
##iksi
menpart
kerus
dibalas
bersedia
indos
bedain
ribuan
niatan
puisi
ktp
##injauk
investasi
senayan
melebihi
menpartinjauk
menpartinjaukeklik
mamp
##enan
##enapa
##asila
massa
##ibuk
berhubungan
strong
interview
renjun
ucap
penghasilan
darinya
binatang
##inary
huru
##gw
##val
##aper
##ism
##isme
##ihi
terti
##ekek
gakuat
belanda
penguasa
pakek
dibuang
##thing
##yyyy
ngeliatin
jln
selfie
ngajarin
rizki
##fokuskan
menpartinjaukeklikupang
80
gda
##land
##rika
##amanan
diadakan
##aukan
perh
anugerah
##abi
pastinya
cewenya
naikin
caption
jokowimaruf
following
kebawa
layar
fut
##xi
##enj
keser
kesus
keburukan
jokow
##atuhan
tukar
mengganggu
ruangan
staff
tomang
pengangguran
fasil
hhhh
tarif
##du
##yp
ketur
##ikel
berjaya
##taun
memfokuskan
maluku
##eceh
kecelaka
ceweknya
kapanpun
instast
transport
piece
aya
lusa
rangka
s2
kambing
uname
sign
##obal
ingatan
klw
presentasi
mengeluarkan
ngadepin
ketahuilah
jaket
tambahan
kejujuran
pakaian
kewajiban
ee
hend
zh
berga
ngalamin
thinking
konf
exol
199
##opers
sbnrnya
tit
##atkan
##ado
oranglain
##ajuan
pemindahan
apanya
sound
maya
agung
pink
filmnya
##kwkwk
bibit
366
mkn
nanggung
##ium
##ven
intr
##iranya
awet
brg
##antengin
##zzzz
hampa
menyakitimu
absen
lambung
rekomendasi
sono
vid
##bul
adegan
prnh
lahan
liv
buktinya
berpura
recom
##injkt
anjay
##memanggil
hiburan
kecelakaan
bit
soto
ton
word
yee
##cang
##jan
##bak
##fas
##asy
ina
##uhin
jangankan
temenin
bls
pelukan
haduh
secepat
##ejut
##faatkan
mewujud
nyetir
pesonafest
gim
jac
kb
ole
talk
##yol
##intah
##arn
##orin
masukan
lubang
united
sektor
pengirim
membuang
dibub
tiduran
max
sedihnya
spr
##quote
mreka
jastip
ratusan
pancasila
sumatera
triliun
gok
sewaktu
ngl
##ebaran
##aaan
halus
mendung
dipakai
pelajar
teu
memperoleh
itzy
piye
pahala
cong
cwe
flight
kdg
mol
singg
##din
diingat
##apak
unit
kenyaman
bukankah
##angkep
dimasa
mainin
pembah
ngebayang
concer
2016
pejuang
kudo
tegur
rewind
cancel
nasihat
kis
kli
mong
nurut
zon
##sol
diinginkan
##unter
ngen
menaruh
adlh
kemenangan
penulis
##anggar
senti
padam
begitulah
kejam
phone
bnget
##petasi
ngamuk
cal
fitu
gibah
jn
jidat
yt
yha
##dus
##bin
##inal
##ider
antr
##utnya
memilik
hard
chara
pertanda
##amies
berpend
jae
##maap
syukuri
geja
jati
kain
mayan
rag
val
vic
wed
##air
##ener
seenak
##iskin
##etab
teruk
akutuh
mengkh
##icarakan
nangisin
didi
extra
kemana2
##tabil
kerjasama
dreamies
tebak
perangai
jakart
android
gejayan
03
kand
vou
wir
##okasi
merk
temannya
##andalkan
menyatakan
mendekat
shaw
dilan
seringkali
memperjuangkan
tampan
gigit
menurunkan
indosat
##etabek
king
too
##ran
##95
##uksi
memat
memakai
pengec
##unggung
angan
pojok
recehkan
kepadaku
rapuh
mengembangkan
wonderful
ceb
yori
##uas
##gok
##odetabek
nyindir
doaku
##chat
terbukti
hadap
person
kegel
puyeng
tradisi
mengendalikan
individ
aer
kaku
##tik
##angsung
##ampaikan
##online
##irian
##amaju
##abut
kelap
rumahnya
ajarin
konsul
bawang
berkualitas
gblk
muhammad
sasuke
fah
##eon
##jr
##bola
##apua
##engerti
ngk
merugikan
##opresiden
##arannya
balasan
##angkali
##emui
berbau
menghancurkan
##fff
##astikan
laki2
never
sumpa
tmii
ngepost
bengong
##ediakan
judulnya
customer
indihome
fasilitas
ear
png
page
##pam
##arinya
##iker
akn
##umaki
atlet
look
kebers
##umpulan
ular
persen
faktor
##fitnah
bambang
social
pidatopresiden
pidatopresiden2019
jingan
mangk
oiya
taman
##donesia
##pas
sembar
uns
dikejar
blabl
tersendiri
idul
special
anjrot
chanyeol
nyobain
kesibukan
berikutnya
dimarahin
yutub
namp
wala
##den
##wor
##ns
##twitter
##senin
##atar
##itia
##ilat
alur
mera
karir
##enteen
##elahkan
balikin
wait
mbaknya
berputar
urg
##eritain
kwave
kenyamanan
sembarangan
99
fm
gih
mid
##ging
##banyak
##its
##urs
##pac
mengabaikan
meledak
kebuda
kekecewa
muluk
ceria
klub
akunnya
inspirasi
jiw
##enggam
prabowo
fine
fashion
jurus
##fact
##akna
diangg
##eter
##idur
ngid
ngent
menatap
apal
bersin
##uarga
misteri
0838
murahan
menerus
##itive
millenial
instastory
ain
badai
fikiran
fancam
jik
sent
vit
##pm
##32
##adud
##osal
bulanan
followan
bawaan
internasional
jurnal
##warna
bengek
jutek
konflik
fitur
kebudayaan
cut
roy
trip
##dirkan
##gue
##sl
##jana
##alukan
dikan
##eless
##ulin
mass
apaa
##perti
meluk
donghae
pelajari
demokrasi
repub
kpopers
asalkan
stuck
khususnya
layaknya
indonesiamaju
ngmg
sentiasa
roh
seeng
##ihin
ori
barangkali
melayani
ngerep
mendek
kecantikan
beat
pinjem
kehad
mataku
pendukung
martab
sunda
tekanan
depresi
cintanya
typo
##wajib
maskeran
seventeen
bungkus
cos
dec
##mh
##wedan
##ness
##other
ena
melelahkan
abdul
##gig
##gger
##aksanakan
jeno
artikel
photo
##media
rupiah
tembok
wkwkwkwkwk
mawar
kipas
uzumaki
fel
##atau
##asak
##itunya
daniel
##apain
##ric
kesalah
kesenangan
##house
bermaksud
##alisme
road
phot
corona
annoy
kikies
akhlak
caf
gond
hiat
haus
who
##awa
##official
##rit
##erd
##emang
menghar
bangett
##opo
dibohong
terlepas
##inton
##ffy
##anser
sempit
##gram
faktanya
futsal
magi
saha
wts
yan
##ky
##ture
##tain
mengandung
bgsd
asia
smoga
##leep
mahu
resolusi
penduduk
report
tangannya
##illa
2015
tenggor
after
hikmah
movie
chapter
kekecewaan
33
again
punggung
##leh
##our
##iy
##bn
##aram
berper
gud
anter
mengalir
##rips
diketahui
tidurnya
them
menyentuh
skali
minus
##2021
##istis
resep
hubungannya
teknik
kahwin
netijen
permintaan
ponakan
lipat
kyai
bantal
voucher
martabak
hus
pings
rul
##uaran
terulang
kamunya
menguatkan
##ampiri
sebeg
diserang
##unggul
ditentukan
nontonnya
kakashi
mencintainya
personal
detail
tabungan
jabodetabek
selimut
cute
noh
uw
##rad
##ahhh
mengin
diseb
senanti
she
coy
kritis
pelay
##shinta
siap2
filter
videonya
##ustri
untungnya
walopun
couple
ht
jih
pda
ray
yng
##juk
keamanan
##isian
##tact
##uper
jaminan
##story
dipel
anget
##auhan
depanmu
menghibur
idung
berdosa
##tren
proposal
bua
cpt
##nes
##apenari
##itahu
disalahin
##yangkan
tuanya
kepake
smk
smpai
besoksenin
ikutin
sejuk
memperlakukan
ayu
##unjung
antri
##isahkan
putri
jodohku
lepastu
club
terjaga
bawak
kompet
spoiler
view
bernafas
launching
ngebayangin
senantiasa
beh
cream
est
gep
gand
kung
marat
##enge
##dahan
##epon
mengatur
##antara
uji
bukhari
gilak
0813
penyebab
##ordinasi
bokep
karyawan
maybe
mempercayai
##losemar
##jerawat
svt
dont
hop
iq
ohh
tingg
##ave
##iq
##ket
##1h
menonton
##ukaimu
sekadar
past
melukai
dires
##cha
agency
didapat
sejat
dicuekin
bandar
monmaap
bacanya
offline
ngehype
ibuku
fanbase
singap
ditinggalin
meninggalkanmu
channel
##tawakan
##ekuensi
perfect
double
pingsan
bom
blo
gerah
jek
mks
mimin
##14
keaja
##adab
saw
mengk
senj
blum
sampaikan
berlari
penyanyi
clos
pegi
lembur
rahmat
ngrasa
dulunya
flu
pnya
sila
side
var
##nu
##cik
##25
masanya
##oman
teruslah
dikab
menyer
industri
ditonton
keluarganya
membuatnya
menghormati
panitia
card
istana
##unjukan
leo
joget
ngecek
terdengar
jagain
bawain
layanan
##osankan
amerika
xixix
kesusahan
39
cwo
gantung
stabil
wid
##eum
##pak
##onc
danau
##eketin
mengkr
##edis
seblak
##awak
kemauan
##obati
pensi
sty
##juta
koper
gelar
berganti
contact
terjebak
huruf
kill
tn
##eun
##alian
##ihh
ngun
gay
masnya
##uhh
karuan
##ents
logo
nihh
##saya
light
##pro
badannya
bukak
cuc
mempert
carrd
sahabatnya
ngebuat
tujuannya
##olehin
cikun
sdmunggul
greget
cie
ft
hol
nil
puji
##ls
##fore
berawal
ngulang
##uler
##olongan
##ianat
kemajuan
musti
chatnya
kejutan
insya
bermakna
depannya
ukhu
keajaiban
ukhuwah
galon
hem
larang
lrt
##uti
##agak
##usta
berwarna
memasuki
##lahir
tau2
##perin
disukai
sedi
dibenci
thx
salahin
##star
segar
tanp
tersisa
syah
goyang
##abisan
sejen
seriusan
serious
##ajaan
entahlah
kulkas
msih
volume
got7
langganan
sejujur
menyembunyikan
merendahkan
cia
case
hip
sari
##hal
mengasih
belok
bgttt
melanjutkan
kebang
##juangis
emangnya
ditak
##pejuangis
kagum
coming
remaja
sange
typing
ntn
##pejuangislam
lb
##lang
##kam
##sing
##belah
##inian
##iness
diak
##esat
##endem
asm
kepribadi
bersahabat
##akui
drtd
pelantikan
pikirannya
kedeng
##umbu
paru
##seong
lawak
##mudahkan
74th
pembelajaran
jacks
fis
nana
##down
##lus
##buat
##alok
##isk
##etes
##ungkan
mengus
##ajat
melengk
stock
abg
omongin
##astag
##time
##juangin
sdg
paytren
keturunan
antrian
tenggorokan
ls
luh
wew
water
##ool
diulang
##tiara
itupun
also
##ajkt48
##ewain
kuis
magrib
penelit
##angkis
dimengerti
berkorban
baginya
digitu
127
##iiiii
kmren
kiamat
beresin
silakan
0857
sekeliling
cobalah
hiatus
pod
wey
##gor
##plo
##ery
##jae
sekej
seber
attitu
membosankan
prot
pakiram
ketenangan
##indungan
arm
okey
##ghur
mutualku
ustad
penghujung
mantep
dadakan
nagih
disekitar
penthouse
cibubur
memperkuat
cikunir
lep
mepet
note
rebut
seul
##ely
##ester
ord
lagii
merch
##ituindah
##ewasaan
terusan
pening
##ahahaha
klik
gapake
perasaanku
marahin
solid
terjatuh
melupakanmu
jinhyuk
frontpejuangislam
cafe
cw
eg
mutusin
tf
##kang
##come
##inang
gituu
skg
kecep
ono
bagimu
olshop
liar
diciptakan
mengganti
tugasnya
babak
modus
gaperlu
komunitas
profil
nganggep
strategi
hinata
bf
lng
mp
neh
sleep
tangkap
##uap
##27
##0k
##orok
semut
mengangkat
merokok
janganm
melah
trnyata
dongg
##presi
they
insan
##resh
kulihat
ditinggalkan
nengok
natal
racun
nawarin
pelayanan
pakiramdam
57
fx
hendak
kuku
lur
mh
pom
uh
ws
##gb
##santuy
aka
##gaji
banyakin
adat
adha
seberat
pengum
pengusaha
diser
##anjak
cool
sepat
mesra
batre
kabeh
buruknya
diajakin
kenapasi
wtf
sedekah
singgah
recehkantwitter
bilik
cas
hen
pny
visi
##pel
##ious
##rakan
##yaran
##isatukan
##eteran
memu
##omu
##odi
##stal
before
really
konyol
menghampiri
huhuh
rezek
raih
ngejauh
ngilangin
hajisatukan
larut
kunjungan
jilbab
pengiriman
##adudomba
hajisatukanumat
fee
kgn
patuh
utuh
##mus
##ru
##rus
##ukah
tertutup
nyer
membela
kesimp
ceramah
menjamin
meyak
comment
hyuk
bocil
ketahuan
gembira
##etiap
rintangan
400
japan
rent
tomb
##arno
beru
takpe
##aday
kuyang
store
thd
think
dirasa
moon
dipikirkan
tersinggung
kedalam
123
##indahkan
kyuh
pilek
rata2
74thindonesia
gej
lempar
pain
pond
pick
wang
##erahan
##isti
##ilo
##upuk
mengatasi
karo
sesuka
doanya
chibi
menyediakan
dipr
##mmm
menghapus
berhent
ketemuan
yakali
parno
univ
gengs
pubg
radikal
melahirkan
dud
his
nuntut
sapi
##ead
##uch
##pyo
##ren
##inter
diku
diisi
diubah
meme
memenuhi
mengag
##abu
atasan
nyimpen
baiklah
cintailah
##hhhhh
dating
teel
mentok
green
angkatan
gojekindonesia
waspadaadudomba
concert
cit
iye
tungg
##ming
##dk
##nam
##rong
##bt
##ath
##ato
##under
sebaga
##ipecah
segan
##gaknya
koq
sadari
jokes
deep
memperhatikan
##elasin
yesung
sambel
yunseong
yasudah
introvert
republik
magic
lamp
luna
mara
plu
rank
##²an
##121
##unah
##itkan
bertu
dandan
terper
##oka
##ongjun
belah
##ederhana
asam
##eeeee
reaksi
##emput
pelik
cowonya
dilema
peserta
dihapus
##night
comp
nctdream
worth
face
bahagiain
sape
christ
penelitian
kyuhyun
cender
mix
our
##cast
sewa
ketaw
gub
##ewatan
##siapkan
dikerjakan
##usiaan
action
secret
diperlukan
rakyatnya
petugas
moral
annoying
daw
fungsi
jr
pkl
tog
##erdeka
##iks
##agag
##urt
tema
nye
brok
resah
##ewatin
hair
elek
bobok
jatah
indomaret
leher
sejuta
pengeluaran
cle
lamanya
oalah
rehat
tanjung
xl
kevin
##itnya
teri
masakan
kardus
##entak
##utur
##love
refer
lapor
jejak
dicoba
box
ingetin
bandingin
least
kunc
money
mulutnya
lebaran
objek
layout
bahagianya
jempol
individu
##less
##kyu
##sar
##jal
##aro
##amantan
##aduh
ngewe
term
siain
kesukaan
abah
isya
##ingkatan
file
diem2
bapak2
ucapin
grabfood
ngemil
sepakbola
##islamituindah
janjian
recommend
ukhuwahislamituindah
cenderung
dj
jemb
mangg
saham
vot
##pong
##rot
##ane
##ague
##ides
perawan
masal
kambuh
adam
##iatannya
mendat
kecap
siapa2
ahmad
##eransi
yahh
diemin
kontrak
cring
screen
##unduk
feed
cium
kupu
nyiapin
password
debu
gx
jong
rin
ven
wl
##gol
##banser
##iklan
##irat
##etnya
berisi
menjual
kerajaan
sendal
peninggi
mancing
##akuannya
##ngan
manusiawi
english
pedih
heheheh
ulangan
pembicara
import
0896
hrus
hiya
pega
deg2an
edoga
##imbing
macem2
pilpres
pinggang
pinggir
jendela
suaminya
ngotot
center
hastag
land
tq
tata
##yel
##tutan
membaik
kekal
mei
tolonglah
##tivasi
interaksi
bulat
kapas
hero
goront
angkot
perjuangkan
badminton
leader
service
menyebalkan
profesional
sejujurnya
ice
lord
most
raj
turu
##son
##call
terlahir
safe
##older
mengab
##eduh
membanding
melibatkan
bersinar
maneh
dilupakan
berdarah
telp
itung
petani
kepadanya
invest
keberuntungan
jenderal
bubarkanbanser
effort
sejatinya
kepribadian
berupaya
34
abaikan
iv
kod
milan
wac
##oom
##vet
##br
diakui
berupa
##aca
pred
shua
keluarg
taon
cucu
diperjuangkan
sby
gereja
pasangannya
rencananya
##bale
##gerak
humor
pengumuman
aaa
aaaa
bini
baku
dorang
hbs
jom
tobat
##elekan
##uruan
##ek2
bangettt
keluhan
mageran
seragam
##anggakan
abi
##hare
keluarin
toba
ibu2
percintaan
tlp
terpantau
##akatau
kebahagiaanmu
bacotsantuy
menyelamatkan
penjara
watt
sapamantan
hahahahahaha
bengkak
dimanapun
seulgi
nolong
paha
yatuhan
##nia
##97
##inum
##emo
##dayat
masyaallah
semestinya
sayap
##atiin
kuda
segi
koordinasi
bebek
cobain
matang
pesona
pesimis
detektif
##feel
budget
menjalankan
purbale
##ematika
sambung
bengkulu
bumn
hyeongjun
pembahasan
janganmaud
purbaleunyi
jang
lec
sumb
sink
##nk
##ril
##ress
##agon
##itin
gaa
mengharga
menguasa
doyoung
##ley
skz
ditemenin
dongpyo
tersiksa
grad
livi
##ribusi
ngebucin
selese
##ense
2013
##urnaan
dewe
taro
100k
rekan
derajat
##ongkar
treasur
##ikhlasan
saudi
##ipecahbelah
janganmaudipecahbelah
fc
hash
jt
kite
mami
remb
##ero
##akeh
##aru
##adaran
aks
##amaikan
takb
mengadakan
kart
keped
diteg
pledis
krl
pinjam
kmn
klian
terkesan
ayolah
papu
##grade
simpel
##enggarakan
virus
tuntutan
robot
kunkermenparkey
uighur
seenggaknya
##56
##angenin
##arikan
menungg
menger
dengki
##eduli
haru
kayu
amarah
atta
sendu
serah
coff
taik
komik
berdo
batasnya
lemak
kontrol
dikit2
selesaikan
maksain
hyuu
rock
ekspetasi
borobudur
mendapatkannya
kulakukan
siswa
boneka
hayo
tmpt
santun
preview
keseringan
dianggep
attitude
edogawa
suhu
ubl
##lawan
##card
##araku
keikhlasan
##ild
judge
alergi
sekecil
##antungan
sug
enek
##ayo
diket
##dhu
manapun
bolos
kating
pesanan
terbatas
suku
bodohnya
woii
ngehar
jerawatan
kapok
idola
wasap
sifatnya
kadar
buru2
welcome
dipertemukan
ngebacot
senjata
berhentilah
capai
nangg
rip
##que
##aming
##agan
ngira
##ult
tere
periode
luv
banser
##iaya
pasukan
##egeri
barunya
suda
kelewatan
##oblok
dibagi
manut
##inding
dimasuk
awan
award
abisnya
##ombongan
kurangnya
##tivitas
stray
menyapa
salty
2017
dinikmati
njing
##imbulkan
keperlu
pecundang
catatan
jadikanlah
penerima
pelanggan
blue
##erdekaan
atu
lit
lob
ning
tunjukkan
##duh
##uw
##pes
##ving
##via
##omah
mengulang
sebisa
bahu
##ontrol
kry
##uuuuu
kakinya
musibah
pacarku
terkena
sejalan
##ahaman
hahh
perso
0878
dinilai
roda
snsd
##untun
pandemi
penjelasan
##pns
winner
cirebon
##tumbuh
mimpinya
##baswedan
##iskinan
mart
vlog
yakan
##pus
##jat
##bulan
##book
dian
diuji
seo
##emuk
menanggung
takda
sebagus
kay
disangka
hidupmah
##anjangan
iblis
yoong
duanya
idaman
jauhkan
terkejut
menggelar
sebabnya
ingatkan
sunyi
here
shinobi
praktek
aniesbaswedan
hafal
sahaja
derita
iba
juli
kgk
mung
uin
##dep
##26
##irin
##ilkan
adab
##orn
master
darimana
diabaikan
##oster
##ative
masalahmu
positive
dipers
tlg
nyamperin
##goda
compl
hilangkan
perhatiin
gaduh
wajahnya
hobby
nasehat
berniat
fight
ngayon
sebagaimana
keperluan
cipta
dora
febr
tara
##loh
##ius
##jian
##akl
##atangan
kew
keuntungan
##ampar
adh
pengakuan
kemerdekaan
penya
tersesat
taat
##erani
poses
terburuk
mempersiapkan
##thn
hahahh
tiketnya
right
permisi
bajunya
audisi
menceritakan
blablabla
kunkermenparkeyogyakarta
banya
dgr
haw
josh
lad
lont
quran
wkt
##sc
##37
dialog
seok
##eleng
##umuran
perintah
seminar
menyi
kecoa
##impinan
taek
##shit
polri
khas
habiskan
hidayat
goblog
##verse
bner
record
relation
legal
##ejahterakan
##ografi
mendekati
sekejap
treasurem
cre
cpns
hshsh
hope
jengk
rok
sangk
trib
##ox
##rop
##²nya
##eny
##alim
##ingi
##abul
##ayar
kemiskinan
halnya
kebuka
kebagian
soalan
bln
kecik
tdur
perasaanmu
push
senengnya
melihatmu
puter
##ition
bangkok
hobinya
pengganti
impianmu
##urangin
##emangatin
instansi
glowing
mengantuk
hyuuga
ais
mit
uyon
##nan
##cl
##elakan
##ekam
perilaku
##ational
membedakan
hiduplah
dikom
bolong
##istik
anjirrr
aneh2
kejer
lihatlah
fakul
kantong
heru
##bersatu
copot
istiq
printilan
memanfaatkan
49
aaaaa
hee
pej
##lihat
##akimi
##une
aktor
ngebut
ngutang
peri
##ego
melatih
menyerang
##embah
agen
duid
hargain
sold
kpn
balesnya
##zza
elshinta
days
transl
berjam
pahlawan
handphone
privasi
lautan
mumet
aqu
hindari
jangka
jne
lic
nal
nembak
rump
tali
##lagi
##tl
##agama
##urusan
memaksakan
banting
sela
templ
melu
kesannya
disetiap
##udar
ish
dipilih
memberimu
bangunan
siapin
ambis
papah
##ikmatan
topeng
nothing
nyetel
mabuk
friends
stalking
kehadiran
rend
##98
##enakan
##umpa
##ungin
##atiba
ales
aduk
melarang
apresiasi
dibahas
##eez
mencuri
yoon
ambik
surpr
panasnya
sungai
porsi
lucunya
penerbangan
congrat
treasuremembers
buruh
cus
kari
kuh
sut
sperti
##ega
##pk
##pagi
##arap
##essi
kenikmatan
embel
kesek
kesadaran
stakeh
anakku
menyukaimu
lalui
museum
10k
yahya
paper
fresh
heuh
come
##anggungjawab
bobby
lulusan
parip
hukuman
mantannya
dipikir2
##wajah
jambi
trusted
menyiapkan
cant
dadi
deb
dob
eyang
fs
mont
ojek
parang
rc
voc
##gt
##arya
diinget
bisa2nya
##bai
kitab
alk
meren
##antar
asumsi
gituan
namamu
krim
twitteran
bangunin
sejahter
menggamb
yakni
umurnya
bercer
reti
woyy
##engaruhi
taeyong
search
niscaya
buaya
persoalan
meg
rasan
saud
##aing
##ugg
##hti
##ornya
##ehehe
##antang
press
apus
##ontak
##hirt
skrips
puluhan
spill
joko
chatt
foto2
berlindung
survi
##epatah
situs
perbuat
piala
ustadz
news
hambatan
lekas
langgeng
##akutkan
fisika
cringe
stakeholder
gd
gata
hut
kob
mot
tmen
##yuk
##jahat
##enah
seumuran
##ido
kalangan
ngal
##uluh
menipu
akuu
alis
adv
kesan
ngerusak
tentunya
ujar
##tron
konsumsi
murni
menerim
udeh
pait
wajahmu
erat
mewah
hehehehe
platform
jancok
##engkareng
gokil
1st
cengkareng
ding
domba
ea
wp
##sap
##122
diapain
seat
##emil
inisi
ngalahin
##bawa
taksi
alih
seburuk
##sigen
setempat
dimatiin
user
buy
kadang2
kmaren
haid
boba
strang
curh
##zzz
minato
diliatin
junho
gosah
##ikhlaskan
ikuti
studio
##elsea
membencimu
shieren
monggo
kegelapan
mengkritik
wacana
bk
lump
##io
##cel
diorang
##iral
berimu
ngungk
##ulangi
tergoda
permen
pemer
aspek
mendes
##anjikan
upgrade
ngev
jauh2
notice
##ksk
burger
tukeran
tweets
##aksana
hyunj
bubble
petunjuk
amanah
mayoritas
bhs
cemas
akibatnya
booking
hasrat
bersiap
ciawi
menguasai
ios
mx
##60
##esin
##dahal
lutut
##entarin
##aiya
kelakuannya
disisi
track
ampuh
terlibat
dipandang
diposisi
pedas
##prot
pendam
berpaling
keje
##lokir
putusin
momentu
market
deras
menyayangimu
menyambut
##idio
shinee
awkarin
hos
ppt
ry
##mata
##net
##canya
##inin
ditulis
seoul
ngitung
anis
banten
mengap
membicarakan
sesakit
thai
besarnya
##angkau
tiba²
enggan
timbul
ajaran
pacarmu
gapaham
dev
diganggu
##mail
##ctv
pantang
tepatnya
fansite
muslimwajib
bngst
ukm
eror
because
tembak
telponan
school
ikatancinta
51b
warnanya
##zaliman
##ibukota
jokowimaruf2019
fakultas
muslimwajibbersatu
55
bca
cf
cah
gent
makar
mapan
rv
sint
tum
wqw
##och
##bie
setaun
beranjak
menimbulkan
##ungs
memimpin
mengirim
pasir
passion
harian
prank
eneg
penangan
step
lahat
##eeet
##angkatan
menghindar
going
telepon
mblo
second
##erjaan
myself
alhamdulilah
psti
shopping
##enggol
tersenyumlah
rapih
type
komputer
webs
ngantri
operasi
wamena
pabrik
transportasi
mewujudkan
tanpamu
ero
hajar
kd
pena
rose
spa
wali
##sat
##yok
##cepat
##fud
ditur
akadem
##olakan
##uhi
memo
memohon
memindahkan
lucky
merhatiin
nyaa
ask
tiens
anakmu
thataan
there
##giang
dipikiran
##istirahat
kls
putra
maksiat
tertinggi
cabang
login
bayarin
koleksi
kepoin
ngepr
ngemis
berterima
chaos
bergabung
orderan
pluit
pegawai
curhatan
ginj
ihh
nasa
oc
sara
##utif
##gua
##suk
##arut
kea
akong
siwon
jugaa
##osikan
belinya
pengharga
pengaruh
pemuda
##sial
manag
soc
##iraan
kasama
spons
games
misalkan
tikus
dihidup
##plin
sedikitpun
yakinlah
petang
##toon
##ahahahahahahahah
psikolog
iyalah
dangdut
mengakhiri
dugaan
thataanma
asi
kih
##sk
##akn
##eber
memeluk
belain
mertua
adi
kelewat
melanggar
dist
disebabkan
##ontek
segede
segitunya
india
pack
konv
warisan
begituan
esem
strugg
cepetan
sales
cry
tertinggal
yesus
sexy
hadeuh
relationship
44
59
cra
ef
ehhh
hti
mantengin
topi
tarian
vari
##pengen
key
ajaaa
##ehan
alum
dengernya
barbar
sebetul
nyep
nyeri
kuwa
tipi
halangan
jamin
sensi
chill
##udzon
ngelupa
pertolongan
carilah
persep
desk
gemini
surve
##pppp
dijauh
mobile
naro
basket
bocor
tercinta
sndri
bright
rutinitas
tertib
vitamin
paripurna
aut
fyi
nun
sasaran
tnt
wai
##eat
##pem
##rian
##yg
##jk
##enk
dilah
seek
akur
##nyaa
inbox
perj
semula
siii
buatan
memben
serangan
##judge
kepan
sayangku
##udung
berbahagi
menghal
syarif
berhubung
siapkan
##ersey
diperlakukan
gantiin
##imanapun
koruptor
gosip
kesiangan
dedek
terngiang
disiplin
mengasihi
5k
ahhh
finan
haa
sump
ulu
wall
xia
##eo
##hawat
##ound
##ped
##tag
##ukasi
berenang
kalean
ngaw
perna
##oku
takleh
mengikhlaskan
selepas
hari2
##ewek
nyangkut
bening
asw
jamet
maling
dikas
mancan
bilangin
koe
manaj
reform
duo
ident
temanmu
##shi
##prov
pulangnya
batal
berlangsung
install
dibilangin
rekening
mrt
garuda
jatim
gorengan
smtown
nyusul
ngestan
vibes
kebangetan
98
aus
mf
moh
rk
tutur
wtb
##ugi
##oyo
##not
##gun
##ering
##isit
akupun
##umum
##ebies
##yaku
mengadu
kesamp
peningkatan
dikenang
awok
##allenge
bawaanya
diperhatikan
heal
balesin
kesempurnaan
mlh
terduga
ukur
risau
global
kimia
webtoon
kumat
dibeliin
everything
mgkn
literally
pembayaran
godaan
bimbingan
pujian
ngentot
februari
alesannya
fer
fad
fatin
hous
##db
##62
##atik
diucapkan
ketuk
berencana
##aria
teratur
##okin
##orr
masang
ajaib
##rick
pram
kemas
loc
chelsea
soon
same
dipendem
cerit
##nyataan
syn
rese
digelar
yukk
bsok
rebus
ruf
tekad
abangnya
mario
bijaklah
cuekin
##to2021
outfit
komplek
own
##kesehatan
kerusuhan
digituin
##ploitasi
membandingkan
krystal
human
jkw
ly
nok
roll
##angnya
##ars
##onok
##esel
siakan
mengam
##aji
apps
dibolehin
mendorong
shock
usern
maapin
pelang
malemnya
sbm
lele
busy
statement
teriak2
laju
public
menjadikannya
nelfon
freebies
diomelin
mdf
bidadari
ngefans
shawn
lbih
mendatangkan
sebetulnya
bc
mangga
nus
pepatah
tutor
##oj
##puk
##tweet
##47
##atapi
##asangka
##emis
##usnur
##irah
##ilas
menua
pertim
memek
##endara
##aluasi
merasuk
harimu
pemand
kemari
##embus
##uduh
bakit
gram
haters
mencintaiku
dewan
bebaskang
tercipta
ideal
najis
##murah
hindi
roadto2021
xixixi
broken
ngelupain
bebaskangusnur
roadto2021liv
cetak
mim
sng
za
##haka
##bpa
##86
##alasan
diangkat
##apatan
##emua
akar
##jajah
mena
menenangkan
peristi
##ehin
##epo
uninst
seks
penila
kanina
beserta
tanyakan
cerai
katamu
##entingkan
terbangun
bacain
nctzen
edan
bobrok
terjun
relate
ungkapan
untk
dibubarkan
gejayanmemanggil
urgent
posesif
peristiwa
bumbu
kyak
maa
nuran
natur
nekat
tumpah
umm
##malam
##mainkan
##akap
##itch
##irnya
ngampus
terucap
##ehendak
##oso
altern
merelakan
subh
pemalas
kelen
ente
kutu
aset
kecerd
dipegang
##erahkan
ngefollow
konsent
0821
lemari
diny
kawan2
tertekan
kebijak
berikanlah
milikmu
party
perlindungan
kubur
labil
bersamaku
fair
diselesaikan
##angsing
jikalau
memuaskan
kapasitas
berbahagialah
manajemen
41
blog
cast
gf
jersey
mga
rub
rawan
ve
van
wgl
yus
##ax
##iam
##roh
##bil
##zer
ngup
##ehatin
##akanlah
mengobati
kuah
penjual
doank
sense
menyia
terletak
skarang
ditangan
usul
brarti
datar
##very
menghakimi
nego
##press
terbuat
oposisi
bule
##ondong
denmark
wktu
kubu
payung
tibatiba
mksd
kedengeran
pembicaraan
hidupmahasiswa
template
hyunjin
kesampean
42
gn
gaul
jing
pahami
tampang
tendang
ditaw
diundang
kezaliman
##isal
bereks
mentah
pertahankan
pernyataan
ank
memalukan
##ept
##araya
alim
##aci
nyali
prep
kesend
assign
stiker
jamu
makanannya
reda
dipenuhi
beber
kroto
oksigen
ngejalan
klin
matematika
imb
diperhatiin
gelak
menertawakan
jeruk
genre
terganggu
marketing
galeri
tatap
urusin
aktivis
headset
gombal
ditakdirkan
eropa
roadto2021livecon
dal
kandang
kumpulan
vel
##ein
##df
##uara
##nanya
diin
ditahun
##apapun
memanggil
##omosikan
amiin
nyele
##elahan
##arahan
konfirm
pertam
sebenar
konsernya
##andai
menggapai
bersamaan
##ensinya
jogging
fansnya
nambahin
dijalani
tulisannya
izinkan
poker
##isipasi
kesalahannya
website
cim
fore
gala
mids
panj
sirik
tump
##jad
##bun
dius
##isikan
##ukul
ngadi
##utangkis
##ehhh
##abil
karet
nyany
##ayal
kalaupun
ash
teteh
bikinin
soek
mendalam
mencegah
sakura
##icu
##impah
toleransi
awkw
dipindah
##encet
bangun2
sadstory
itmp
##arkoba
urang
nyampah
ngetawain
hiday
sinar
##berkah
ekspresi
obatjerawat
kekuranganmu
tagar
perlakuan
tenggara
pergantian
pertahanin
pendiem
pngen
dilahirkan
assignment
kian
lindungi
pw
##dc
##amen
keatas
##isu
##ilmu
mengut
seksi
keringat
##oho
manager
mud
tersimpan
grav
kehabisan
mesen
mateng
setelahnya
senyumin
kejap
gercep
gajah
pencipta
sjw
sultan
##joglosemar
fams
simon
karenanya
2019jokowimarufamin
recommended
wattpad
penghargaan
aga
auth
jed
kfc
ley
tgh
turn
##aq
##oe
##jika
dichat
sewaj
seiring
##ihkan
##itt
##itau
berati
bermin
##ebel
memastikan
##tukar
dengarkan
ateez
##ection
bersemangat
malahan
##icil
##ghfar
terpilih
pantat
##akaian
hijab
narasi
prosesnya
profile
##untungkan
boys
##llll
lauk
penggunaan
visual
ticket
zheng
geprek
style
melengkapi
sejahtera
mancanegara
kebijaksana
nyeletuk
hack
rusia
##eep
##dalah
##dides
##h3
##bara
##zil
##alia
berdaya
menangkap
anim
bangg
buatlah
kelapa
##opedia
asin
stadi
segampang
dramanya
shar
##angkal
##ahahah
##reas
ush
berbulan
airmata
ajh
kabarin
lagu2
kontra
sale
##jsjs
150
nyanyiin
mslh
nasgor
nyebrang
paginya
keberadaan
berkali2
legend
jatohnya
mingguan
gimna
sewajarnya
cd
pdahal
vo
##dong
##pos
##tek
##isasi
yaya
##tick
perasan
tidaklah
unek
tahukah
disampaikan
##alib
##ubungi
dikr
thing
aroma
balon
dipeluk
tersel
kehendak
goal
berdamai
##prec
bagusnya
mempers
menggantikan
sahabatmu
gantian
pikiranmu
##ankeb
barangnya
simpen
##raksi
kkndides
silap
##owoon
sulli
azab
girls
ginian
##laluan
persatuan
ngehargain
48
72
fant
hed
lil
lom
sq
##eq
##90
##ikkan
##adha
menetap
gayo
mementingkan
luck
##eharian
##bayar
##anaj
merangk
kencing
##stem
setinggi
skf
isteri
##olly
pelih
##ancuran
restu
tanyain
parents
##laim
korean
bercinta
kemudahan
obito
##empatkan
efektif
keterlaluan
private
diajarin
suho
klien
pengecut
pastilah
istiqomah
alumni
cub
kids
tin
yam
##nih
##asing
diurus
##emunya
##itisi
inti
gaara
perawatan
orang²
temui
keramaian
ketek
truk
dahal
mendatang
ditangkap
berduka
berhari
pentingnya
tentangmu
##ijrah
##awanan
lewatin
##batasan
jodohnya
renang
ciwi
impor
gmana
##aulama
mensejahterakan
planet
berkuasa
coffee
rumput
pelangipu
kkndidesapenari
2nd
fla
gbs
mabar
prib
port
ue
##hum
##gian
##iang
##sng
##jen
##zh
##zone
##arna
##amobil
##agang
beragama
ituu
alter
nyasar
kuc
##andingin
disemb
aspirasi
mantul
##stop
araw
koyo
##ahanam
##ancing
matian
batang
dewa
sukar
tanya2
habisnya
pilihannya
kejauhan
lepaskan
genap
obatnya
##tusan
umumnya
sembunyi
bersabarlah
##orbankan
hikmahnya
trainee
08564
sewamobil
penanganan
kecerdasan
awkward
ach
jh
mili
ping
paj
wit
##ph
##kadang
##teg
##jub
##akitan
seindah
##engh
##iro
kalok
##imes
##old
memuji
##uaikan
banyakan
denganku
disamp
sesali
tiff
kebelakang
manado
twist
masaya
berkehendak
demon
menghentikan
##encanakan
exam
kedinginan
capeknya
menangisi
manisnya
retak
##rakyat
gadget
ironis
tawar
tawuran
hambanya
sungkan
cupu
foya
boro2
nyenengin
hantam
kebersamaan
merayakan
dikantor
rebutan
jembatan
bimbang
cv
gym
hil
janda
kush
mpr
miring
ulah
ال
##etuju
##mon
##ampa
dilupa
keta
akh
kaleng
##amain
terikat
##ekolah
##imen
apa²
##omo
kencang
prok
apart
disay
things
cht
liat2
##ipi
diraih
pundak
##ancang
dilanjut
mandang
##gha
berlanjut
senyumnya
bergaul
cross
jenius
sarjana
ngarepin
delete
kenapasih
bnr2
mimpiku
kesimpulan
kuncinya
voting
penilaian
hidayah
aur
cen
cix
done
dinding
ec
henti
papan
rit
tlah
tunt
ys
##aah
##wanya
##ney
##bk
diungkapkan
##elis
ngurangin
##tiga
##tay
##otak
selang
nyemangatin
emaknya
melampau
##ayanya
asem
dahh
dibi
shik
shift
samsung
keluarnya
seringnya
butuhnya
lapak
ajang
ily
expect
terpuruk
##ungkot
woe
siklus
kuningan
since
swab
bulutangkis
##ordinary
tekan
busway
##hhhhhh
##ajinasi
##drama
tangisi
##ilafah
privat
manfaatin
earphone
pondok
terpercaya
hashtag
dina
kitanya
lost
lindung
##yen
##cir
##75
##44
##qi
##ats
dialah
diandalkan
##adapan
##onan
##ident
##urga
##pack
saing
##ospek
sekiranya
##edam
pemad
diben
ikl
##ichi
dipaksakan
ngelike
lawa
menjanjikan
berdebat
ngeyel
menurutmu
barangsiapa
mempengaruhi
nabrak
realistis
logis
lingkaran
etc
keberatan
restoran
disekolah
damn
##evisi
ugm
##ukupi
sujud
ngunyah
hidayatullah
kesekian
midsom
bungk
cangk
simb
wag
zod
##lian
##wet
##raw
##info
##aur
##adhan
##agih
##itah
##uras
mengira
pemilih
membentuk
melow
apak
sesayang
serum
senen
bersaing
2000
nii
nias
mendem
andaikan
ditemukan
punten
acaranya
pedul
kabarnya
pendapatan
bukanya
tweetnya
menerapkan
##amaru
membayar
membayangkan
edukasi
##follback
wonu
dukun
dituduh
gosok
lucas
mtk
copy
unggul
ubun
extraordinary
asmara
diketawain
doraemon
subhan
konsentrasi
kebijaksanaan
pelangipuisi
tiffany
46
58
mik
nut
narik
qatar
vag
##meet
##wangi
##ahin
##esain
##amaah
termin
saj
anxi
ungu
banyak2
aliran
kenang
kaito
kajian
kerag
keliatannya
asep
asrama
teruskan
##jualan
besi
ditunda
being
##istrasi
terbuang
pendengar
hpnya
semangatin
##masalahkan
gilaa
terpenuhi
kehilanganmu
tokopedia
haibara
swing
hell
catet
nyebar
##ongkok
ganjil
tajam
nutupin
cincin
candu
singapore
manutd
##tumbuhan
username
soekarno
bara
canggung
dkk
langka
nadi
##dankeb
##pend
##pop
##ruk
##bit
##ak2
kebab
##elnya
akting
kambek
selow
merep
##ewet
keramas
##sip
kesen
serpong
##lude
##anjakan
ditangg
maito
bacaan
matanaj
hatake
ill
percayai
berlebih
proud
##akson
##anggaan
transaksi
skinker
palembang
kendari
ngantor
sometimes
kinerja
##elektual
dakwahbukanlah
pertahanan
##morotai2019
##fitnahdankeb
surprise
gataunya
dakwahbukanlahfitnahdankeb
dakwahbukanlahfitnahdankebencian
bima
cad
fen
hw
jack
kic
mok
nm
s1
##etar
kalanya
menunda
luang
baunya
size
belaulama
sekeras
##aic
nyemp
trag
tuu
sentuh
anjingg
usa
usai
kehancuran
jela
menghitung
mess
klarif
##ombang
umi
pembela
cakung
##hless
sll
siksa
paras
scar
##alisis
tertidur
gemesin
kiper
riset
##www
ngaco
tatapan
##penjahat
##belagus
##inspirasi
menegaskan
##gigit
gondrong
nusantara
belaulamabelagus
belaulamabelagusnur
aurat
comb
dai
dadah
gp
gc
nai
##pari
##zia
##akalan
##yap
dihar
##apres
##unin
##usif
##irit
berusah
##esumbar
ngas
ngoc
menekan
perhatikan
##utra
##asai
pasca
tempe
asuran
##ective
onlen
ibumu
##ooooo
##ancarkan
acuh
##shot
teleg
motornya
sunnah
##coesumbar
##bijak
planning
sekitaran
jiraiya
sesiapa
seviral
lamaran
argumen
insomnia
sprti
jngn
disebelah
launchingcoesumbar
meyakinkan
dimasukin
alternatif
56
bata
dung
geg
ganda
hyo
kiss
lisan
mua
tg
##eer
##dal
##05
diti
##onta
kalender
##ulina
##tie
pertumbuhan
memisahkan
##ampek
bgtu
emirat
kesejahter
kesakitan
penakut
serahkan
stmm
kebeli
mane
nipu
biarpun
##udan
ditetapkan
diminum
grand
members
system
ilfeel
dicer
mudahan
lakukanlah
bagaimanapun
suram
pdx
2010
##banget
tumbang
ulamabukanlah
letih
ungkapkan
nanges
##edule
pemberian
menyusahkan
mempromosikan
marathon
podcast
sinting
keraguan
ulamabukanlahpenjahat
bik
hening
jeng
led
tj
yoo
yallah
##ucu
##het
##bon
##93
##anak
beristirahat
anno
ludah
##pernah
##ohol
penutup
load
tuaku
kebanggaan
muji
motif
naomi
##sssss
bertengkar
bertebaran
##ombok
##ormatan
uring
yeon
pantun
gerbang
tbh
jarum
serupa
mempel
##tianak
faedah
istighfar
tipikal
meresahkan
berpendapat
merenung
socmed
deskripsi
pertimbangan
bcs
fly
gift
jump
oo
raw
raf
usi
##mid
##hob
##bong
##55
##yas
##ikul
menab
menetapkan
akui
perokok
inimah
gaksi
selemah
sebag
##iniin
##andar
##obot
kepal
smg
soo
##icy
koin
bljr
name
sepasang
maf
konon
pelangsing
kateg
ilm
munliv
sehebat
##aaaaaaa
ayana
tanganku
gedeg
dibaw
##with
##ough
yuta
##imaru
lalunya
cemilan
psikologi
ngmng
nyinyirin
charger
krisis
wudhu
ckckck
cosplay
tombol
ginjal
bill
cli
fall
jember
len
lent
ria
##md
##lembah
##papan
##twit
##ring
##jami
##anin
##akbar
##aster
dita
##apung
keingin
##elaskan
##onom
menakutkan
perek
##osok
belaka
atraksi
nyiksa
##tahu
prnah
##pers
sesederhana
##ibadah
tiang
sertif
seronok
mouri
menghadap
##inaan
senyummu
##turut
##enyap
##ories
##entuin
garam
produksi
ktmu
sikapnya
##woon
mindset
manga
nyiakan
header
wamil
##baliem
pesonafestlembah
tradisional
sejenis
sponsor
kesendirian
klinik
telegram
pesonafestlembahbaliem
ble
hbd
mz
nung
ratu
syang
west
##kel
##kng
seimbang
##uke
adain
another
##uhur
gwe
amit
pemas
kerip
kelelahan
melayang
kepalanya
##echat
##indas
blh
dimas
krakatau
berkumpul
dilepas
acah
otot
pembukaan
##eriusan
diperbaiki
leave
forum
bubuk
tungguin
dprd
jagalah
stud
pertanyaannya
madu
penjahat
##ilingi
lalumu
humoris
rangorang
masalalu
yoongi
translate
menggambarkan
seekor
ulujami
midsommar
75
bong
cend
celah
dw
dor
eee
fif
fpl
hentikan
puc
ruk
##hil
##gaul
##ive
##sus
##zo
##yaa
##amer
##ikapi
##eleh
##ukin
ngump
menari
tertulis
##utri
##omas
undur
##ried
nyo
nyant
nyantai
kerib
##oha
paketan
sedia
lahiran
kecamatan
##che
##empet
brian
katain
sangatlah
pembeli
botak
berpihak
ambon
jelas2
yeah
weare
##oriv
office
ngecewain
tabung
buktiin
favorite
owner
berterimakasih
tajir
flashback
ditelpon
didengerin
subsidi
nilainya
manggarai
venue
ngungkapin
uninstall
zodiak
kesejahteraan
bdg
cind
dun
dod
deli
feb
fajar
vok
##mb
##pasar
##kenapa
##receh
##fol
##amba
##unci
##united
##enger
ngata
menyak
inii
##utkan
sebar
sugar
trim
pens
smile
dibully
bersuara
sepakat
broriv
ngelewatin
twitt
dilanjutkan
##ingkuhan
touch
tentara
panda
diginiin
conf
nabilah
ktnya
milikku
pontianak
50k
treat
ngekos
dngan
bersifat
hantar
tudung
ngenes
unsur
ngidam
struggle
nurani
brorivaic
bup
duri
ew
hri
lot
laga
lilin
moto
smu
ww
##dung
##dra
##some
##xo
##ann
##anye
##inda
##atak
diharga
##adanya
berta
beritanya
berobat
saingan
##uting
##ebe
alfam
pemin
membanggakan
keseriusan
peningg
kebal
##ecahkan
twice
ngerem
abp
coach
donggg
dehh
plak
dilap
datangnya
kenaikan
bekal
dimana2
gile
tangguh
tentukan
business
produc
##iiiiii
cikampek
saranin
deres
timnasday
hambar
kunkermenparkekek
hiraukan
likupang
##iwara
emosinya
pensiun
kecepatan
management
kuwait
brorivaicenter
ciptakan
hunter
lisa
less
nimb
upac
##eza
##lemen
##wood
##rid
##xy
##queen
diakhir
##isir
beralih
berturut
menunjukan
terim
oroch
##eknya
perjuangin
bisa2
semarak
##osis
##adaannya
##ewakan
nyontek
pemilu
membeb
apel
disia
sesat
kanker
kenapa2
tuj
dikala
abel
dramas
tuhanku
imag
usahanya
section
jelekin
bull
bntr
cita2
tmn2
efeknya
tunangan
perlukan
defisit
hihihi
ceo
dede
##ecewain
ongkos
operator
aibon
songong
08128
sebegitu
patuhi
joshua
klarifikasi
43
luhan
mna
narkoba
rh
wol
yor
##lon
##galau
##stick
##fh
##adat
##idin
##urd
ngew
menak
orig
##orasi
anni
##ebatan
memul
memudah
apain
sembang
##oshi
##egal
buatku
sebutan
amik
disc
asupan
dikecewain
bersembunyi
##ipul
shoul
tanaman
ngelamar
klop
chatime
kuatkan
diceritain
##ejo
senyum2
0822
wkwkwkkw
cepet2
curang
terhormat
##krongan
dinamakan
ngerjainnya
bacotan
sarung
angkut
aktifitas
##101
denny
bentuknya
##khilafah
thankyou
refl
nyium
wayv
pangeran
memilikimu
ngerepotin
christy
prepare
kategori
orochimaru
dusta
laaa
poll
rb
##was
##entif
akbar
kaltim
ngono
gum
akut
##ajian
membohong
kerudung
sendok
april
sesuk
penda
##loud
dikelas
bersaudara
salahgaul
pulih
ehehe
ibnu
ceritakan
tersembunyi
mesjid
goals
pesta
batasan
terbit
terbalik
##astis
hujat
puterin
modern
price
jernih
garing
##rahim
nikmatnya
mnc
##soon
mewak
gendutan
menghadirkan
revisian
sembari
candaan
cibitung
ridho
ngestalk
enteng
kompetisi
rcti
upacara
cih
hong
htt
ija
jay
jjur
lemp
mestinya
nila
oi
vidio
yow
##lasi
##hanya
##town
##sta
##ria
##col
##zub
##asat
diingetin
##agukan
ana
##utat
meriah
harry
kafe
enter
kui
##ando
senkom
bless
berkesan
malamminggu
brow
tersayang
##arinda
idk
airnya
posisinya
deact
pembunuh
##ewatkan
caramu
##enalin
geram
fanmeet
woyyy
darurat
responnya
stiap
basic
sandi
ksl
telfonan
##while
dihatiku
valid
massage
sebagainya
47
cy
joo
kuhp
nes
rant
##zir
##anik
##alut
##amis
##ikanya
##estion
ngundang
guenya
meneman
##umlah
sajak
diaw
##owkw
suudzon
##ohh
sesimp
cher
sakitin
main2
pinj
date
musnah
##show
joki
gatal
bising
anehnya
menyakitinya
penyemangat
fannie
hakikat
summar
jagung
reminder
tebal
nasehatin
bohongin
stick
pancoran
rewel
##edulikan
sipil
kelaparan
koperasi
keluargaku
waiji
dilupain
shikamaru
ngoceh
pesonafestlembahbaliem2019
keributan
bupati
kunkermenparkekekmorotai
fu
jngan
lombok
mali
tng
walang
##dle
##lit
##hut
##rung
##cmn
##jh
##28
##anam
##ahmi
##ako
##arget
kewar
##eld
##itor
berucap
semisal
##ongg
menguntungkan
meraj
mellow
disalahkan
kemeja
trit
##kuy
dikumpul
abad
arus
mencukupi
##ungkinkan
namaku
req
cerewet
##ogo
##empuh
##ombolan
sukab
jeda
bukas
bukit
tuker
menggel
##anjutan
soleh
buntu
surel
dekatnya
comel
##alisasikan
##keun
kapten
gaperna
dariku
tsun
mamam
##eeeeee
irene
justin
msk
ngadu
##2236
menjadikanmu
karawo
nganter
meanwhile
nadila
bandingkan
gimanapun
homo
fahri
dibohongin
house
085642236
dihargain
abpbh
dramasweet
should
085642236122
95
dorm
pati
sag
##ever
##lom
##hub
##wer
##will
##rin
##2kan
##ben
##08
##akunya
##atus
##elat
ortunya
##aindonesia
taktau
##endy
##ampion
kayo
kemarahan
##ibadan
stlh
dibutuh
##indu
##stage
shoot
settle
krimin
berkarya
dilalui
acak
kurasa
berdiam
tenan
mandarin
other
text
mempermudah
kenalin
confess
gedek
wei
instr
evaluasi
gerimis
goblo
emosional
terjangkau
berjumpa
hits
sarankan
dosennya
adminnya
menyelenggarakan
grabid
denda
etika
popular
testi
sensasi
sungjin
urusannya
##echul
mulailah
menyembuhkan
lowongan
##titusi
##dreams
pelanggaran
jihoon
senkomcmn
cuan
doll
ess
fig
handa
ich
pks
rn
squ
##uasan
##gia
##ple
##kat
##rag
##67
##5f
##erai
ditab
##apnya
##ella
##olok
lagi2
memegang
untuknya
nyapu
##egon
temu
pengkh
##andakan
haruskah
##stan
##ict
ngelarang
duniawi
menjalin
deal
keselamatan
bareng2
heechul
kantin
maret
jerman
kahit
hakim
##boi
maskerwajah
tomohon
peluangusaha
##7823
omongannya
smartfr
training
congrats
menghalangi
##cirebon
54
900
fikirkan
gadi
jau
pie
##lung
##py
##pal
##bangkan
##tusi
##iknya
##days
##et2
beribu
##iduk
ngn
##oknya
##orter
##impa
memendam
memicu
merawat
##acu
pemikir
melekat
apbn
ketikan
##stream
mahluk
##empatan
pelampi
##intir
sport
polo
ayem
berpegang
berpengaruh
sokan
jatuhnya
fraksi
kehidupannya
keji
promise
monster
ngedeketin
berjodoh
ketidaks
mamaku
ptn
finally
divisi
speec
apply
leha
gugudan
kukira
##707823
commuter
johnny
bandarq
mengapresiasi
tutorial
beberes
##argetkan
senkomcmnp
##70782354
fyp
hny
muat
nau
sindir
vip
xde
##mak
##mate
##ware
##rut
##tually
##engahan
masya
memungkinkan
semasa
##angannya
sig
##tuku
alangkah
ads
nyerang
apprec
dises
disyukuri
##anggang
indie
seputar
maag
ngelawak
##ancis
pertengk
skrang
umbar
hatt
konsumen
tulah
diperk
sok2an
##undur
adeknya
paan
##ellow
nongki
baso
silatur
kolam
macetnya
##ought
gangguin
dagang
nenen
diselingkuh
mosy
mentang2
workout
##abijak
sotoy
looking
hawanya
bercermin
ngejalanin
asuransi
clean
dorong
gust
hnya
manggung
nentuin
od
ojo
soh
tari
zoom
##kamu
##cap
##65
##aktif
##akyat
##eneng
##ality
kekan
##isnis
##ony
beribadah
##ekas
yaah
periksa
memenangkan
##eplay
ung
##osss
##persi
##ambar
kebun
nich
##eeve
##ical
kog
samarinda
ikut2an
iyain
##istem
wkwkkwkw
klakson
oty
image
gara²
kontrakan
##ungkap
dijelasin
ngehalu
ngehina
pizza
gmf
watak
daddy
##jakarta1h
komplain
##9292
##543
tirmid
chocofitjakarta1h
kemanusiaan
steffy
kandungan
rules
tunggal
081289292
memudahkan
chocofitjakarta1hq
081289292543
700
dd
fle
glam
jal
jeki
jahanam
ksh
lonc
np
pog
reli
wi
##treas
##red
##bud
##7ed
##angayo
beria
##umel
##uha
selam
seleksi
merantau
sebong
jangan2
keliru
server
sedunia
##arankan
dikh
menyikapi
satu2nya
setara
palingan
separuh
bra
tetapjokowi
##ujuk
influ
dicek
heiji
dihari
ttep
##here
dijelaskan
##wijaya
mrka
flat
cikgu
kepergian
tebel
tunda
latar
indonesian
ditungguin
bwt
linek
didenger
hendaknya
prediksi
nanggepin
persepsi
terminal
##angayoalas
aura
cma
fp
landing
pangan
qt
remp
ranji
sambut
tend
yuri
zara
##uit
##ove
##rem
##rih
##canda
##ergerak
##empa
##esti
##esarkan
##uro
ngangkat
perusak
##olahan
antusi
jug
banci
mengancam
baris
sihat
##owechat
##ajukan
##awesi
tra
cook
mint
dipahami
jdnya
berbanding
twiter
membernya
old
laz
actually
tele
klen
their
ambisi
dihitung
gemeteran
##akaowechat
satpam
barang2
tb2
buluk
ekst
##faatin
player
playboy
merindu
boyfriend
parkiran
gembel
didalamnya
##kkkkk
beraktivitas
ghosting
intelektual
##maug
wannaone
hijrahmen
cashback
dihadapi
wiranto
ainun
##emangati
clear
51b7ed
melampaui
berusahalah
##willb
linekakaowechat
51b7ed23
centang
eth
gasa
hood
lengan
nurun
ntb
pit
yat
##ei
##hin
##gatau
##cot
##ahasa
diusah
##adik
beredar
##oram
maut
anon
anark
seller
pret
sesulit
manusi
sho
saman
dipuji
pelat
gabole
cariin
bagus2
ambulan
wanitanya
menggoda
pilihlah
sllu
##eday
yaudahmaug
##laah
haii
content
garut
gold
wasit
migr
ketinggian
bonceng
tagihan
sulawesi
huff
nganterin
konsepnya
everyone
dcquotes
shipper
berteriak
khilafahwillb
##licious
collab
perhubungan
wedding
gejala
akademik
health
konfirmasi
subhanallah
membohongi
summarecon
sukabumi
pelampiasan
speechless
##treasure
khilafahwillbeback
ax
code
git
gerin
holi
kri
lma
nunda
pki
rute
tinta
yoh
yog
##ln
##ution
##pok
##jib
##vs
##erf
##aramu
##atat
##atisan
diup
##unga
##jaj
menaw
ternak
itu2
mas2
memasak
mengorbankan
alf
adap
tempo
sihhh
##andu
bahawa
paks
kekhawat
menyatukan
##anjian
puluh
awali
pelihara
berkep
tao
pertengahan
utamanya
awal2
terbakar
##awatirkan
lohh
hapal
sahabatku
ramadhan
dihujat
ttd
pantau
##ujuislam
bercakap
perbanyak
very
rekor
pegangan
lebi
hitungan
skink
##biasa
tyda
tunai
pngn
bambu
##operasi
liriknya
praktikum
merindukanmu
beranikan
berkomitmen
mematikan
rembulan
##lihatkan
month
chattingan
survive
velvet
##zubillah
dramasweetdreams
hijrahmenujuislam
hijrahmenujuislamkaffah
bni
ced
daj
jp
jim
lewati
pew
##dat
##uz
##weh
##oard
##key
##case
digaji
kelah
##ihhh
berilah
##idol
ngart
ngene
ngangenin
##uld
menel
orangtu
jua
mengaw
merapat
paste
nyenggol
membakar
kelam
melaksanakan
##alif
asdf
kepencet
pulkam
dipotong
krit
spend
begitupun
bukunya
ayoo
beda2
##lychibi
digantung
kebawah
##hoon
heu
anteng
plisss
##ations
openbo
duhh
ayahku
potongan
staf
tanggungjawab
populer
sekeluarga
kemenke
cair
tongkrongan
cicak
##smtown
titipan
hindia
mahasiswab
wewant
attack
inisiatif
ngeprint
tuntas
pertengkaran
jnt
mec
nara
rw
rawat
sank
ted
zomb
##uno
yaaaaa
##ors
##imah
analisis
semangka
##apainya
sije
takp
selebih
biasakan
alon
barbie
apk
tro
diker
anjink
terlintas
beginian
dug
gros
syuting
##ingkungan
bertau
resik
yahiko
##ributor
wann
cantiknya
usahamu
nganu
deser
murmer
yeay
insta
ngakunya
##resif
lanjutkan
bubarin
##jsj
ajakin
relasi
loker
meter
dngn
##itraan
pergilah
muter2
absurd
refund
pelan2
maknae
santet
##syariahkaffah
mingyu
molor
##mhijrah
mengharap
cucian
ketawain
mitos
momentumhijrah
wqwq
rkuhp
merasukimu
leyeh
menyaksikan
christychibi
##hutla
##persija
tirmidzi
momentumhijrahsyariahkaffah
cile
genggam
hana
jon
jajaran
oshi
ozil
pimpinan
ront
sarang
wendy
##mart
##dis
##kut
##anku
diwar
keong
berurusan
ngus
sawah
##ebob
banyu
siaran
mengurus
harm
membatasi
benih
apes
teruss
penolakan
kebalik
nick
padal
mutiara
tanam
pacarin
ong
keluarkan
angst
brain
bagi2
warteg
##peo
sejumlah
bisakah
hargailah
##umbang
bandel
hahahahh
dihina
kesalahan2
yakini
##menit
majalah
ayahnya
##unting
donat
penghuni
sikapmu
moveon
ciee
tabah
syukurilah
tebet
watch
dicintainya
menjauhi
ungkapin
apple
dimanfaatin
cilegon
syaratnya
##alihkan
najwa
didiemin
mengagumi
nolongin
berminat
peliharaan
pemadaman
ilmunya
bullshit
selebihnya
eid
fh
format
kick
paul
tew
##euh
##lb
##pura
##²in
##ϟh
##enye
diap
##elang
akeh
berilmu
bertiga
menanyakan
terf
##utih
baikan
##otanya
##ampok
meratapi
##aaat
pengajian
##active
nyicil
pra
kutip
trik
##anggih
ismail
##angkaraya
gini2
once
##ancara
musuhan
daily
spek
airport
bertep
cukuplah
##ersatu
bawa2
usahain
mudahnya
##ejolak
##ential
##212
##ungguhan
##ayain
terhindar
putar
jahatin
dino
edisi
mutlak
tindak
tampilan
njirr
kuburan
cawapres
episod
reward
mimpimu
##enario
allahuakbar
mengkhianati
cebong
rayuan
direspon
seriously
sariawan
investor
stranger
esemka
fenom
##onomian
pendaft
mewakili
dibutuhin
hattori
wewantkhilafah
dol
haaa
kana
lungkot
yutup
##hip
##yung
##akkk
##ison
##agihan
##elap
ngand
menemui
menempatkan
##ekusi
memel
baba
bangku
alex
##ental
kerap
kesur
dikampus
bersandar
draf
pulisan
begin
sakiti
kredit
berkaca
malam2
dilindungi
ahok
##istensi
ngejudge
warkop
##promi
ump
depa
kedatangan
pendewasaan
jeong
botk
inflasi
berpikiran
haq
jaim
repeat
ngebahas
riya
surya
korek
mobilnya
eksploitasi
petir
persij
tubuhku
palangkaraya
pemainnya
pilk
##eheheheh
dicariin
ss8
trigger
empati
mengerikan
stadion
flaϟh
kepalaku
120
eek
fail
gni
hg
hist
layang
mjd
neb
nebak
pudar
rangk
ranc
sasa
walik
##cca
##boleh
##766
##100
##arain
##atah
##aton
##engaja
ngilu
diawal
mengenang
menguji
mengundang
mengandalkan
amalan
##owng
suck
haritu
nyaris
pemasaran
##iate
tahaj
bahasanya
##awin
disalah
##ambung
malming
kepuasan
20k
dress
sher
direct
kecand
maem
naz
konoha
##lier
mandal
##osiar
usahakan
supp
##hlist
##hoax
otakku
##diam
##ueue
dinner
statusnya
luluh
kapit
santa
gajinya
question
pecel
kompak
payment
sekelompok
dikelilingi
singkatan
selebgram
ticketing
anterin
ivan
perjanjian
client
kekhawatiran
1x
balan
camp
cud
kind
las
lenyap
pian
tkt
##pur
##panjang
##sis
##jil
##ves
##emahkan
##ago
##onee
##ukainya
##ilannya
##urahan
teroris
pemahaman
princ
##andong
disuru
trade
sedari
james
dibakar
dikecewakan
reason
##ogan
##imuti
berka
ngelawan
ngelive
wkwkk
gapeduli
didukung
khan
berlatih
seorangpun
urut
##herbal
2012
crita
##kwkwkwkw
sinergi
drive
terdalam
pameran
buang2
remuk
berfungsi
bayaran
yourself
2004
lawanya
hambamu
dcquote
geser
traveloka
hoki
indosatcare
taekook
jengkel
disayangi
anxiety
mempelajari
gerindra
2k
egha
kyu
latian
msi
rol
radi
rakan
rate
rewat
sit
xx
##dutan
##pil
##sum
##rti
##41
##inn
##asari
##unikasi
##aulan
##ising
akad
##urung
##ekatan
##kanmu
guepersija
taken
alas
merencanakan
sekilas
##rioritas
ketagihan
2024
menyemangati
blas
##udukan
samar
samud
kristen
berkenan
##your
kasir
lapang
syari
komisi
akuntan
ilusi
didik
kedewasaan
caraku
jelaskan
yakk
rpw
turunkan
moodbo
##yber
sia2
##emenpar
x1m
mbak2
udang
great
##enangin
pencuri
nafkah
##onsumsi
dennis
epic
refresh
explorationinjkt
minions
schedule
income
unggulan
##festival2019
gibahin
lngsung
dude
##screen
sangking
menerimanya
finansial
handayani
steffychibi
religi
antusias
berkaitan
600
eric
fk
fas
fana
ij
jorok
jessi
khat
nay
ritu
rich
sind
tup
tsel
tjah
viny
##hid
##tom
##sp
##bg
##68
##fak
##ahlian
##enalan
##inet
##arg
seutuh
keahlian
##agara
akak
##etweet
beroperasi
teras
memaks
kamulah
adm
##waan
membagi
membangk
pros
maging
gituuu
bersab
##eeeh
iss
maz
membersih
##intan
syok
carat
ngebantu
konteks
wishlist
gantengnya
ngobrolin
nex
tegang
borak
donor
merasakannya
##iiiiiiii
provokasi
gambarnya
pecinta
jarakpun
gendong
##untuksiapa
freak
jilat
2019jokow
mempertemukan
cwek
gorontalo
memotivasi
kihno
identitas
ditawarin
gravity
##pariwis
weareonee
skinkeran
ngartis
kemenkeuri
kesurupan
5a
bd
binder
gom
hide
jod
joy
kib
nder
number
rika
sukur
##dem
##long
##oja
##paper
##vv
##64
##qa
##ang2
##alal
##asam
##apas
##elawan
##espa
menangg
anal
unbox
alice
alfa
pengendara
pemes
##andi
##awang
##ambon
##ambyar
loyo
halim
tuiter
##jug
thought
soul
direk
begimana
##ckc
pler
tersangka
syurga
jauhin
tell
chatting
gamungkin
##try
sben
salsha
paris
dijemput
elit
100rb
siny
##keu
banggain
sister
pencet
bedak
bedua
penggemuk
tuntut
metro
ngeship
bhw
##ovasi
rumor
ancol
gembok
minded
destin
minggir
checkout
cicilan
ngotak
dihatimu
##world
little
vocal
yusuf
x1members
weareoneexo
djar
kow
ode
puan
pnt
rud
s3
vn
wik
yon
yey
##hak
##ward
##kaya
##42
##akuk
##amun
##engi
##iron
##arius
teringin
perger
##taz
##orsi
apaaa
semper
luffy
##edo
nyimak
makalah
kesungguhan
sesudah
##uture
halte
kebon
wakakak
onok
masa2
cerdik
koneksi
##taro
berhadapan
matil
devel
kembal
sukak
jeans
kurangin
imajinasi
andalan
ombak
hahahha
tanganmu
inspir
##dies
motoran
salim
monsta
membaw
hebatnya
kelar2
ippeo
ngedumel
ampunilah
##syen
kyung
nyetok
roma
mengenalmu
hanbin
pergaulan
kutemui
##endahin
found
maki2
##ubungin
mengembalikan
dihadapan
huhuhuhu
referensi
penyayang
alkohol
scarlet
commuterline
##erfindo
pendaftaran
kecanduan
5x
bongkar
cent
gdm
hans
kta
mnt
nc
nuh
nuduh
uud
yag
##law
##pink
##block
##angit
##aras
##usuhan
##ekali
samaan
lagiii
judes
##upsi
alus
karhutla
adel
temlen
sudir
pemimp
emm
kelamin
kutuk
kemar
asisten
dibentuk
tho
twi
menyimp
saksi
namin
##uuuh
masukkan
kakaknya
ups
negative
bangunnya
terkabul
mempermasalahkan
botnya
##dulikan
nikahnya
##allahu
gelud
##unaikan
galauin
monas
ketawa2
kondusif
tertunda
##weuh
sekitarmu
bersih2
irit
kompas
wkkw
perdamaian
robots
yawla
sumatra
dangdutan
likes
fangirling
gonta
gonna
kerusakan
mengkhawatirkan
rule
comingsoon
mostly
licik
survey
##abilaa
##ollywood
apakabar
cadangan
keinginannya
alfamart
semarakfest
hoodie
sijeuni
rewatch
bersabda
salshaabilaa
aelah
bitung
cid
fri
hens
kandung
leng
los
pg
##dek
##az
##nnya
##nama
##teng
##rap
##zing
##yama
##asalah
dias
difollow
keyb
##iket
##engat
##engerin
##ire
beragam
berjuta
mengucap
alone
sebatang
pemalu
melody
paku
disatu
kemend
trakt
penantian
##cafe
koko
berserah
##ipin
ara
arek
arisan
dramat
dragon
pulpen
diputusin
negar
spm
spong
spot
knal
nanya2
cake
nikahin
ngebatin
frust
kehidupanku
##ashop
##krim
##aksel
nctsmtown
##ities
gado
idupnya
angkasa
remeh
tsm
tangina
subjek
gebet
mayat
kulitnya
disitulah
handle
winwin
luput
kumaha
intel
absol
cupsl
tepuk
bengkel
gugur
difase
pict
snapgram
tangisan
zonk
egomu
paripurna16
dikasur
mafia
perekonomian
sticker
diselingkuhin
loncat
bohongan
foc
kil
kga
kua
##vor
diad
ngont
ngenalin
##ekang
sayo
mash
belagu
pengaw
##acy
nyeritain
bgini
##inggg
kesil
tuhh
kembar
##ubuh
##atuan
dikosan
kekalahan
satu2
tahunnya
mudik
setel
awam
dipaks
rumahku
gaberani
dilad
menjag
kangenin
kabel
fotoin
dideketin
exper
imbang
ambul
dicapai
gilaaa
mytreasure
left
bablas
medi
mentari
bppt
pencitraan
administrasi
keterp
rumus
kwn
manfaatnya
radit
pisau
hokage
savek
secepatnya
closing
menghargainya
##ugiin
natural
ijazah
gusto
holiday
denniserfindo
seutuhnya
keyboard
cukur
eta
hur
hii
kama
kckc
lm
lamar
ppl
rantau
##weran
##sur
##cor
##bagi
##bener
##yad
##apah
##autif
##emaskan
##adam
##elain
insha
##irakan
##esok
##esco
meni
menimpa
termurah
yaiy
kamus
menghir
mengumpul
selayar
hariku
##aju
pray
kesombongan
##awati
kemac
seram
##yangin
doy
jamannya
temen²
manual
ampuni
indosiar
skolah
blng
ditemani
isa
##arahma
sepertimu
balikpapan
##ingking
berdampak
klasik
##ttttt
101
sejahat
secantik
rinduku
confirm
##nias
##enalkan
moodnya
pindahibukota
renajkt48
ilmudc
silat
iron
##ongkong
neko
eunhyuk
durhaka
##rrrrr
jancuk
pendiam
pekanbaru
jiwaku
083870782354
dipelajari
rezekinya
dikuasai
kartun
##htiar
yeonjun
mosyans
anarkis
kelahiran
bertaubat
mandalika
sinyalnya
djarot
800
giat
jomb
jaksel
nari
nusa
oy
ooh
risik
##ree
##cil
##6ix
##09
##fs
##aled
##asuka
##unkan
##ikk
##elo
##uknya
##ilanjut
##esek
##esai
##urity
ngo
perman
##otkan
##abat
##antren
##wayat
##owk
pemeran
benef
kelakar
kelupa
apik
pakde
disimpan
tren
penamp
dibiarkan
anji
short
minit
begonya
##impilah
bear
plong
bug
berkeli
nangisnya
uptweet
depanku
##ujin
gapenting
berpakaian
##tahanin
0877
beratnya
kehilangannya
pindahin
pleas
rekaman
##amin2019
##imanalagi
astagaaa
topic
ipk
sisimu
sebelahan
gapercaya
sumur
reality
hitung
penggemar
tmc
##bdjarum
gbk
mempercayainya
literasi
taeyeon
ricuh
searching
jokowimarufamin2019
##pasti
hosp
membenarkan
banggakan
voice
matanajwa
menabung
fenomena
walikota
dipaksain
53
bep
daku
dare
esa
lebat
rama
sans
waduh
zzz
##madi
##mode
##lg
##news
##gant
##pati
##ijab
##char
##bye
##anga
##inci
dialami
ketum
##tukan
##esahan
##ulik
menantang
##imalkan
##ehwan
##ainin
takyah
mengid
bangeet
##ativ
##ege
##entea
nyentuh
dibeb
##stik
ngerayain
terlupakan
##ahahahaha
mainstream
##2018
berkh
brisik
ngelihat
ngelepas
##life
butuhin
##orea
pedang
ilfil
##sesi
mbk
##raf
##ijakarta
tulung
suppor
ngebet
##aaaan
##aaaah
##grab
kerasnya
gerombolan
islamsol
donlot
lembek
quality
jateng
tinder
playing
militer
diantaranya
##struk
5000
prefer
mampos
mematahkan
hopeless
heuheu
skripsian
bersiaplah
forever
##arnav
##etujui
tujuh
smartfren
poloqq
pelatihan
yaudahmaugimanalagi
cileunyi
persijaday
membersihkan
2019jokowilanjut
focus
ambulance
berkeliaran
db
eeh
hug
hepi
lop
lfc
nusuk
ost
vers
zam
##lr
##uo
##hwa
##kab
##57
##alti
##alikin
##amamu
diikuti
seadanya
##apar
keasikan
##iso
##elle
##ilnias
##eset
##urah
ngag
ngode
saf
##upport
##abond
tauu
makmur
makcik
maknanya
enam
##ander
trafik
asn
penjualan
stre
temen2nya
##aransi
bersik
menyuruh
mencium
sky
blur
pelarian
berkes
berkawan
ngeles
koment
kangennya
##erspir
suporter
kostum
hujung
kejelasan
sure
salju
##krut
##entuan
present
marilah
sarap
lembar
melupakannya
kekurangannya
jepit
ngejaga
##wwww
ptg
dtng
nape
tepi
sirna
cilok
##usinegeri
kemanapun
nobar
berprestasi
qurban
##hrs
tunjukin
dibangunin
eyes
ragil
tingginya
widodo
##alokarnav
gorontalokarnav
anisarahma
pemandangan
nimbrung
dajjal
moodbooster
islamsolusinegeri
##ilnias2019
gorontalokarnavalk
cet
future
gif
khh
pir
pho
tgok
wad
##mek
##a2
##nat
##nect
##sara
##vd
##94
##zu
##emes
##urai
teramat
terancam
terlupa
oren
orange
bisaa
kalopun
##adig
##endali
sell
sekolahan
##aib
pengurus
nyol
nyarinya
energ
melemah
distro
serikat
samperin
twib
mendidik
arth
segen
dititik
dimat
usakti
bujang
agamanya
##yoon
lion
bertingkah
joke
telapak
pembun
menggebu
urat
kebaca
##unjungi
fren
gelaran
kpi
##grah
rame2
agaknya
##sual
buleleng
simpati
petasan
snm
ekor
greentea
genit
ikhlasin
fanboy
flower
gaje
##izinkan
jajanan
kader
##iteria
keterima
sapu
saputra
perdana
##kkkkkkkk
ungkap
tambun
tontonan
cacat
runtuh
charge
tayo
gurunya
sasori
felix
mahasiswabergerak
tewas
plered
pergerakan
hensem
kesilapan
kemacetan
kelupaan
gorontalokarnavalkara
7000
bim
canggih
d4
duar
lv
lala
nim
ring
rain
tangk
wass
wadah
##mes
##sn
##syat
##cuma
##72
ketutup
##itungan
##engalaman
##ird
##ether
bertar
ngena
##olol
ani
memecahkan
banjar
unfol
##atic
belasan
##antas
barisan
sudi
##idupan
apatis
##ambang
trail
penipu
tuamu
##ecat
##dhy
tweep
ngerugiin
ab6ix
##luv
argh
shut
##uarakan
##uden
dituntut
##impikan
beautif
dimaksud
dema
menghambat
sadis
telan
infob
bisyar
amber
jaehwan
tuku
gunain
hapenya
##hout
minumnya
gagah
kegemb
##ground
instal
datengin
##undry
kudet
senangnya
teks
ngehate
pcs
editan
tambahin
menyesuaikan
remehkan
tubuhmu
typ
bayik
youtuber
daddies
sensor
duren
kenape
keringetan
audit
wrong
emoji
cerminan
##vention
victim
dibohongi
berperan
ngrasain
company
xiaomi
denmarkop
botkece
bx
damp
ign
oot
yong
##over
##gon
##teluk
##cit
##jw
##bp
##76
##61
##34
##fashion
diare
##onde
##itment
berny
menjabat
terob
akuuu
yaamp
##oreng
jubah
uneg
bangkrut
membimbing
kerind
disep
disimpen
disney
kemakan
##ibet
smbil
champion
two
menyiksa
##nyta
sakin
sholeh
diread
sklh
ditarik
##alaba
tersebar
laah
kurir
goa
tentram
matre
batam
sehabis
rindukan
##ptn
slh
##ungkiri
sulitnya
##krimin
albumnya
boring
##hhhhhhhh
greeting
control
mantau
180
kolom
##itungkan
which
kompor
yuuk
##incang
keberk
ngambis
friendly
showcon
label
nagato
larinya
ketulungan
menguras
traveling
ngayal
wawancara
cipinang
xixi
culture
lepak
seojun
penaw
ngawur
kushina
peninggibadan
appreciate
##rioritaskan
tjahjo
unboxing
cupsleeve
yaiyalah
risiko
##telukambon
csy
eug
fung
horm
jelah
lond
ntu
pff
tisu
vill
yw
yap
##eul
##mal
##oin
##gunakan
##kalau
##core
##crib
##angatan
##angsa
##agar
berju
berangg
saint
persa
##orkan
##order
memainkan
##asailnias2019
##oth
mengatas
selal
belas
belikan
alq
##acker
eman
##opat
troto
kebing
dibunuh
manch
##anjir
shah
setakat
setrika
skenario
sepuluh
pling
krik
tersadar
nangis2
menghujat
##ffer
##encer
kompromi
kntl
umroh
marahnya
bisang
sabarnya
gunting
kontribusi
cons
salon
ngetag
puja
kudus
rekam
mulutmu
##room
transit
mukul
tabut
virgo
becus
izone
madura
milenial
resto
rekomen
365
homes
nobita
folbek
speaker
rangkaian
husband
disertai
graduat
ngevote
wallpaper
mengutamakan
apartemen
dibiarin
##amerkan
original
gasabar
sanksi
resikonya
membangkitkan
5a766
spongebob
pembunuhan
kegembiraan
cg
hwang
ler
lini
odet
qui
shirt
zi
##nyak
##pilih
##vy
##bum
##buck
##anain
##unce
##isha
##irez
berbaik
##jay
menangan
peroleh
tidor
##yakin
siih
mengarah
##arab
##endaki
temuin
pengerjaan
keruh
kerupuk
kemul
sesedih
magernya
##erindonesia
stories
gitu2
doamu
tetes
tetangg
dikemb
menyukainya
ball
dirawat
blank
langsing
naon
takutkan
konco
kmna
engap
##001h
ace
pedagang
warni
panutan
pansos
malesan
mempermainkan
berlian
kuliahnya
gils
persamaan
mudahkan
##timbangkan
bergel
kejelekan
##jiwa
kesalahanmu
woiii
##ostal
koran
##aksin
datengnya
##kwkwkw
teguran
psy
dokumen
kapag
sosoan
##jarakan
golput
pesonasailnias2019
rapot
ngegame
musiknya
dipakein
tkut
wonwoo
menjalaninya
nyebarin
lipstik
winter
##tention
ep5
redha
tembus
sungwoon
becandaan
kompleks
softl
nyusun
menyangkut
maiyah
konsultasi
gandengan
elektron
tqh3
vagabond
hyoyeon
lentera
bleach
student
dikhianati
pindahibukotauntuksiapa
kerinduan
kebingungan
manchester
tqh3001h
aih
buh
bash
cegah
eye
fon
femin
formal
mub
pakar
psi
parti
ting
urip
##gat
##kec
##tidak
##spot
##rup
##jikan
##xq
##ford
##angen
##alihan
digigit
##emana
##adh
##adis
menangkan
menandakan
saiki
perumah
##orobudur
unyu
mengu
##abbas
mele
##obin
penikmat
kokoh
kepon
blunder
##angkutan
##hatabbas
dilantik
ahad
kehangatan
belajarnya
jokoan
siapakah
pesantren
otp
malesnya
kedok
mbanya
##ingankan
hadu
namain
##illahi
ruas
salting
pdkng
bermimpilah
kampanye
balesan
senggol
##anyikan
perutnya
jane
shope
herman
netral
##ancurin
cabean
anyone
gender
250
somad
taehyun
##strong
azam
gigih
##urnakan
blackpink
formula
chenle
alurnya
kwave2019
kepedean
kobam
##ungsoo
konveksi
nyanyian
hedon
smuanya
banyuwangi
bersikeras
gorontalokarnavalkarawo
##irezim
jokoanwar
96
ata
citra
cwok
eb
easy
fest
gib
ihhh
juk
jyp
kth
nenangin
tingk
yal
##eve
##ux
##oyou
##suka
##rk
##cat
##ating
ditim
diikut
##apet
##unjak
keadaannya
##ikom
##onk
aki
##irr
##etapan
menunjuk
terendah
terdiam
peringkat
##oki
##orawi
memus
selucu
alamin
karunia
pemprov
membi
melanda
melimpah
trem
##obia
ashar
kann
dahla
hallow
##anggg
diblokir
dikep
bersenang
chin
benernya
segel
shani
direm
##udu
##ahahh
bey
been
mahar
susuk
kriteria
tersulit
grub
soale
jele
laba
mesum
macan
berhijab
battle
didalem
pendem
pembub
bukain
memperlihatkan
dicap
mudah2an
scor
hamzah
tvxq
##ufuf
happen
snack
idolnya
jagorawi
kiriman
gambaran
progress
kupikir
artisnya
milk
##iringi
perdebatan
aplikasinya
##cerdas
gulf
tepar
running
menjatuhkanmu
rasisme
tertipu
jokowik
period
rasane
space
mksdnya
pokeronline
##ospeksi
merepotkan
pemasukan
##hanyagant
entertain
cedera
wannable
jodie
sudirman
frustasi
##erspirulina
tweeps
odetoyou
##hanyagantirezim
1d
52
bont
dee
fes
lps
nendang
nangkep
ooo
pung
radang
rasional
sungk
sahabatan
yup
##dari
##arus
##amau
diumum
injak
##eth
##eser
menetes
menargetkan
itukah
##ornas
##ebas
memun
semang
selingkuhan
##ampuni
barca
pengant
pengikut
##acha
janganhanyagantirezim
bgtttt
melip
##ingguan
kesamb
keteg
disingkat
##utut
terus2an
sedul
kebes
bener²
menye
menyatu
arep
mencetak
##angkangan
beom
##uliakan
##uliahan
ustaz
buaran
terburu
jawapan
##artikan
berpol
menggenggam
##antuyy
bergejolak
dihilang
##ppp
##hero
evil
monangis
urusanmu
eksis
terjalin
flow
international
goodnight
cemburuan
razia
deputi
berfa
firasat
catat
##uuuuuu
##wakilan
camera
katakanlah
##jayaan
hhhhhh
anugrah
tapos
kelemahanmu
menyangkal
jemuran
##enjara
dibubarin
##work
maraton
sepatutnya
kepanasan
austr
without
pemilihan
vokal
pensil
nabilahjkt48
mengumpulkan
hospital
5a766cca
cukai
rendang
tgg
tunduk
ubat
wd
##dom
##lod
##nin
##rise
##yuu
##jas
##jkl
##zed
##fu
##akaka
##alp
##yasa
ketab
##oner
##engek
##irannya
beramal
ngiler
##ulus
menengah
##dahulu
perawat
##tawan
##olis
kamer
##yaknya
##epati
sekarat
##edang
harum
##waw
kelabu
apan
keseharian
ketat
##ambi
##anggi
kepedul
kekinian
balap
ditagih
dimainin
##iiin
##chant
usir
berbalik
besok2
enak2
duet
gratisan
tax
##ujanan
olehnya
nikung
ilc
kabinet
teume
diduga
##ahatin
infonya
bisikin
khay
diperoleh
macam2
ngebos
murka
frekuensi
geleng
##ucon
adekku
elus
tegak
##bert
##berry
bulet
maennya
##pektif
garagara
##elling
##imbangan
provider
mnj
sgini
rapid
relatif
lets
shopeeid
ultahnya
madep
nyetrika
romance
pokerindonesia
hahahahahahaha
radik
##siregar
##paduan
bende
##aaaaaaaaaaaaaaaa
difoto
dimintain
menegur
godain
diajarkan
penyelesa
gudang
henry
reformasi
pembelaan
trims
pemikirannya
memelihara
piano
akuntansi
semarakfestmorotai2019
beautiful
perumahan
65
aff
aaaaaa
ct
dagu
ganc
hormati
ilah
jfff
lsg
oct
pss
pangkat
pmi
pantengin
teka
tks
tawan
ʃƪ
##mt
##dand
##hwan
##puden
##radi
##cewek
##jakan
##366
##enam
##alangan
##ament
diun
diga
kehar
##tui
##ister
##elekin
##itzy
##usun
berulah
##idana
ngalir
gaess
iniii
memakan
semprot
gaksih
ado
adapun
attention
##oduksi
nyuekin
taubat
enough
melindung
##obatan
does
tete
cintaan
salahku
drastis
mana2
##angkir
usus
takutin
suspend
##197
gabi
brapa
seseorg
okelah
temani
##enceng
##shin
lie
##inginkannya
kuatnya
##tifitas
konsekuensi
suplemen
pape
bapakku
learn
bantuannya
kemaren2
babu
2011
puis
medis
token
poc
ndk
swe
bangsad
pcas
belakangnya
impikan
erza
ngeshare
sopo
menyadarkan
hikd
semenit
##127
ancaman
seolah2
hadehh
cuacanya
gimane
singkirkan
honor
##enjot
berpendidikan
hendaklah
bertubi
sinkron
takbir
##aklumi
tribun
lindungilah
keripik
terimalah
diawali
pengkhianat
menawarkan
asdfgh
beranggapan
gy
hongkong
nuk
sci
tor
takan
yuh
##mant
##lop
##gantis
##kala
##sj
##ball
##400
##asian
seangkatan
##isili
##adut
##ingannya
berumur
##ulut
gabaik
gayanya
saia
orangkaya
diab
bangeeet
##abib
##aborasi
pasutri
membahas
kerug
sender
melemahkan
penip
tuyul
kebalikan
senam
bersosi
biasa2
child
menyebar
menyendiri
menyeru
ampas
terlampau
ikaw
nakak
punah
##chron
##saan
berkas
act
bagong
bagusan
ajakan
hatilah
marahan
pembenaran
mbc
kostan
repost
##eji
deket2
tanggungan
slama
korb
turunan
cris
taruh
##alisir
apaansi
lelap
lelucon
rektor
ekswan
allstar
mengelola
joong
goodbye
##ize
biasnya
24jam
belanjawan
kolon
chanel
fisiknya
hayu
##ehehehe
diterapkan
menjelek
gusipul
dijalanin
kusut
##aitea
copas
##move
yunho
sksksks
dkijakarta
##unculan
include
berproses
berprasangka
372
nampaknya
millenialcerdas
sejenisnya
menunggumu
penerimaan
cendol
delivery
zombie
jokowikebut
berfaedah
97
agn
boh
bkl
binggung
host
kitu
koh
nungg
##lasan
##oong
##new
##pid
##keb
##snya
##rum
##yur
##cy
##2ku
##bre
##611
##erakan
##ahha
##enat
diary
kejayaan
##usukan
guyon
tertu
##ekik
saba
anin
anwar
guee
##omod
##update
##abe
##aluinya
##entangan
benak
preman
ketemunya
disambut
peneg
dahsyat
dibalikin
dika
organ
terlelap
ditebak
bejib
dimaafkan
separah
berbakat
sampaigantis
malamnya
nangiss
utbk
updat
laundry
activ
##lion
umar
umpan
dapetnya
ext
jealo
pembalut
konsen
konspirasi
berputus
secangkir
##umble
bapake
striker
riwayat
ruwet
ngeliatnya
patung
patrick
lepasin
wahh
kebaikannya
##ordany
betul2
uduk
##wish
astagaa
singa
garem
kkndes
provok
ciuman
##emanusiaan
mengingatnya
kiranya
idealis
virtual
subur
jinyoung
tandagag
huw
juniordany
##ualian
jungkir
mengenali
360
jebol
prabow
piknik
bitter
mewujudkannya
pesonafesttelukambon
memilikinya
protect
mengabulkan
berdoalah
seokjin
rendr
##orrow
silaturahmi
deserve
kowe
penawaran
fungsinya
menangani
##ostalgia
softlens
pembubaran
ngebosenin
penipuan
jokowikebutjoglosemar
sampaigantisistem
pesonafesttelukambon2019
88
dst
gir
hilih
jet
jfc
jongkok
ling
mmm
pbdjarum
tusuk
##dulu
##lami
##uya
##hidup
##barang
##750
seharga
##iting
##irakyat
berinter
danur
perwakilan
tapii
##imas
semi
sembah
bait
selaku
karno
nyaut
sebahagia
kayang
##aitu
pengadilan
nyolong
diset
trimakasih
seruan
sedekat
##ubarkan
bersangkutan
tidurku
thaitea
arian
mencela
shot
shinta
bala
setau
beza
pelet
kla
terberat
pembers
pembantu
cuitan
seneng2
opsi
semangatnya
keselnya
rakornas
tanggalnya
gemas
##hamdulillah
lucu2
diamond
crot
putuskan
tokyo
sengg
elite
storynya
married
suntuk
rusuk
terdiri
mnta
##injakarta
bintaro
50rb
perlakukan
##untukk
liputan
nanas
japri
##ddd
talent
starbuck
membahagiakanmu
sesibuk
ganjen
opinion
warnain
menyusun
diingatkan
wonderfulgrab
ditegakkan
ladenin
sutrad
lumpur
mempermudahnya
traff
kemarau
knalpot
keberkahan
tremor
jealous
juniordanyw
wonderfulgrabandong
4x
d1
gurun
lope
mlu
rombongan
uy
vaksin
xxx
##euk
##masih
##lar
##lobal
##hitungkan
##kor
##kos
##jc
##fif
##fpi
##anmu
ketahan
##onceng
##ukuduk
##uss
##ilnya
guest
meningg
sail
##okean
##epe
##epend
##eport
meringankan
kencan
sebanding
pengab
pengunjung
keringet
##opy
loo
haloo
kepem
dibela
thalib
ikhtiar
koi
blabla
reuni
reject
dipen
##challenge
##empurna
berbuah
berbahasa
buanyak
tersentuh
ahahaha
abisin
idi
koma
mega
mater
##artisipasi
dmna
kurangi
franda
maluin
##ustakan
nyesal
superhero
opening
kondisinya
transjakarta
gobloknya
bngun
tubuhnya
##board
pesonasam
logikanya
##tusuk
version
cokelat
yuvin
pagar
hajatan
tomorrow
##mahfud
pendekatan
##ebarhoax
beraktifitas
sandiwara
dikeluarin
berkelanjutan
together
menghargaimu
ditegur
disamperin
simbol
dodol
imagine
kriminal
squad
influencer
##angayoalasfest
nurunin
draft
balance
princess
nexmedia
negaragag
supporter
persaingan
elektronik
halloween
kebesaran
kerugian
bejibun
kkndesapenari
wonderfulgrabandongjogja
pesonasamangayoalasfest
76
fiksi
genc
gadap
gengg
hest
hura
iii
jabar
leet
mkan
palu
pure
rubah
rowoon
tod
varian
yeee
zina
##ease
##mit
##uja
##ugh
##papa
##ight
##kids
##cd
##jumat
##vasi
##ange
seengg
##apis
##tuti
##irikan
##espon
ngimpi
##pacar
perak
perayaan
##otensi
mengajari
mengulangi
##endor
selangkangan
gwa
##ampilkan
meronta
##anter
bgn
membekas
kemalasan
penyam
doong
malunya
senyap
lahhh
dibandingin
chick
padu
menyuarakan
balek
moa
koyak
##alaya
retur
inginku
mulyani
dipastikan
tuhanmu
capres
pelakor
youngk
masuknya
katak
pertan
kurusan
idea
wkwkwkk
##allindung
aji
terkuat
puso
resi
kediri
pembuat
pembuatan
kecilnya
##antui
supir
persetan
perspektif
##aste
##ejek
libra
sekolahnya
gemeter
terpengaruh
huhuu
perkuliahan
presid
pasanganmu
listen
mba2
pekerjaannya
bokek
golkar
beres2
dluan
madara
pts
choi
rejekinya
karaa
##amalukuduk
hinaan
ceue
senyumanmu
telkomcare
nyelesain
gempamalukuduk
smartphone
ketidakadilan
hmmmmm
almost
sksksk
ditelfon
##edekate
beranak
pengelola
berkomentar
berkomunikasi
collect
mampet
vidcall
words
tnpa
author
nutr
pinjaman
pogba
lmao
grosir
bertepuk
keterpurukan
##struksikan
##alpedekate
tandagagalpedekate
negaragagallindung
seengganya
gempamalukudukaindonesia
negaragagallindungirakyat
4g
85
cantu
dot
fiks
gama
hec
hollywood
mamanya
nnya
nuna
qrt
rr
sid
ster
suru
sark
toni
w1
yen
yose
##sik
##cita
##bank
##asp
dimudahkan
##untusan
##emasan
##ista
##elok
innal
bere
beradap
mensyen
teroo
adaa
sai
memint
gakan
judi
##otolak
karm
##edy
##eglang
##antah
aty
atap
##action
peman
membara
##ikaze
ems
kelinci
kese
kuj
kemain
##ibo
standing
kaulah
dikangenin
manc
challenge
sampe2
biarkanlah
##nyah
terlewati
indomi
ditwitter
kecewain
mulung
brb
twitcak
ngomentarin
ahs
##estan
idan
##lie
##ujukan
spir
panen
gtau
polutif
politisi
wafat
didekat
pendatang
##arth
bispak
jadul
projek
kagungan
##ejin
deketan
lemon
badanku
weverse
##afal
interest
mentingin
lancarkan
##versary
rocky
happiness
bucinin
joon
hukumnya
berjauhan
persiapkan
stupid
kmrin
menemukannya
miiko
bayarnya
##igami
##onser
madrid
pilu
##uyur
purple
##bukansol
legit
##tttttt
hoaxbpa
langgar
mekdi
ikonic
istilahnya
terbayang
lunch
koar2
merespon
perhitungan
##pacaran
penyebabnya
##pelangg
ketawanya
mohmahfud
miliar
##ampaian
dungu
https
cuddle
##pariwisatak
nyolot
bernyanyi
trotoar
orangkayagatau
prabowotolak
berinteraksi
rakornaspariwisatak
polutifbukansol
mohmahfudmd
prabowotolakn
polutifbukansolutif
btul
cemp
iwan
kkt
late
skan
tama
valu
wani
yuu
##ml
##aar
##lingkungan
##uta
##panggilan
##solusi
##reng
##yer
##ahati
##agil
##daftar
##etta
beradab
ngos
ngubah
tero
terapi
terku
##orupsi
masy
memantau
semanggi
bajak
##otik
mengis
##abel
##adaya
selangkah
##ampas
##ampuh
karb
pengemis
pengobatan
pempek
membas
kelemb
ketentuan
disapa
sedem
kepol
bersungguh
manage
niii
##eey
##strasi
ngerubah
menyengat
wake
draw
sksd
counter
minkyu
namikaze
beuh
##ihatin
dipukul
##chen
berbeza
##safat
bebal
##20611
ngelunjak
menghukum
spy
sebelom
jauhkanlah
math
chattan
waralaba
selamatkan
berpengalaman
berpartisipasi
bekerj
security
yaudh
keseluruh
dipertahankan
ngantuknya
league
terpikir
##ensuper
##aksono
joglosemar
psm
journ
ngedance
##tuhan
sumbar
mnjadi
anyway
rahim
rahman
kontennya
jleb
keterbatasan
25k
bpjskesehatan
calonkan
2009
ngepel
backup
arif
pager
purw
bernilai
hadehhh
##organik
29e
karaoke
##oooooo
sembarang
maskerspirulina
sreg
bookmark
kemenp
kemenhub
kai121
nolep
##ukupnya
sastra
warnet
farhatabbas
lunas
luntur
servis
honda
##fams
emosian
jokowid
introspeksi
kandas
pengecualian
081320611
sdgkn
kecapean
mxc
nyepam
mengamati
dibawain
nyantol
refleksi
yowes
rontok
cawapresnya
syariat
traktir
segenap
quiz
gadapet
presidential
rakornaspariwisatakemenpar
081320611197
2minggu
aot
fatih
farm
hk
lk
norm
pota
tnya
##deh
##disk
##lenya
##liter
##sebarhoax
##rn
##91
##xl
##53
##erto
##asap
dija
diumur
keempat
keenakan
##eme
##emas
##isih
##ett
##etep
##idan
ngu
##pain
##olim
ans
##eben
memory
memacu
luu
guaa
##oton
mengeks
kenali
##aaak
hartanya
buatin
akankah
membubarkan
kere
benang
benarnya
semuaa
kesampaian
tuhannya
ketok
kemah
serumah
##ubang
thresh
##lue
shal
koch
ditunjuk
mina
mindah
sepend
pelayan
brenti
##ancar
##estarikan
##esthet
menghidup
syopi
menjemput
goyah
tenda
notab
wartawan
cari2
batak
batman
didat
##raan
##asiswab
secukupnya
gelem
gedor
##hering
bbr
##hypen
sengsara
munculnya
neo
ndek
marta
jerit
petinggi
garap
garuk
netes
lembaran
penghormatan
kawal
ideologi
wonpil
byung
ngejelasin
ngejelekin
semaleman
pandeglang
purnama
firstmedia
intol
durian
bambank
laknat
jilid
cacing
##wokwok
memories
##kaffahsolusi
huaaa
syariahkaffahsolusi
changmin
introp
menginstruksikan
yasudahlah
screenshot
disembunyikan
tragedi
announce
peminat
memulainya
tsunami
perusaklingkungan
tahajud
menghirup
benefit
bertarung
dihilangkan
millenialcerdasbali
##sebarhoaxbpa
threshold
perusaklingkungansebarhoaxbpa
1k
3kg
78
aci
bond
hurt
kie
ln
papi
pangkal
sda
tanding
ujug
yekan
##mel
##del
##dalam
##last
##uasnya
##waku
##oq
##spe
##rand
##yl
##bir
##ersa
diuc
difollback
##isen
##isahan
bermu
##idasi
ngiri
meniru
##umba
perum
##oking
aninj
##asaya
bai
unlim
takpa
##endum
mere
merpati
pasan
##edot
##right
tauhid
##sif
apbd
bahw
##awok
disuka
trop
trima
stelah
##cayakan
temenmu
dibicarakan
dikeh
chris
menyarankan
arwah
shol
sheet
ika
believe
koyok
minhyun
mult
dipat
diputer
dipecat
brrti
ngelanjut
pertanggungjawab
timbang
mush
must
lies
lift
matikan
bathil
##kks
pemberi
memperdulikan
tugasku
##ejkt48
ngeblock
gelang
keganggu
anggur
jumaat
babeh
interact
promotor
tbz
ujung2
sabi
kondom
ucl
ekstr
hotspot
kadal
jurang
heyy
tebakan
by9
metode
notifikasi
penjaga
##lll
etapi
tatto
famous
menjauhkan
domisili
mumpuni
##ggggg
istig
perpanjang
dikeluarkan
chocofitindonesia
bertahun2
##flow
##pahati
terbawa
wtp
pembelian
##edekah
membuktikannya
syariahpasti
jiwanya
viewers
estetik
killer
wanginya
feedback
complain
imbalan
pertamina
mempersulit
bungkam
sertifikat
ngandelin
supplier
issue
nuhun
permanen
##moveon
yoseob
prabowotolakngaji
sedemikian
##ensuper750
syariahkaffahsolusiindonesia
intropeksi
aninjkt48
syariahpastiberkah
ahhhh
fck
ieu
motong
naud
siti
uwe
##led
##van
##07
##alatan
##atannya
diut
diungk
##ikita
##itm
kalu
##ule
menon
meneng
menaf
teror
gae
yaak
apaya
semingguan
##baca
unesco
mengawal
merata
##ianatan
adop
pengalihan
nyeng
kelarin
meleleh
apaka
disentuh
kemay
kempot
terusss
seret
tidurlah
chem
pade
menyinggung
mendap
independ
setting
kata²
sepagi
berkelas
yodah
dilawan
dilayani
pertamanya
iyaaa
upil
timbangan
menjer
means
kliatan
akun2
##raya
##eye
##onaldo
healing
hujannya
insy
bacod
perkiraan
asalnya
nahi
mempan
mutasi
threadnya
remember
bicarakan
##point
berjamaah
stuff
tampol
rabi
tune
rendahkan
maskerherbal
background
bercandaan
dijalankan
nanaman
kumis
nelen
coret
##struksi
finish
##etakkan
sandal
fiersa
tambang
woooy
ggmu
##ternim
mingdep
three
boomerang
##cept
tempuh
penyelengg
signal
ngliat
ngamuk2
##peson
distributor
cindy
adaptasi
##intanpahati
ragilfif
denmarkopensuper750
psych
unlimited
dalang
fed
hc
hibur
js
nisa
row
tunj
uke
wind
yn
yampun
##mum
##dia
##oup
##gd
##gil
##papua
##ied
##kati
##rul
##rom
##ction
##vous
##vcs
##59
##anut
##erasa
##amg
##unung
keutuhan
##dae
inih
menikmat
##tiin
masternim
semena
sempro
##ompat
##epit
suga
nyia
nyemil
kerjo
kerabat
##tahap
kelab
##ayy
kesamaan
##opang
trlalu
dahil
kepul
dibar
dibat
segelas
sakti
shubuh
##icid
ditolong
cogan
realisasi
##imax
dipendam
rumahmu
plagi
berbincang
kram
berked
oli
negur
okee
##ombak
hatta
uler
ulangi
mempercepat
itb
berlagak
diperhitungkan
eskrim
gelut
dihukum
monitor
nct127
modar
pool
##table
seungyul
##jokow
ngehibur
educ
ulangtahun
##etahu
terjadinya
dinginnya
pencerahan
tergantikan
ciy
rapper
layangan
212
tanda2
140
catetan
maskerorganik
buahnya
ngaceng
handsome
fotogra
sambal
followersnya
modelan
rating
kunjungi
mekah
smtowng
wamenat
sblmnya
mngkin
ranah
rintik
honey
jungwoo
karenamu
tuduh
fellychibi
##muslim
jrg
tereak
straykids
nalar
##anggungjawabjae
makarov
loading
produce
anniv
samudera
pemimpintanpahati
membiasakan
berpolitik
chicken
##literasi
kemayoran
ragilfifti
wamenatanggungjawabjae
399
bday
bile
cec
dha
dpd
font
gah
gop
hoy
jee
nep
nia
nostalgia
rog
rase
sja
shir
upa
vin
##pin
##kur
##sen
##rans
##yong
##02
##fk
##ahasiswab
diag
seong
secu
##usuh
##iris
berbayar
##idara
ygent
##esss
##urse
ngorok
dandhy
ada2
##oria
##adiangg
kamib
##abah
belahan
alaih
pasaran
ame
amel
bangetttt
##odal
enhypen
melamar
kuala
diskrimin
trejo
tix
gituh
kebut
smlm
kausap
dikac
padet
menyis
##ipis
arogan
shan
##icious
mintanya
mahk
ibrahim
sepuasnya
##ogen
##ogja
nawa
##jakpus
caps
berko
memangnya
##istan
spion
bertak
bertek
siapanya
bisik
dicabut
peduliin
filsafat
beta
##yeong
dipermudahkan
frank
kegalau
riba
adek2
sunday
perhatiannya
##ards
perbinc
##anyiin
##aminan
doktor
petik
emak2
bpom
ngecas
kirimin
cikal
mengatakannya
##ehyung
rahasi
kuper
bintan
bincang
asapnya
dalemnya
notifnya
wkkwkw
kubilang
perginya
##faedah
labuan
##alurkan
larangan
bigbang
fatal
##581
wawasan
##bisaapa
beraninya
wujudkan
mapel
subscrib
title
kisaran
kebersihan
dikabulkan
diakhiri
sebercanda
##alimantan
diusir
obatjerawatampuh
dikritik
kesenian
illness
stmmahasiswab
ngeremehin
dollar
terfikir
absolute
kepedulian
kolonial
provokator
nutrisi
diucapin
smtownglobal
cyber
einst
gali
huu
ips
iyah
lwt
mij
maren
naga
nmp
ppp
rot
tiri
wet
www
##hink
##gah
##bakar
##63
diwaktu
##ikh
##agen
##ukain
##itannya
injek
##ingungkan
beritahu
kalik
##ilink
##esis
menumpuk
menanam
terjawab
perti
##olos
taktahu
##oter
alun
pasif
##riya
kenakalan
suw
pengingat
keresahan
melompat
##ikannya
kenapaa
doct
many
manus
besarkan
##anjing
shaming
iklas
skit
couo
isac
sekali2
##oof
berkunjung
brani
twittb
jelly
musisi
twitternya
anjirlah
muluuu
berdasar
teling
teladan
exp
pembangk
dua2nya
khasi
##tulus
proper
hubungin
0819
##2129
insentif
terhibur
dewi
marvel
reza
climax
parahnya
majlis
grupnya
greet
fanatik
topup
ngedengerin
goods
biroj
bedakan
relev
geus
##ediaan
napsu
korbankan
backstage
dianter
tawaran
sembunyikan
kumpulin
intens
ceunah
laris
reflek
porsinya
wkwkwkwkwkwk
years
komplen
nginjek
menyelesaikannya
color
mgkin
tayl
jiji
menyebarkan
membencinya
##semua
pcrn
toner
mendekatkan
kelaperan
solidar
dikomen
synchron
sewamobilcirebon
demonstrasi
dampaknya
khayalan
tonight
beradaptasi
twittbot
93
bct
dort
fau
genting
hek
ipa
jantungan
kuna
lr
lia
mira
nh
sf
titan
watu
wfh
zul
##mikan
##dj
##lap
##leb
##uapin
##walnya
##cis
##bok
##balik
##zd
##arki
##unk
##itek
beranda
nggo
nguap
ngirit
oras
masakin
##omen
##ominasi
##ehati
##epapua
mengumbar
sekola
adak
##egas
sebutin
##ituhak
nyut
kerum
prasaan
##teran
melon
bahasan
disetujui
asri
stor
stengah
kebob
dibuktikan
ngeroko
##ips
muf
mendamaikan
##ics
##udara
kecew
minoritas
##impangan
berkec
tersampaikan
kate
dilaksanakan
pertar
##estinasi
komb
ot7
deidara
pembuk
bisu
berlomba
terbaikmu
bekel
urutan
0899
kebajikan
tanggapan
tlh
gagasan
antis
siangnya
diam2
bsd
menerangi
gagalnya
parpol
dinda
menteng
petu
jaraknya
albert
offense
x1official
##quin
tumbuhan
priok
peter
pilihanmu
##seoul
ipar
nervous
bird
permata
aduhh
taiwan
kawen
adiknya
thats
kendala
tandadiangg
##owochallenge
junkyu
viu
durasi
gotong
menganggapmu
matchasp
jisoo
perpus
kuasai
benteng
##ecialist
turki
sedeket
##ampiaskan
##ademy
rosak
pojokliterasi
wonderfulindonesia
kegelisahan
keamananituhak
widya
##alokasikan
##iskusi
mengusik
57366
gubrak
ciptaan
gentle
crazy
efisi
fadli
fatinsl
##asingkan
ritwit
menghadapinya
fifa
ngumpet
##andoulama
kewarasan
##67f
beginilah
history
nebeng
jessica
menanggapi
twibbon
segelintir
scorpi
kesambet
##radiop
leeteuk
farhatabbaslaw
jokowidestinasi
martabat
stmmahasiswabersatu
x1official101
matchaspecialist
keamananituhakrakyat
5736667f
7581
bee
claim
dara
gek
gog
jy
mny
nemp
suna
vac
wkk
xi
##mager
##diri
##oak
##bdg
##zet
##46
##erna
##inegara
##amana
diorg
##ikung
akulah
##engs
berjiwa
##ilir
nginget
memutar
unjuk
##otek
bangang
merdu
nyai
##ript
##aight
sud
pemutih
keram
kerna
prancis
emery
##terapung
suka2
kuf
tuhkan
sesusah
astron
lotion
senyam
terlarang
##ici
##ican
minna
minho
awek
sepertiga
dipinj
berbisnis
pelupa
bring
grac
ikutikom
##amater
dilancarkan
utd
upah
baliknya
menghangat
kurasakan
menjij
cerita2
noob
chatingan
ilmi
result
kedudukan
kembaran
both
berpotensi
andin
##year
papar
papasan
knpsi
0823
ngebuka
slipi
terpaku
turunnya
mentri
ndang
offer
detective
alien
transp
perhatianmu
dilakukannya
donasi
aqua
sayuran
setengahnya
kemampuanmu
white
keterampilan
##esign
hayuk
pt3
nyatet
aries
skincarean
##ssssss
pijatpanggilan
dimanfaatkan
psikopat
dikirimin
##orbanin
caci
membalasnya
##ology
menyangka
1994
dirasain
citilink
kewenangan
lontong
shawnmend
dinyanyiin
ngupil
lompat
ditanggepin
ditipu
faedahnya
##pasarterapung
##lomerat
dramatwitter
selalunya
beyond
penyelesaian
asdfghjkl
pertanian
bpjskesehatanri
##radiopdg
jokowidestinasijoglosemar
ikutikomandoulama
##pasarterapung2019
aba
dalih
dvd
gapa
lon
lrp
mtu
nng
sli
salaman
tos
vape
wana
yud
##uel
##wannya
##gy
##kok
##sub
##rh
##raday
##cah
##cur
##01
##f1
##angku
##akir
##inseoul
##aralah
diitung
diundur
##adul
##elapkan
##daerah
ngiang
##ulannya
meneh
menusuk
##tiare
ansos
##uhhh
memajukan
##upas
mengant
mengangg
sekrang
dengkul
##egr
ath
suzy
harimau
prt
prasangka
melarikan
baikin
pakcik
asian
kepikir
kepingin
smprot
dikunci
drum
pules
ditanggung
##haris
##ollim
lgbt
berburu
pintunya
berkabar
memberitahu
demok
utamakan
menghubungi
twitterku
lapo
lapisan
spidol
noona
ajal
warganya
pulang2
batalin
pembenci
sadarlah
ite
filem
betis
cewe2
ramen
dosbing
##max
jatuhkan
tlpn
terhenti
credit
bermunculan
kampungan
jahatnya
##anggain
mentionan
##bergerak
ngehujat
prodi
##jofficial
border
perutku
##cover
mukmin
##seok
ponsel
jatinegara
mnet
release
geer
made
boyz
pilem
deny
ptjas
milikin
penjilat
##icky
menyampah
gembokan
maskapai
performance
##1516
##nnnnn
istiadat
gugup
diskonan
makasii
pssibisaapa
nawar
nobraday
candi
gregetan
dihatinya
selimutan
##lukkan
kluarga
persibday
pujuk
pojokmoveon
fighting
dijauhkan
##eselamatan
simonout
merajuk
yatim
ritual
keponakan
keharusan
gencar
hectic
fatihah
byungchan
istigfar
tandadianggasuka
91
barai
dumb
damaikan
dowoon
egk
fal
hbis
hunting
iaitu
mangan
mee
roko
sori
sjofficial
ukt
##makin
##a56
##pri
##ken
##tin
##jep
##vis
##71
##zel
##04
##err
##aker
##ininya
##inlove
diujung
diiringi
seorg
##apakah
ketu
kearah
##elampung
inikah
kalori
##ilis
menuntun
teross
gawang
##imanan
##utaran
memanjakan
luarnya
menginginkannya
bangat
mergo
seksual
bgd
bgitu
membesarkan
prihatin
##sic
##ters
##awase
aseli
askm
penenang
serakah
sedalam
jamnya
##ahayakan
dibentak
##aranstop
##dha
thomas
##store
ngerendahin
##ipan
mencaci
shamp
dirubah
mogok
beud
dimainkan
pelem
katabijak
mesir
baca2
goes
ngeue
klan
bapuk
siape
##pei
terbentuk
didek
sukain
##arto
bisikan
dicuri
gundah
pacarannya
ngebully
dospem
kontestan
kegoblok
##ankeselamatan
ohiya
jumatan
kelasnya
babang
##culinary
tokped
##bangsa
sinerg
suntik
##ugat
phobia
genpi
jojo
stoppelangg
##glory
bude
sumbawa
lukai
penghalang
berjasa
layu
while
jls
selfrem
200k
##dyt
puro
##bersama
spoil
viet
scrolling
delay
ghaib
ngucap
karakternya
deden
hour
sahur
regulasi
kunkermenparkelampung
##80a56
mosok
ganjar
ngayong
gbsa
istriku
premier
cancer
bullying
##elakaankeselamatan
guling2
empuk
vibe
loved
livia
nurutin
photocard
closed
referendum
08782129
ketuker
ummat
##jubkan
message
membebaskan
##yourself
##vortiare
##kecelakaankeselamatan
skandal
29e80a56
menonjol
nyengir
ptjasamarga
##aranstopkecelakaankeselamatan
stoppelanggaranstopkecelakaankeselamatan
087821291516
stoppelanggaranstopkecelakaankeselamatanuntukk
bam
bkan
blah
ealah
famb
fank
gamp
hhe
kinc
lp
ladang
py
palagi
podo
rasi
ragam
saku
wetan
yeh
yank
##met
##lem
##larang
##ht
##oyang
##girl
##kak
##yle
##cut
##jelas
##31
##ahit
##amad
dilu
diotak
##apannya
##ukir
##ekk
yaall
perangkat
perencana
##ores
##eba
##ebman
##oment
bajo
sialnya
##endir
##ended
pemaaf
membag
kelihat
melati
apatah
##andanya
##ambu
sesuat
tiati
lovel
stgh
##juara
chart
anjng
shu
kook
ditembak
mino
oned
dipisahkan
dipenjara
##asanusi
bolehkah
##empak
berbentuk
nihhh
pelaksana
brad
##cium
gr2
katil
bagitau
idih
kasusnya
cepu
pusink
followernya
misqueen
##uahkan
im3
dicuci
##ideo
cantik2
yaudalah
gago
gelombang
buncit
kehidupanmu
badanmu
woollim
mentor
lelet
perempu
##berikan
urusanku
memprioritaskan
snow
mragil
fanchant
realitas
##beer
ktemu
universe
potter
endor
##puisi
komennya
pesonaj
hangout
aktifin
tkde
##ibahin
penjuru
gaiss
ngepet
##ahagiain
jkt48hob
etdah
dadar
musuhmu
explain
ditambahin
privacy
cemana
mangap
##rrrrrrrr
tepung
explorationjkt
lantang
matcha
shippuden
##cares
minggat
mengajarkanku
fath
johor
youngand
tuduhan
dipertanyakan
throw
mahasiswi
##ursakl
abdullah
menginjak
dikabarin
ftv
meyakini
lampunya
sinkaj
##iayai
pressure
daiping
diceritakan
hakikatnya
abpbh32
eidal
pilkadam
sherlock
cidera
##ativitas
madepmant
rendrasanusi
kepemimpinan
dipenjarakan
relevan
solidaritas
pojokliterasibali
wonderfulindonesiaculinary
selfreminder
##ebmanetep
jkt48hobby
##ursaklawase
pilkadamalang
madepmantebmanetep
2jam
81
cis
dya
darat
eri
gadang
hasan
hng
hore
hayang
jantan
joa
kdrama
lara
numb
rer
ruh
sala
ttt
visa
wayang
zakat
##mobil
##dn
##sand
##rani
##yana
##ved
##zab
##527
##angu
##akum
##akwah
##enix
##amina
##asti
seab
sefr
setulus
berin
berebut
berakal
##esona
##esraan
menaikan
##uhuh
memaham
tidaknya
diaa
siya
siaga
taktik
mengerahkan
alfi
##edekin
##egahan
hart
tempor
##acher
membahayakan
##perimen
##ohin
kesem
kesitu
kualat
ketetapan
serabut
dahhh
kebakar
dibo
##eci
bestie
chacha
##stm
ngerawat
mendew
shim
indon
##icated
kopa
puls
ditaro
minj
useless
lgsng
gabener
brng
ngelag
dilewati
ahaha
okeh
kura
cewek2
gatse
gtw
ilham
ulit
pembimbing
hahaa
omelin
uringan
dipermainkan
esp
straight
##iller
riweuh
alhamdull
terhitung
comander
dibaikin
kunt
tbk
ikhlaskan
##rakt
##enggut
goleran
permukaan
remot
poni
tabok
kiasan
kyungsoo
adikku
tagih
tebar
latah
keterg
pijit
fitri
famili
banking
revolusi
ketipu
500m
shining
speech
##adane
bnrn
bibirmu
mekar
##whwh
bentrok
booming
ghibahin
photob
##prove
mempertanyakan
tangkapden
teriakin
naluri
saudaranya
mendesak
mimisan
cubit
sesimple
membawamu
twivortiare
ngagetin
trailer
london
buhay
chinese
##abibie
genggaman
kepolisian
keseluruhan
naudzubillah
menikmatinya
dikacangin
perbincangan
pembuktian
menghangatkan
stoppelanggaranstopkecelakaankeselamatanuntukkemanusiaan
youngandglory
comanderz
333
82
dpet
gint
hft
ied
mih
rg
raut
tilang
yi
zah
zat
zone
##ience
##kata
##sedul
##run
##rakatau
##ying
##vity
##288
##aly
##asem
##astic
dick
##aps
##ikot
##audi
##isimu
##istimewa
##ihab
##ukuhp
inovasi
kalap
##urangi
dand
terik
##pact
permudahkan
ituuu
##olin
aneka
memaki
semak
##apab
mengizinkan
##aluan
meragukan
##iant
##antauan
sebucin
membel
##pert
kelebih
##sible
melewat
kesej
ketel
ketebak
disiram
##open
##iber
sedetik
hall
##juangan
twet
menyep
##ipel
##luas
arc
terlaksana
blajar
ditangkep
kecemasan
beut
naeun
gabakalan
##ancel
dilempar
upchar
neger
##odohi
tolongin
cobaannya
matinya
ajarkan
mandinya
akunku
gamis
respek
didasari
jadwalnya
hahahaa
nyari2
sok2
kejebak
##plus
##ungkrakatau
meneruskan
koreksi
scan
elegan
1945
wahyu
lanjutan
sunat
ngehe
eko
menyerahkan
##izinin
kebiasa
positifnya
naskah
njirrr
##orge
simulasi
privil
mendengarnya
##akakakak
alaikum
diselenggarakan
##unyian
bebaskandand
ngintip
function
everyday
kopinya
almamater
janjinya
nurul
##qwqw
jungmo
##film
mangkanya
midnight
ngidul
didapatkan
##haliman
mhs
mengagum
lampungkrakatau
kodok
kepedihan
licin
ngalong
dijauhin
pramuka
dilanjutin
menakjubkan
essay
manusianya
jeonghan
diladeni
tingkahnya
entertainment
australia
radikalisme
sweater
bersosialisasi
klaim
sutradara
ngelanjutin
kamibers
cikalong
einstein
pertiwi
eidaladha
lampungkrakataufestival
2hari
350
3000
cri
dbl
gany
ganja
jangk
kilo
lena
later
misa
nb
ninj
sangkut
ueki
wash
yum
##metik
##duk
##oain
##ojok
##gin
##sul
##rajin
##cter
##fans
##anah
##agini
akhiri
##ingetan
ngesa
##ulung
##arium
menas
menempuh
terimak
##ekarang
sawit
permudah
##imalam
semau
bangchan
##endi
almar
##ampe
##anten
##anting
haruto
sebat
pengl
##ewish
membingungkan
kerena
kuingin
duluu
kepanjangan
anak²
##dhashop
mantab
##indones
##stv
ngerap
menyikap
##ipe
##ipun
sof
gimanaa
islami
##ahahahh
punyaku
pagii
mahir
angkr
bolehin
berbunga
##jaka
pinang
malamjumat
negaranya
maafkanlah
bagitahu
times
kasut
berdebar
berduit
berdiskusi
jauhi
teluk
televisi
batch
jgk
kembalikan
pending
pendamping
badak
berpas
berpindah
omah
keselek
kemarin2
tanggerang
rindunya
bergetar
concept
surau
institusi
dekatkan
hrd
bermula
menyakitiku
ndas
psl
jennie
duduknya
duhhh
##seung
internal
pencari
##izuka
angkutan
remed
bicaranya
hotline
outlet
ukhti
firman
aminn
latih
lately
pilot
memaafkannya
milo
milea
watsap
##ovie
ariel
sistemnya
hajat
sambutan
tato
musuhku
haluan
shino
startup
##iputi
meraihnya
hirap
highlight
jambu
guyss
american
suamiku
disampingmu
ubur
brgkt
lightstick
papuadig
lobang
kuharap
diturunkan
achie
dikumpulin
##ironman
savekalimantan
ganchar
anindhashop
keseimbangan
upayakan
askmf
vietnam
fankit
bebaskandandhy
ngesave
2beer
86
aid
aaaaaaaaa
cloud
dna
dolan
ebook
fik
hani
humble
izz
jamaah
lid
mist
ndi
niru
paut
rj
wdyt
yall
yellow
##etuk
##mood
##wati
##oya
##gasi
##tinggi
##tingnya
##satu
##city
##vil
##badan
##fn
##enta
##inim
##arch
diolah
seja
##apapa
##apetin
##tupi
akomod
input
##illi
ngide
nganggap
menampung
menentang
menempa
tertuju
##ok2
##ols
##ebur
kamarnya
semog
jugaaa
sekamar
sekeren
baring
##owd
suaramu
bgttttt
kesebar
kesatuan
##andan
##andra
##ambo
cumi
half
gituin
smash
diblock
dibatasi
bikinnya
mantu
choc
mencob
balapan
skalian
##emburu
dimus
place
berbisik
krs
pelab
pelac
brh
broo
##cial
due
duwe
menghadang
menghampir
negor
##amug
lif
telen
teliti
warning
oth
umkm
##anizer
mbank
yahudi
impl
andrit
burem
##obaan
fred
riuh
##2019r
##ungkam
jeleknya
dijahatin
turunin
pindahan
fakboi
monang
hyper
perkenalan
harapanku
198
ilang2
ilangin
switch
sunny
cling
produs
artist
lelahnya
kakak2
contra
ngedukung
lebah
pencarian
lembah
berpikirlah
aduhhh
nafs
hadirmu
mengeluhkan
silent
wibu
tampar
##iterlarang
adik2
kolaborasi
aturannya
pukulan
kesederhana
kimi
puasin
pijet
nano
lalai
##foodfest
sembako
durjana
jumlahnya
##amzah
refres
ungkit
bencinya
recehbanget
pahitnya
hirup
misuh2
tenggelem
pidato
lukaku
drivernya
fahrih
mangkal
december
photos
gandeng
sediakan
takbiran
dobel
cfd
roller
menaikkan
fairy
##itahuan
kebablasan
stmmelawan
playboygalau
gebetannya
phoenix
##fashionfoodfest
hormon
kemuliaan
starbucks
value
tunjangan
doctor
scorpio
gapailah
ketergantungan
papuadigelapkan
fahrihamzah
69
dman
eat
earth
garansi
hun
jongin
keng
lis
ns
nangk
rara
vespa
vendor
wb
##mungkin
##mkg
##now
##kon
##s10
##reb
##ces
##cape
##b9
##bur
##zol
##fwi
diapus
##adil
akoh
ngor
menuhin
##ument
##eke
gaenakan
perjalan
##okah
##ungnya
##bae
unta
##otis
menged
mengecil
##osmed
##adaikan
seluas
ald
##ampingan
kenak
suz
sudd
pengajaran
pengerahan
bgmn
ember
melunc
apadaya
magelang
disadari
##ontan
ingkar
gituloh
kepotong
anjinc
ngerangk
muba
soda
koo
##embar
ditaruh
##harge
sepet
##ograp
susun
krg
##1910
brondong
kasihi
dilewatin
musl
twitterreceh
spider
telanjang
baterai
polda
pendirian
jeon
pembuka
##umpahin
##aaaaah
bott
imbas
##ijat
proc
properti
dipertahanin
##ejangan
##unji
bergemb
##ayap
##engkel
##ertiin
##ungkas
selesain
terhalang
rug
dibay
moody
peace
##ukungfwi
ramein
panjangnya
tvri
##ardukungfwi
perbandingan
sabaran
sabarin
##ensif
eksekusi
petak
##ulloh
rencanakan
fancafe
bacotnya
terjamin
##rakor
hakiki
tubi
realitanya
raisa
anjrt
bersihkan
berduaan
##eeeeeeee
membantumu
ngaret
ngejelek
lingkup
menyadarinya
bahagialah
bahagiakan
bajet
friendzone
ganon
sungchan
hours
kreativitas
merekalah
jayawijaya
dzuhur
ngefangirl
dibantuin
mengakibatkan
duniaku
penyelamat
resepsi
iqbal
##adaban
lonte
momentum
pedulikan
naif
diupload
rancangan
paripurna163
inshaallah
##agaruda
terkutuk
kemenpardukungfwi
##etahuinya
kegalauan
birojomblo
pertarungan
fatinslquotes
kelebihannya
menyikapinya
angkringan
kemenpardukungfwi2019r
himp
lest
mup
nyak
nanda
peh
pbb
rampung
sku
slam
vik
yad
zair
##mr
##mun
##hai
##hop
##wkwk
##nun
##non
##cow
##jeng
##vsm
##eret
##aktim
##enn
##ennya
##inari
##alisi
##apek
keimanan
##emy
##adalah
##agal
##ingkan
beruang
##ilitas
ngul
ngantu
menata
orba
memaklumi
baq
##ongs
##anai
mengata
mengac
##endung
seliw
bibi
merint
karin
sebodoh
such
##ajang
kerak
pramug
melestarikan
disband
seseneng
##naomi
doc
##juga
dikend
dikode
dikiranya
bersep
##indukan
dirib
anjjj
mendaki
##nysiregar
mencak
mencapainya
diruas
skala
mou
bli
blz
ditingkat
course
isra
##olla
dipasang
##empurnakan
pelindung
bruntusan
kasihilah
pertemukan
laprak
komedi
berdusta
ulet
##mnt
malesin
##track
puskes
konseku
mbuh
hpku
yahhh
buriq
beku
amazing
usahaku
kosmetik
tweetd
murung
dihasilkan
selesa
jiyeon
kamarku
kuno
##kwkwkwk
##date10
joging
##anyol
sinis
kantornya
bulls
seungmin
sabda
mempedulikan
janjiin
kucingnya
peta
allow
muslimunited
sorg
whatever
##ombongkan
tubir
sarut
nuest
karyawannya
syukurlah
kendor
perjuangannya
msuk
ngadep
##tupdate10
##kominfo
dagangan
testim
lawannya
hahahahahah
redup
jagoan
freel
osis
penerus
bibirnya
##jdoram
##esein
##anjurkan
mostupdate10
cacian
sbnernya
trisaktim
workshop
quotesjdoram
08569
maklumin
jahil
culik
commitment
change
victon
##328
mengharuskan
seberuntung
lngsng
sepatah
lectur
saudaraku
dingertiin
lumpuh
mengirimkan
batavia
bertajuk
ekstra
pretty
migrain
paksakan
pembersihan
bahwasanya
fotografer
kegoblokan
tangkapdennysiregar
contraflow
refreshing
sudden
zaire
muslimunited2
mostupdate1058
trisaktimebel
quotesjdoramag
dab
daud
fok
faj
flo
ganya
hara
hones
icon
jj
jengg
lai
lindungan
mif
oon
pgen
pidana
rantai
siku
skuy
wih
walk
zoro
##dok
##aak
##wl
##iasi
##rim
##jukan
##bohong
##zaki
##39
diw
diapa
diumbar
##agenya
##elih
##uk2
##itak
##id2
ngarti
guanya
guess
terungkap
saver
##okol
tapiii
itukan
##oret
masif
mastiin
ajaaaa
apaaaa
semaks
luah
mengontrol
selo
biadab
gws
merasuki
##edoo
##acun
nyemb
membuk
membolak
membusuk
keranjang
pras
prest
prilaku
melap
melewatkan
sesorang
sesabar
##obar
astr
astro
##asihati
malasan
dikos
sudahkah
chef
chance
padah
ngerib
##ipkan
##luck
drak
##unggulan
skema
ditang
onlin
dipak
dipisah
lgsung
build
krena
kriminalisasi
pelakunya
berkont
bray
brangkat
ngelad
ngelus
utas
##0000
mikir2
##ujan
##intwitter
##ffle
ajig
ilangan
terbanyak
khalif
bursa
2019pilih
serial
menggadaikan
kagabi
dipermudah
igs
08121
liberal
ngebadut
dosaku
kontro
buny
##ucinan
##engkal
anggun
rebu
video2
salad
125
dijul
dijakarta
jodohmu
gasadar
arahnya
patri
pekat
elemen
postcard
nduk
mahal2
mommy
ekspres
kapel
budeg
##imbangi
golek
golden
university
smsan
listriknya
mnding
anything
pecat
##ulaan
palm
submit
septemberwish
dokternya
keterusan
##onsul
perlunya
indomy
handuk
linknya
##penas
##ediain
dsr
##dddd
pinggiran
kekasihnya
rilek
ntaran
cici
##ofth
menambahkan
pemberitahuan
##741910
muhammadi
##idikorupsi
bimbing
available
lovest
hahahahahahahaha
signif
berbaur
esthy
holmes
kesimpulannya
teriakan
089672
kartini
dipersulit
tumpukan
mengutarakan
pantuns
dwp
ngata2in
klopp
dennyja
fleet
tendangan
takpelah
paulina
kapitalis
infobmkg
diikutin
innalillahi
notabene
menyisakan
kombinasi
kelihatannya
joaquin
mbanking
mubazir
seliweran
sarutobi
089672741910
1jt
3hari
73
ayang
ahir
aaaaaaa
cemen
daur
eu
eeee
f1
fuh
find
fort
fto
gagi
geh
garang
imm
kuman
mlah
naha
notes
pst
rif
sengk
tint
tangkis
teduh
ugi
vul
yedam
##ms
##mawati
##ae
##rg
##yn
##vr
##bahagia
##69
##xh
##xs
##anta
##amoyo
diob
##apu
kean
##emarang
##usic
bertukar
##uradul
ngib
menebak
menunaikan
menampilkan
gawat
saji
##gabut
##orak
##oral
##ebag
memimpikan
memuliakan
##bay
##ongo
unblock
takdak
mengemis
mengartikan
mengalokasikan
merebut
merancang
##edean
adis
nyaaa
temanya
pengrajin
bgi
pemda
membuahkan
melak
melodi
lainya
##andeng
ketar
ketir
penalti
serunya
tuit
dota
dibers
dibanggakan
sampingan
kekel
anjlok
##agaan
arri
shall
isnin
onew
dongeng
dipad
dehhh
sepem
sepant
berbalas
brut
manusia2
dilamar
kehormatan
menghin
acting
kursus
##lies
lapis
anjirrrr
bertempat
ngefek
jokam
bappenas
yaaah
umr
polis
polbek
wave
pendemo
pembat
capek2
opm
tula
having
bojo
perselis
ignya
digit
##lamasi
kejang
kejora
gemar
insek
korpor
penuhi
bermuka
monoton
maruah
bucinnya
budiman
universal
birokrasi
nikmatilah
anyink
kirito
jepun
lokasinya
shopeepay
habit
jumatpuisi
nasinya
2005
##oved
wehh
dibikinin
june
explore
showcase
hadiahnya
promosiin
ketularan
kesiapan
speed
lucy
budak2
##padahal
gugel
operasional
frontal
##flower
jayapura
cheese
branded
##loth
bitch
character
##radasi
##nesia
diresmikan
##music
##121v
lecet
complicated
records
creep
hshshs
kepanit
reformas
sngt
dibenerin
sesukamu
menemanimu
sesimpel
peluangusahaonline
fpiterlarang
berkepanjangan
kritikan
pemesanan
alquran
mengutuk
melipir
sedulursaklawase
diabetes
traffic
firstmediacares
pertanggungjawabannya
diskriminasi
ilmiah
lovely
berpasangan
kemenpardukungfwi2019rusia
honest
pantunsantuyy
perselisihan
dut
eo
eaa
hoh
hoseok
iyo
jop
lw
mingk
rash
role
sctv
wing
yer
zal
zzzzz
##eor
##mil
##dang
##aza
##nul
##nai
##nikah
##gala
##pb
##tkan
##ralisasi
##yalah
##yata
##cara
##jim
##bosan
##778
##fort
##anas
##arram
##arjo
##asid
##asut
##ikant
##emud
bertugas
berapapun
##idiki
akumah
gaib
saos
##ebang
gakenal
##otel
mengay
menguap
biologi
##egukan
##antasan
barulah
kao
amar
##asib
##teria
meletakkan
bahay
disengaja
kemun
tran
asahi
tiup
sert
kenapaaa
doing
kepepet
bersel
bersedekah
kekeh
anjj
terlewat
indra
balita
setetes
direp
##unggangi
mojok
jalanmu
blak
dimsum
diputar
##emuin
sepedaan
##chu
buibu
sushi
krja
konek
ngelamun
##ingkirkan
komentarin
metu
##alll
ngejawab
novi
##prom
gamasuk
gamasalah
terbenam
botpret
berpel
amburadul
dicon
andi
omset
diperjuangin
digenjot
##angkanlah
lembab
##timate
kejut
yukkk
dihabiskan
dihubungi
film2
gizi
terpendam
rig
inside
##yyyyy
babe
daerahnya
dibac
monek
##enture
##hyuck
leluasa
sia2in
bulannya
renungan
lemahnya
simpang
##fatih
15k
pijak
gener
ngedate
fullpack
mantra
facial
kerjament
bestnya
fire
metal
publish
lengket
motivation
tmpat
menjelma
hancurkan
syaitan
jantungku
umatnya
junewish
standard
ketiwi
500k
dominan
porn
indonesiagaruda
srs
dcs
mengurusi
pentagon
bungsu
cold
paksaan
formasi
terbayar
bidan
##croll
bluet
jahit
steff
##ecehan
##ricorn
memperlakukanmu
tnp
hemm
ngalor
ryn
genteng
berekspektasi
demonstr
الل
instrumen
mengawali
pasteur
spending
harmonis
##kabeh
senggang
kocheng
mindahin
##pesonamoyo
transparan
sinergisi
perencanaan
menyepelekan
akomodasi
others
muslimin
bullshirt
semaksimal
ditangisi
##onsultasi
kerjamenterid
##pesonamoyo2019
aah
bingk
bdm
epl
fufuf
ganto
hj
jes
jones
kimak
kharis
lew
lali
m3
mistis
pud
quar
simak
uci
vital
xs
##malukan
##lid
##like
##uct
##habibie
##oid
##gyu
##pula
##tapi
##bag
##zk
##06
##5k
##fw
##fin
##ahannya
##arl
##atama
ditukar
##unik
keja
##adeh
##ad17
##agua
##engsi
##daf
into
berangan
##uratas
ngis
ngancurin
dancer
menuhan
menipis
terinspirasi
yaela
##gae
peril
perpp
peralatan
##okw
##ungut
##orot
anas
##adia
baja
##ediksi
sebarkan
sebungkus
kae
kais
atik
sue
suap
##ajah
makmum
kelurahan
melintas
melaluinya
kucinta
tahta
##andangkan
disahkan
sederh
malef
anak2nya
bersemi
mania
##stour
menyanyi
##ipat
menduga
##icent
##emburuan
##udang
##udud
dito
sepert
kecium
kecemburuan
ehehehe
multi
dips
usn
usil
capricorn
brs
bagiin
twitnya
kataku
katalog
kmarin
kakel
engg
menghalang
##baikinya
laporin
sebenci
##alla
muluu
noeey
telek
mate
panah
terbalas
poligami
death
kembung
10rb
infol
##wanita
imun
impact
mengger
digeb
myxl
stroke
##timewakan
ngebi
ngebales
tlong
gaguna
slide
convers
mantanku
sald
hilangnya
crew
script
jodohin
mentalnya
##aratkan
kerendahan
elsa
mentionnya
poop
jaringannya
##kahi
kantoran
rook
teko
teknis
perbeda
momo
liburnya
##ompo
##ompongan
heleh
bneran
borong
abang2
rencan
nomin
muke
btsins
muslimah
terjad
muterin
cocoknya
berjalannya
##tujuan
##sound
tercepat
mamang
george
jurn
sosialisasi
rabbi
internetnya
perlawanan
ekonom
somay
bahagiamu
ditump
sulut
material
afrika
seakan2
grogi
julukan
ratus
nasionalisme
travelling
performa
ogut
lantaran
software
kemenpar
factnaomi
##9630
rider
##ukupan
fucking
51db
##wokerto
leading
hafalan
woojin
icy
slowres
folder
lukanya
haihh
pembaca
huaaaa
micha
sewot
hendra
blablabl
nampol
xixixix
marten
##elengfestival2019
##celona
51b400
survei
galaunya
dugem
menyimpulkan
materinya
bekerjasama
plagiat
0819328
synchronize
efisien
diboongin
kopaja
##sedulur
andritany
bergembira
lecturer
quotesjdoramagto
signifikan
##uratasap
menuhankan
btsinsaudi
51dbad17
51b400f1
08193289630
021
bass
cian
d3
echan
gj
gfriend
hamp
hanggang
ianya
kbb
limp
mob
oa
pih
putu
pdi
ringk
rach
sanji
tuman
uga
vr
vampir
wjc
xhaka
yoshi
##eong
##leman
##wing
##oor
##tv
##tanjung
##vestasi
##2emon
##zt
##zat
##0121v
##qwa
##fun
##anh
##arr
diy
difitnah
dialihkan
sean
##unch
##unyah
keunggulan
##agum
##itidak
##esak
ngawi
ngonser
##ulnya
##ulintas
guide
menebar
terapung
##umentasi
adaaa
##gab
perahu
##taf
##oloh
##olution
meminj
memamerkan
semanis
baz
banner
##eps
mengump
adrian
amnesia
suasan
pengalam
prob
embun
bahagian
##awo
distr
disamain
##oprak
truth
aspal
penjajah
loyal
dog
tetek
malih
senyaman
dibel
dibumi
##ecanda
dikalahkan
bersusah
tidurr
##akuti
abur
arak
diragukan
sket
kalii
punca
dimuka
aware
mulfan
berker
brant
youn
dufan
grow
dilem
dilangit
engine
timor
tenar
ulur
##trin
muna
pembagian
itinlove
##eyeng
##otabek
yeoja
keganteng
kegiatannya
kegedean
convo
##raman
instead
##aksinya
bbl
ofc
ndiri
##berd
degree
##ensional
kenanganid
##eeeeh
piy
mukaku
bacotin
##enggu
pamungkas
summer
boking
##iiiiiii
lumrah
festivalpesonamoyo2019
laptopnya
tkp
gega
irl
adminvsm
relax
##bln
feels
derm
derasnya
adilipel
ibukotabaru
denial
bhai
bhay
jabotabek
pergunakan
ganun
thankyo
freek
##iptain
biayain
keadilanmu
komplit
praktis
##ezhaliman
##bisanya
visu
apalgi
rohani
jackson
rezekiku
bner2
pejompongan
variety
tntg
##pemerintah
xiao
merangkai
ueueue
usiaku
dibawakan
##withluv
lempeng
orangtuanya
##akukezhaliman
kemendesa
ngonten
##bagi2emon
berkesempatan
pocong
joongki
menjerit
fambest
alhamdullilah
melewatinya
kesederhanaan
blz0121v
khalifah
081932896301
adminvsmbagi2emon
adilipelakukezhaliman
adminvsmbagi2emoney
77
780
89
anya
aul
csd
dustakan
eja
ejek
hoo
jare
kdm
ld
ladi
lengah
lobi
nular
rober
slah
tuli
tunjukan
yth
zzzz
##eem
##dol
##lend
##walau
##negeri
##ijak
##kanya
##kita
##ketika
##rep
##yor
##vu
##bob
##qin
##anch
##erangan
##emik
##istic
berumah
beradu
##idih
ngub
ngungsi
##ulicious
guard
menter
menantu
menuai
menelan
teru
termo
##olasi
annye
##utet
##eby
##eborobudur
memandu
udahh
gakpapa
##omy
mengampuni
##abau
belang
##edu
adit
##egi
##egrasi
buatnya
kaf
pengantar
##odok
bgs
keret
makian
entr
sendri
melampiaskan
maggi
##ibe
dulu2
dahlan
##jujur
##anggal
20rb
manj
ngert
ngerespon
menyombongkan
abc
pakein
dirugikan
skt
##ication
koalisi
blkg
ditindak
samasama
baka
pundi
usd
##empati
berbunyi
##oook
berkendara
tail
dekil
memberiku
dilatih
abistu
menghubung
sering2
dayak
##ffff
kne
ult
jgan
exit
deui
suke
pendendam
pembohong
pembinaan
botstrong
aye
ayulicious
hadee
impres
berlama
haz
lewatkan
pilih2
dosanya
##ilanak
sblum
connect
##tural
sehari2
videoin
saluran
forget
perkasa
pekok
mentions
##ikmalaya
butter
statistik
kakakku
mutuals
sarana
permulaan
notis
ujiannya
komenan
memikirkannya
##soc
mmf
hangus
letter
geblek
profit
kendalikan
rokoknya
keterangan
rasaku
motivator
keputusanmu
ancen
lalat
legowo
ibadahnya
tingkatkan
ganas
##ssssssss
knows
natap
##shshs
siram
googling
pesonafestivaltanjung
regi
julidin
kunkermenparkeborobudur
ngmong
minggunya
colek
ijinkan
gurih
breakout
bertanggungjawab
bentak
dihadiri
terosss
##lesung
lhoo
berkeluh
berkeluarga
selebtwit
ngapalin
gawean
dunianya
effect
singapura
got7official
sumbangan
grammar
katamutiara
galaxy
iklannya
ngasal
lazada
ethes
axis
nazar
roleplay
pnting
berkhianat
energy
graduate
odetoyouinseoul
sungkem
pengantin
sependapat
petuah
endorse
almarhum
mencobanya
pelabuhan
pramugari
kontrover
reformasidikorupsi
##ikantvs
kerjamenteridesa
maleficent
aburame
pesonafestivaltanjunglesung
2jt
ao
bomb
cgk
cass
calo
citer
duper
eaw
gita
hemb
jw
jos
jena
juri
kisi
mkin
mecah
nunduk
pj
peb
ql
sarah
til
tech
ugh
wks
zen
##laa
##lima
##losan
##home
##iar
##kit
##tang
##sumpah
##roy
##yek
##bagai
##35
##qah
##fish
##arangan
dipa
differ
##agonis
##ukk
##usu
##etsu
ngakuin
ngopo
ngorbanin
##ulukan
ternya
terpe
bisabisanya
##ebo
##ebus
memudar
apa2nya
##asayang
lues
bantai
##otap
##otcom
mengec
mengetik
bij
meriang
meredam
karep
kening
##aaaat
penganut
bangettttt
##acara
##ewon
nyinggung
pemakaian
##percaya
kelanc
baik²
kesunyian
disus
kebo
##juti
malm
##ecahan
dikunjungi
kekuat
##elahi
##indi
sampean
orglain
mencet
setres
blonde
ditempuh
minangk
minhyuk
beast
dongo
muli
dipingg
##cket
berkum
brew
duta
kmana
membuatkan
kakimu
jeles
baginda
##taruhkan
mati2an
mey
bertamu
bertentangan
ngejek
klep
tdak
otaku
teas
##ifikasi
exh
kedap
pemberani
ayooo
##erius
##ggest
jgn2
##eraan
##asting
digantikan
kebaya
ramalan
frame
heels
lear
##place
antek
##group
jualin
surah
insiny
comedy
rp1
hiu
monkey
hamdalah
mars
rush
ngehubungin
product
rekon
naras
astagaaaa
astagfir
ayamnya
nerusin
pencegahan
mengingatmu
berfikiran
silam
silver
whole
ributin
glass
jumatberkah
##gerung
langkahmu
roman
napasi
wkakak
membutuhkannya
tasikmalaya
ngetiknya
lipstick
bernapas
kwenye
camer
sembilan
gulung
porno
manfaatkan
mendengarkanmu
##presikan
hiksrot
##vao
mekap
coli
##market
antaranya
ngomel2
bentaran
dihadapkan
degdeg
hdup
menyusul
hadeeh
##zalimi
strategis
jahili
verifikasi
verified
hadapanmu
jemur
##pamit
socialmedia
jiwamu
jeketi
ngunu
jongdae
keluargamu
jengkol
rendra
dobby
menerimamu
strangers
konvensional
ceritaku
mudeng
portal
padalarang
diaduk
lvl
bxb
puisimalam
pengabdian
rockygerung
ynwa
diagn
rahasianya
kenakalanku
adakalanya
kebobolan
photobook
menasehati
pelacur
baqarah
melakukaan
jokamlicious
demonstran
ladies
annyeong
##ikantvseharian
cot
cember
dama
eehh
jng
limb
mj
mya
msa
nuan
nona
paman
palanya
rengg
rombak
sot
woman
yur
yelah
##milan
##dki
##hij
##wir
##off
##oorea
##pindah
##sak
##super
##rs
##rebu
##cas
##besok
##zul
##49
##alak
##alhamdulillah
##ampai
didaerah
sealed
keingetan
##aget
##ilit
##urr
ngop
ngiranya
ngpain
##ulog
menindas
akuh
##umma
sach
perhi
peradaban
memakn
lubuk
sixt
takagi
menginspirasi
bangt
##osen
##abang
selisih
allaah
karni
##eget
##ants
sihir
ate
##odong
nyumbang
benahi
prima
printer
##teris
encore
lain2
appl
aplot
kuch
ketoprak
disindir
kemesraan
sesal
##oboh
##uble
loy
##jud
kokas
##aranin
sampo
sampingnya
kekirim
thun
chung
##eeen
ngerekam
mendarah
seganteng
setingkat
dirut
sayangkan
##udutkan
##ilaan
lama²
##angkung
multif
lgs
##empas
##empur
berbuka
##saat
##2000
peluru
pelosok
##uuun
grade
kakiku
dilanda
balikkan
okes
##intang
##asilannya
##ingkari
matic
david
spbu
berdebu
airmat
berteduh
pesek
polit
wax
expir
jeung
theater
itungan
italia
dlam
##ijinin
jazz
java
betina
##the
lohhh
struktur
desper
ngebl
ngebela
##uce
dihindari
##plan
siang2
insiden
insert
terhubung
salto
##ensasi
berminggu
dinyat
monday
masing²
elain
##sudah
updatean
##ampakkan
koreaan
eksistensi
pete
##imane
genk
##jarak
##week
nethink
##enggemuk
ngedrakor
terdepan
angkuh
remote
mnd
anginnya
ngegalau
relawan
gebuk
profes
gendang
dropship
nasdem
debutnya
nyetak
menyayangiku
pipinya
pipimu
##uuuuuuuu
tasik
##iksaan
tomat
##oooooooo
dakjal
kusadari
##786
robek
sampingmu
lakik
lakinya
kotoran
##gggggg
gugat
damage
jamban
welov
fatmawati
ridwan
rajabot
hahahahha
dikenalin
kristus
##crot
folback
gblg
disiapin
penontonnya
thriller
##ooth
kehadirannya
bloon
menyerukan
dawuan
##depok
hahahhaha
ngeprank
membenahi
sngat
squar
pucuk
##cheol
woles
anonim
shoes
tintabijak
##disekolah
##jilid2
direktur
sbenernya
matilampu
arthur
##arabia
yalord
evilbot
girang
sarkas
kieu
fauzi
minjemin
terimakasi
penglihatan
ngeladenin
vulgar
rigid
btsinsaudiarabia
regional
minangkabau
insinyur
680
came
ela
eunji
fals
hac
hela
ilove
lus
liku
lampau
mimi
nite
ohhh
padi
ron
sopi
tangkep
zz
##e2
##hm
##name
##gitu
##pda
##pul
##sim
##cent
##jut
##bad
##bee
##fj
##ahir
##akep
##atanya
##amenya
dial
dituk
dijajah
ditusuk
##apon
kef
##add
##elshinta
akuk
intan
berpacaran
kalung
##ilia
##jaja
##uluk
tertahan
gaaa
sabang
perint
perpaduan
perantauan
masaknya
##olek
mauu
##utt
##utasi
##ebol
meminim
##yaki
apaaja
semac
gueee
siot
mengul
menggig
##osongan
##abot
belon
harv
barkah
##asiakan
penghar
pengambil
taulah
##tery
melukaimu
##inggit
kesihatan
disin
##ophob
##ibar
trnyta
##obos
##obungk
ataukah
asah
##ubris
keputer
20an
##eeek
menyalah
sofa
##lex
mencemaskan
drag
setor
skli
gimanaaa
tank
dititip
##hard
isang
##angkas
namja
##olli
dimaki
awalan
usok
kred
krupuk
pint
pelun
pelaminan
gaber
berkutat
brown
tersirat
academy
kurban
musa
##asilin
spontan
anjirt
##yarat
matilah
mulaibosan
kabari
terkini
explo
kedel
kembalian
cui
memperb
memperluas
memperbaikinya
ayla
berpuasa
ambek
andong
##babi
berlayar
##arket
##years
mengguyur
jelasnya
sbgai
##yke
bergengsi
dihormati
sibuknya
##ustin
huhuuu
weird
terhebat
##nies
puzz
korg
dinikah
masakit
bercampur
perbulan
##jsk
maenan
ngehindar
majikan
##hhhhhhh
naruh
contekan
avatar
depress
baswedan
broad
tabu
mmb
##iptanya
bisnisnya
celaka
kolej
paketnya
##onsta
milyar
kubenci
inggrisnya
pesenan
tawarin
assist
##organizer
ibaratnya
totebag
sims
mvnya
takdirmu
ganyang
azan
geter
penerapan
indonesiaku
santri
taeil
overthink
membunuhmu
picture
pastikanlah
gurau
permasalah
almet
inclu
##ergian
until
jahe
micin
mahasiswanya
ucapannya
hipotes
##esterol
rentetan
histeris
secreto
tributet
selayaknya
kihyun
ketaatan
diusahakan
ambulans
boncengan
yogya
prosed
d4rk
berjudul
cgv
kedokteran
dikepala
bontot
digabung
pengelolaan
mancung
journal
dikehidupan
##riyadh
pembangkit
throwback
sefrekuensi
##raktir
dibayarin
puskesmas
testimoni
berkontribusi
muhammadiyah
brutal
creepy
mingkem
rekonstruksi
cemberut
tributetobungk
022
1m
2d
aamin
bina
cities
dalan
dorg
ei
fang
fiz
gs
gip
gard
jid
jkr
kiki
kilat
laksanakan
mian
nl
sper
timp
villa
wayah
##eyo
##muk
##mand
##wil
##ojo
##nisa
##gini
##tit
##too
##cus
##cantik
##vn
##vens
##vement
##zs
##fd
##fic
##ankan
##anikan
##inah
##ardi
##atohin
##asiku
diedit
seba
seisi
##untry
##iseng
##again
akang
##usel
##etr
kalut
##esang
ngi
menasihati
seme
luw
gakbisa
judg
sick
takuti
mengekang
banggar
##ending
bella
pask
paspor
adoh
adonan
##eger
barter
seberang
kaz
kaco
atasi
pengaturan
nyender
pramb
emerg
makam
##sive
melemp
apotek
pernahkah
kuya
keteteran
disebar
kemasan
terusin
##angggg
dibonceng
dibanggain
##ecare
##eeda
ngerantau
abst
waktuku
around
direkam
##ico
##embok
lamaa
samakan
bakti
bakteri
pundung
mahat
onoh
ples
berbenah
buahan
bebel
##20l
brt
branding
memberanikan
ahn
daan
##encanain
berdakwah
bertanding
notip
baperin
mandir
pesisir
polow
##ghter
kedekatan
memperpanjang
bisnes
burjo
tulen
jail
inget2
serigala
hahha
oma
sector
kagumi
habisin
tweeter
straw
daster
bantulah
kejepit
dihibur
bodong
##minute
rujak
salak
woiiii
##ohonan
wahana
listening
memberikannya
accept
uniq
teki
pegal
150k
eksperimen
udan
sne
kenangannya
fanwar
ngedapetin
pamerin
bngsd
tergesa
bawahan
mnurut
mndi
weeks
kadalu
kupas
instagramdown
temen2ku
gebu
bangkitlah
kendali
tebus
metawin
meteor
ngescroll
kmutiara
ditujukan
semeny
pendapatnya
nanon
mengakuinya
wife
delapan
enjoyfestival
pijatjakarta
becandain
four
funny
jendral
##janganpamit
##olio
pupuk
pupus
menegakkan
hyunsuk
persibjuara
##semoga
bergaya
pembahasannya
royal
menyertai
syahdu
digituuin
egonya
uhuk
henpon
rentan
menunggunya
martin
adventure
tweetsederhana
local
turnamen
dikriminalisasi
diurusin
##humas
nyempetin
rukun
treatment
alfie
ngusik
develop
friday
ignore
memusuhi
pbdjarumjanganpamit
bereaksi
mengekspresikan
alaihi
himpunan
jenggot
drakoran
2019pilihjokowi
kepanitiaan
suasananya
termotivasi
menggigil
puzzle
prosedur
d4rkbot
enjoyfestivalmorotai2019
boo
cn
dala
ewe
fanc
gow
hn
hshs
iyak
jaa
k3
kia
laaaa
lipt
lorong
laksono
mwu
null
ox
oom
rung
reka
rice
salib
uri
waku
wedi
yoga
##daran
##lunya
##lamat
##knya
##tun
##sun
##sor
##sai
##cal
##2o
##2n
##73
##fand
##akon
##athl
##asu
seant
searah
##audah
##isy
##isin
##isat
##onj
##itz
##ets
##ilap
##ilagi
##urau
##urahkan
ngb
ngend
ngapus
ore
orasi
gaikut
##tiap
##oru
massal
##imut
anw
ano
memas
memikul
##uatin
gaktau
##omay
##upi
##epak
unav
unse
takjub
mengejut
##abutan
selebr
ale
sekil
karyanya
##edor
adus
##egoro
##antunya
temper
pengampun
##acak
nyuri
membalik
kelantan
keses
ketamp
disiksa
##obe
##obun
seratus
##ilangin
stal
dibidang
dikond
kekosongan
manakah
besari
menyet
menyinari
menyempurnakan
setitik
koc
ditanyakan
ditikung
ditunggangi
kecer
coc
count
minute
begok
waktus
namatin
mahh
rey
mulfand
dipl
diputus
##real
use
usik
buff
buyar
##saja
suster
##ngg
brother
katakat
dilirik
soalny
ahahah
menghemat
bago
##liam
##oreaan
messi
syalan
spanyol
##ieq
pose
gamon
ilegal
ujannya
reset
datanglah
mboh
hadeeeh
uangku
improve
kho
hais
ingetnya
##think
menggantung
##eravens
persyar
lemas
rakaat
sbux
riang
anggotanya
##minkan
coment
koriya
bby
kabarmu
##amahi
ngobrolnya
pouch
1975
ndelok
jenjang
bubu
sunset
degradasi
tekat
sabah
masyarakatnya
##selamat
produknya
ktm
potek
depart
notebook
working
biasalah
pinterest
tabrakan
sgala
ngeganggu
alamnya
erti
subuhan
celebr
dibuatin
lajang
perlihat
bahagiakanlah
populasi
beruntungnya
berakhl
divhumas
muharam
cupl
foot
##ernasi
exclude
lino
sorang2
semacamnya
gbisa
##tuliskan
pemberantasan
sasukeravens
maps
ricis
hadapilah
misterius
sleeping
awards
lady
pemerataan
marketplace
craving
sumpek
location
##osofi
ditangani
imbasnya
cimol
sharusnya
##enghujung
figure
gomawo
analisa
foundation
##2018ku
ketabrak
hestek
penyampa
bbrpa
insyallah
kepulauan
nmpk
manusya
sliweran
borderland
damaikanlah
familiar
dikendalikan
tweetdoram
bunyinya
lovestory
insekyur
##emudian
saldonya
pihaknya
mengumpat
dinyatakan
tributetobungkarno
##20l9
seantero
94
bfl
canti
cela
dpat
guk
gant
gusi
galo
gyul
hq
hln
kj
mangat
nit
nir
nti
nani
neji
nmax
paw
pix
phy
qash
rayu
ronaldo
sdah
silah
sido
vpn
wejangan
yb
yake
##mg
##hori
##namakan
##kol
##renya
##cip
##vensi
##x1
##3b
##fot
digh
diejek
kei
keabisan
##ikam
##ems
##agh
##agor
##elum
aktr
aktingnya
inactive
bertumbuh
bertujuan
kalkul
##ulir
menstr
terangan
terisi
yailah
perban
##oker
##orinya
##adiah
##ebet
juju
baiq
banda
##uput
##upload
undian
unlock
unpad
unfaedah
##otot
mengah
mengakhir
alian
##eduhkan
buatkan
amet
atw
##acunan
##ajinan
benj
ema
##ternal
melet
meliputi
kuberikan
##andak
##andel
disug
##ambakan
trf
kanakan
stamina
kebanyak
jamur
##atuanis
dibesarkan
##arani
bersua
##antigas
kekesalan
menyanyikan
aborsi
mui
amplop
drmh
dira
dirusak
mouse
mine
miniso
dimaks
reun
told
onepi
sepenting
sepandai
nihil
beby
konter
brasil
##istry
abisan
kehujanan
menghantui
actor
##patch
bagas
kasta
##ujanda
dayaku
sebener
spirit
mej
##allam
berdampingan
airasia
sadboy
##oyan
waro
gapengen
panci
tentangnya
umno
benarkah
hehee
terbes
terkec
reser
kedip
##inaja
##atuhi
sumpahin
boikot
filip
##erior
naiknya
##yeu
secepet
persaudara
persimpangan
replay
diperd
igd
digoreng
percobaan
kontaknya
leon
slamat
dihajar
mantanmu
tinggi2
ngajuin
##akaan
param
parag
dijodoh
##ybody
hiv
bacok
gasalah
forest
##avi
penyebar
##aleman
wahhh
30k
reko
sdng
ekspor
kenangan2018ku
ngeluhnya
goodluck
##ushi
depres
permusuhan
kiy
festivalpasarterapung2019
logat
subuh2
risma
##efl
mewarn
kolesterol
ribut2
##udahi
darahnya
nomornya
mabu
hikss
##uuuuuuu
menyesalinya
membutuhkanmu
tasya
balasannya
aslii
fotoku
camkan
##stracker
eunwoo
durung
##wins10
muharram
bersedihlah
trial
getting
lucuk
segeralah
sandeq
nyelesein
blackout
dcfact
mengenakan
disekit
##nnnnnnnn
##xxx
frontpers
welcom
tayangan
kongres
mengalahkanku
sksk
ciputat
##ramayu
hibernasi
trying
##qwq
lockscreen
pembawa
steak
##embunyiin
mencerminkan
##mmmmmmmm
gelasantigas
##areth
teuing
dianggurin
dipelihara
protokol
disekitarmu
recehkantwitterjilid2
pesonaironman
jangn
##eduliin
lobby
aquarius
meluangkan
diturutin
package
financial
awokawok
nokia
sbmptn
pajangan
comberan
lensa
kogoro
pangandaran
mengawasi
kutipan
sucks
experience
penampilannya
melindungimu
kebalikannya
idiot
cantumin
mengistimewakan
intoleran
bertakwa
menjijikan
menonjolkan
kuntilanak
ganyan
aldebaran
dikodein
saveri
##otapindah
kelancaran
teasernya
emergency
##athlon
waktusolat
mewarnai
frontpersatuanis
pesonaironman2019
b2
bike
bowochallenge
cing
catur
cause
cctv
dolo
dodo
each
gall
gentar
hul
hent
hdh
jess
jake
kada
mdo
oil
town
yar
zee
zakir
##eel
##menc
##dark
##ocok
##iap
##yes
##coba
##0p
##03
##full
##893
##112
##enaknya
##ining
##yaaa
##amak
kejalan
keego
##tub
##adin
##ukkan
##ukuran
akus
##ing2
##ingati
##irind
berontak
##urian
ngur
terbar
gays
##oks
##utakan
##uhuhu
memerintah
apaans
##asabah
kamuu
kamubohong
sian
sich
guaaa
mengint
mengert
selengk
meri
meredakan
karokean
##alaminya
ameen
##intaja
##entah
att
nyek
nyalah
keracunan
kerajinan
taurus
##iater
##sie
melihara
apapa
##andy
magnet
##ekaan
asma
astuti
penel
penul
penurun
serentak
smh
smga
##looking
##dhe
kekeny
ther
##ipulasi
orgtua
mencuci
saksikan
pastiin
ikat
balai
##embali
nakita
jalankan
tanamkan
ditiru
seperlunya
could
country
isin
mulakan
dipost
angga
sepihak
mail
jdinya
berbakti
konvo
ngelap
dugun
katika
aha
##integrasi
menjilat
menjengkel
mataram
ajari
policy
dey
dean
munkar
pendeng
pendosa
##atuhin
sejelek
mempertimbangkan
ithin
biss
atasnya
persel
sempak
esensi
senyumintaja
myday
ngebahagiain
##hoot
bergurau
nyamain
nyamannya
gedhe
menyap
menurutnya
kerasukan
pdf
comfort
jelek2
ceker
petual
##day2
##itiga
harapanmu
day2
##ailable
bangsul
bercita
bora
udin
asiknya
nominal
cakep2
fanart
joe
presidennya
ktika
worry
aduhai
nuonline
ciomas
partnya
memikirkanmu
weekday
sangar
politikus
ulama2
mamake
lololol
kisahnya
kekuatanmu
keinginanmu
1440
##eful
menyelimuti
ngejer
shopeex
##igu
puber
madam
boyband
boywithluv
ngaku2
nyeseknya
diterusin
2007
mengenalnya
tasyeu
##heart
gusdur
menyambung
##akalim
nonstop
hueh
nelayan
##wuwu
bismillahir
gosong
sungmin
triathlon
natsu
nyelip
srek
covid19
lantak
nafasku
disekel
##angsit
yhaa
audi
rileks
membunuhku
bws
perputaran
nadin
yawlah
tired
ditutupin
##uncang
hafiz
cobak
honne
tiber
huaa
ngapasi
duniamu
duniabijak
titit
rekomendasiin
calm
shawol
##angsungkan
waiting
massag
uwong
logout
akaun
sepatunya
hehehehehe
kodrat
sumbernya
papuab
creator
nasabah
ocehan
identik
terselesaikan
pribumi
cenut
sentuhan
##onggong
ketidaksukaan
kekanak
trouble
mazmur
sbenarnya
mengidolakan
yaampon
menghidupkan
adopsi
penyelenggaraan
dibarengi
viking
suddenly
fajri
sepantasnya
dcsquote
##berduka
freekonsultasi
kenakalankudisekolah
perhiasan
meminimalisir
apaajaiklan
pelunasan
abstrak
tweetdoramon
frontpersatuanislam
ithinki
320
aesthet
cite
dum
eli
eaaa
gegar
ipp
jkn
jompo
kyo
msg
nomb
nampung
pinta
pidio
qn
syak
santu
tad
tus
veteran
wg
wanti
wota
walo
wingi
##more
##aang
##lee
##lampung
##uasi
##hutan
##well
##kau
##tad
##zim
##zation
##fal
##erima
##angel
##akkkk
##ention
##asah
diizinin
seon
sejadi
seiman
kezel
##auke
##adow
##usmi
ino
inda
berw
beraksi
##idz
##idulu
ngik
nguli
nguras
guan
menke
menembus
menkeu
terdaftar
pernh
perbatasan
##kantor
##adian
memikat
memukul
ludes
##omend
baza
##ott
mengukur
mengikat
mengajukan
biasan
belibet
masihkah
sekangen
##rigger
barokah
barcelona
sebiji
##entil
atlit
nyatu
embat
makes
kelop
##ternyata
meleg
melenceng
##ayat
semuaaa
tahni
##awards
disp
dispatch
##ambahan
seset
trakhir
sendiri2
penolong
serangga
serendah
loyang
##kuu
##naval
door
kepilih
dikait
theg
thro
niq
besaran
chil
##indihan
soan
arya
arteria
mencatat
##anjal
##anjkt48
shg
dirah
direbut
##icilan
ditemuin
samyang
minang
##angke
pagi²
dimalam
ehem
mulainya
keluar2
dipol
dipeduliin
cermat
##rei
mainkan
plaza
setimp
berbobot
##jaksel
peluh
berkar
berkelahi
youm
ngelirik
membership
##amatin
demirind
susah2
balik2
menghayal
tetapkan
##intflower
kompon
komnas
gov
##allos
berdir
tensi
tenangkan
terkendali
teacher
resume
expos
jej
infin
berpulang
berlarut
berlimpah
haik
filosofi
kuliahan
betol
betawi
persekusi
sempurn
cowo2
diperintah
##ejen
0811
08778
##timew
ngebandingin
suksesnya
kontr
kegilaan
dihentikan
gema
anting
terpecah
convention
##pons
dateng2
score
maksutnya
ayo2
cepatlah
perkenalkan
patungan
moder
selesaiin
##amahin
##likasikan
##eaan
ilang2an
##onair
gedein
betulkan
curhatin
##roup
menangislah
##ready
hakmu
goler
nambahtinggi
basuh
based
fulldi
obsesi
miliknya
kejadiannya
##ishi
mnrt
pecahkan
pelajarannya
relakan
gear
william
hrsnya
infokeu
kompensasi
latte
motivasinya
##uyuran
tanduk
purwokerto
last2
tesis
manggilnya
cemer
sisain
enjoytom
starship
starling
sirkel
nino
sragen
deadlin
##moon
cibatu
editing
nunjukkin
anjerr
vcscol
##alsuan
propolis
kinda
kekeruhan
ditempatkan
longlast
ubahlah
kemane
dzikir
teknisi
society
folow
trading
tameng
common
perkembangannya
roommate
underst
srius
mengajakmu
victor
royong
blogger
menyeramkan
mengkritisi
##pelajar
gubris
objektif
penyabar
##club
meluapkan
sensei
##ohointflower
merangkul
dibenarkan
sajalah
nadia
jenguk
dilapangan
disesali
rempong
paksain
##purib
menjagamu
membimbingmu
homesick
pdkngnya
gibran
korbannya
merealisasikan
subscribe
##gahayu
mufakat
denyut
kengr
nyembuhin
jopping
rynchibi
conversation
sixtones
expired
desperate
welovepapua
liptint
unavailable
perlihatkan
##wins10s
gelasantigasaudara
menjengkelkan
shopeexitzy
menkeusmi
setimpal
demirindumu
enjoytomohointflower
vcscolmek
enjoytomohointflowerfest
83
84
bkk
bomi
butut
cilik
cadar
dangkal
ez
fur
gid
gapai
hingg
hwi
lcd
molli
nant
nanyak
pey
rik
rian
rai
ride
ricky
tis
tone
tower
tiru
uwa
where
zinc
zero
zumba
##uba
##hb
##wek
##nasional
##gur
##punya
##igh
##tong
##share
##radio
##cp
##copy
##vita
##bitkan
##300
##51
##ahhhh
##alengk
##asas
diarah
diasingkan
keun
keda
kearif
##emur
##issa
##adiri
##aganya
##onr
berim
berusia
bertum
berandai
##jaek
ngana
ngada
ngarah
menumb
terupdate
orz
gairah
##ungu
##taehyung
##oreksi
masadepan
##adiun
lagipula
##ebah
##ebaya
memant
memesan
memecah
memancing
##eha
##epok
mengga
mengikut
banged
##endong
seler
merana
##ianatin
##edik
##riz
##egard
##antes
amsal
##enteng
suu
nyiptain
membelah
membesar
benua
prac
emb
makenya
keluyuran
kuw
kemurahan
kemkominfo
##alip
kane
serempak
ingt
stnk
tuuu
seniman
##ecab
dikota
bersumber
manu
manjur
manasin
those
chi
chim
##eeeet
##gni
satuan
abal
organi
mendua
mendarat
##nyat
segimana
##anjel
indramayu
skl
koas
coz
isis
giniin
sakit2
kata2nya
dipimpin
dipungkiri
dipojok
dipenghujung
##chain
kono
kasihnya
##yout
kom11
spurs
berhembus
bertemunya
ajasih
gatot
buka2
kabulkan
terkalahkan
tempatku
##ifa
mempertahan
memperbanyak
suport
persemb
jelasinnya
represif
alasanku
ramenya
##hou
tanggap
framing
geme
pantek
weibo
dekatkanlah
would
ngetwt
##culkan
kuny
hiyah
##orium
gampangnya
panjang2
kebaikanmu
perempatan
supermarket
clap
##ardy
seungcheol
majah
njuk
##ondo
phk
piyama
genshin
##enggal
ngedown
kulo
lebur
pamitan
pencerna
##izmr
cabecab
tabrak
lumba
gmau
gmareth
tercantik
hangul
harapannya
nyampein
bonyok
rabun
byr
indomart
selfi
##woak
ckup
##incer
menghadiri
bahagiaku
hancurnya
lawas
menikahi
restart
saudara2
ketiak
hahahahahh
##rrrrrr
40k
diselimuti
mirac
targetnya
starter
bambam
pisces
atmos
cairan
pentol
ketidakp
##shopping
perpindahan
breaking
penginapan
singkarak
jebakan
visit
didengarkan
bimbel
lanang
livenya
halusinasi
ceballos
pendukungnya
##wajibkan
##ripsikan
behel
bomat
gejolak
citaku
congratul
##essional
debit
syndr
kutukan
diinjek
cimahi
dipindahin
announc
usianya
rhino
anniversary
##entific
ambisius
##bolehkan
maemunah
sindiran
diasah
melodyjkt48
street
cetek
diumumin
meneteskan
tggu
october
lieur
scientific
childish
ekstrim
ngacengmas
gampangan
pelaksanaan
mendewasakan
lampungkrakataufestival2o
achievement
lidahnya
mengecilkan
spiderman
konsekuensinya
freelance
rashford
sepertiku
infolintas
jahiliyah
loyalitas
okesip
barkahsuk
pengambilan
ganyangka
paskib
cuplikan
terkecuali
persaudaraan
##darkmode
kekenyangan
petualangan
komponen
fulldive
##jaekemana
gmarethaaaaa
5rb
aish
b1
bow
clo
cimb
fem
fing
gulu
gose
hb
hep
juru
jumb
kpa
kij
kolong
lut
larat
linc
loss
mia
nations
rans
ranjang
ronta
rujukan
ssh
sni
tangi
tumpul
yampok
##mkan
##djd
##uun
##wkw
##gap
##gul
##gma
##kpai
##kepo
##som
##cam
##cet
##body
##3k
##eneh
##intar
##incing
##alh
##alayan
##atom
##apal
keum
##ihir
akurat
##usuri
berir
##jaer
meneduhkan
termen
oreo
pera
perfek
##okong
masha
##imo
##imba
analog
apaapa
luangkan
gakk
unmood
##anaan
sigh
siomay
taka
mengungkap
mengalihkan
mengetahuinya
##osit
biografi
bieber
alamb
alva
pasta
##edin
##rie
haris
##acewek
##ewor
nyungs
pemak
pemegang
tauk
tauuu
emmm
sukaa
apah
kuwi
##andangan
bahannya
pakenya
ketempat
ketangkep
##opoli
##ibel
##ible
##onto
##ontang
penah
kanak
##ubit
kebucinan
kepint
smaa
dikemudian
manjain
biasain
chel
##stil
menyala
soobin
segitiga
mencekam
saka
sha
dire
direvisi
dirindukan
blangk
ginii
dipam
ceroboh
sepaham
usha
rumahan
bolehlah
berbasis
brpa
##aafin
kadangkala
gres
nangisss
kangin
jelata
bagasi
idr
##manir
timbal
twitterdown
menjebol
komedo
olehmu
berdetak
berdekatan
nota
klas
ajasi
tdnya
gaptek
battery
terbeb
terkubur
tempatmu
teater
##iful
pembina
105
bukhori
tikam
tikungan
mempertaruhkan
carni
hadirkan
sumpahhh
mandiin
boj
boongin
sabarlah
yaud
dipertimbangkan
##ejer
digo
sahabatlah
jatuhin
sbs
gagak
bundir
##yster
dihal
##batang
##grasi
##uruskan
##engkapan
cond
gedenya
sikon
puteri
satukan
insting
fakkk
dinyal
dinamain
monb
1942
100ribu
nahh
##ferensi
sunscreen
rout
tekak
gedean
majelis
ekskul
udaranya
sosis
##yahya
maksudku
lebarannya
pamrih
goodlooking
cueknya
basikal
tergolong
penghianatan
istirahatlah
##uuuuh
pecicilan
kawat
ngegym
instagramdarkmode
belanjaan
tangsel
subtit
##balm
dibuatnya
markah
professional
catch
dukanya
##untuknegeri
lipbalm
etis
kebenarannya
otwmuslim
tawakal
assalam
bakar2
totalitas
##kkkkkk
selingkuhin
volunt
berakibat
kualitasnya
meningkatnya
missqueen
tumbenan
mirror
domain
indonesiadar
##bekas
sampingku
ninu
psikis
recehan
lambang
kentank
ganjel
perpecahan
welove
cicil
##oshop
sipit
pemberangkatan
phpin
arsitek
singkong
memperkenalkan
terbaca
radioelshinta
hsw
300rb
riche
alahai
gombalan
calender
pojokan
personil
cutting
ngereply
sebegitunya
blood
mengasihani
kebangsaan
keceplosan
lurah
ngejauhin
landsc
kmn2
cpns2019
menggambar
inisial
hoshi
ryujin
wqwqwq
memelukmu
berekspetasi
nyalip
mudanya
gravitasi
berbulan2
fantasi
nmr
tragis
penutupan
membebani
http
mintalah
diwarnai
khatam
kembalinya
inspiratif
komentator
lenteraanak
ilahi
honorer
belanjawan2020
terooos
karbala
answer
gracia
fathur
perjalanannya
steffizmr
rookie
jurnalis
michael
##supershopping
memaknai
keegoisan
tahniah
kearifan
cabecabeaan
lampungkrakataufestival2o19
yampokpok
otwmuslimunited
landscape
steffizmr15
##supershoppingday
3k
4000
bumb
cost
camping
eon
eit
ehhhh
fw
fuc
fany
gantinya
heee
hiii
haul
iam
jor
kaa
kbs
lulu
lanj
nr
nid
nita
naa
nud
noleh
nantikan
ov
oyi
paran
pare
que
silih
surut
t4
uitm
yos
yosh
##dit
##dip
##wash
##nar
##nic
##got
##kum
##kot
##sian
##japan
##juni
##221
##akita
##arily
diib
diorder
seol
##tukannya
akb
##ustr
##dayakan
##irs
##irain
beruntun
dani
menular
samain
memasang
semarah
##ehwi
jud
juak
juve
##epre
##epotan
##aini
##otweet
##abes
##endump
seluar
bell
along
alibi
##eding
##antap
sudh
succ
##acuni
##ajam
##ajun
##ewahan
nyah
keris
benam
prel
##ohhh
enih
envy
sendi
kesehat
kuta
ketenaran
##awk
diseg
dishare
disosmed
kemang
kemaleman
kemewahan
trash
##ontoh
penak
kannn
sederas
station
doacewek
malab
smakin
dibulan
dibungkus
dibego
kekac
kekadang
kekony
manda
manyun
menyalurkan
abr
soes
mendalami
mendidih
dirangk
##ision
##udin
ditepati
samas
sampa
isolasi
dimna
dimensi
dongs
dongggg
dipedulikan
usang
plng
brubah
kmi
pertanyakan
soalna
iyaiya
##istrik
menghiasi
acne
spasi
klaten
##oyokan
caripacar
ceplok
terbunuh
ultr
jawatan
pembentukan
ayen
hadist
berpengh
ambillah
dicancel
andil
melihatku
hao
boi
##ribut
betot
##masin
menggemaskan
secapek
superior
persebaya
digubris
btob
rakus
##usiakan
heff
gelo
##plak
antagonis
terputus
terpuji
terpapar
diamkan
otakmu
##diindonesia
dekatmu
wisman
ngetes
ngeteh
parad
kunang
mentak
gasempet
path
ambilin
situasinya
makasihh
goblock
edgy
jerebu
kucingku
sndr
phil
narsis
sorenya
ipad
##egaraan
nongton
cieee
eventnya
juseyo
##ahahahahaha
pesonabul
mmng
tsub
##eeeeeee
keinginanku
tampaknya
celot
bonusnya
becak
menyelam
umumin
##hield
tunang
pinginnya
setidak
memaafkanmu
called
parking
nanad
musuhnya
legenda
violat
##136
muhasabah
modelnya
trio
spesies
huftt
##shshsh
nasionalis
##ampingi
##ampingkan
ati2
gigolo
kemenag
##fulindonesia
##sionis
lesu
sobatambyar
ketidakm
##54112
memeras
cashbee
gasiap
##eshop
##5858
##qqq
muridnya
jebul
##leset
pemiliknya
hyunbin
cultural
mksh
sriwijaya
hadapanku
captionnya
1998
##aaann
mengendalikanmu
ngidol
decide
085754112
dawet
kdang
research
082121
dinyinyir
yayasan
eceran
vagina
bikos
kafein
menemaniku
rnb
nauzubillah
diperkosa
##uzur
digantungin
failed
director
campuran
##corner
presentation
memuncak
return
katakata
listeners
pemanasan
chemistry
##icidepre
educational
fadlizon
sesuatunya
temporarily
##ecially
dicklicious
##aginip
##indonesi
ditingkatkan
sepemikiran
brantem
mecahin
terpejam
dituker
stalker
reunian
gallery
aesthetic
##alengka
organization
##endumpapua
kekonyolan
pesonabulelengfestival2019
085754112212
##icideprevention
bisi
bog
bread
casan
clue
eur
eust
gho
gmail
loro
mother
pia
rani
sura
tgn
ubi
wek
wooo
wiba
xium
yess
##e8
##dil
##lt
##lebih
##uwe
##hd
##penuh
##kara
##rikan
##rina
##cewe
##jeh
##video
##bet
##bug
##bgt
##zaria
##fah
##fsir
##akun
##akatan
##akstm
dijalanan
##apura
kejur
keitung
##isap
##ads
##etek
beradik
##illy
##ilyas
##esome
ngape
##ulid
##ulangan
mene
terabaikan
akum
akuuuu
##oket
##tae
ituh
masup
##iment
memut
memetik
##baek
##ba5f
mengungk
bangka
selaras
merugi
sekar
##edding
adlah
##rict
##antwitter
barak
nyem
nyatain
##perware
makasar
##sium
##ohyun
##tera
kesemua
kuu
tahi
disuatu
kement
seseru
tranding
asuu
penang
kantuk
##naik
keberapa
senar
##logo
diblok
dikon
manly
chit
menyindir
menyudutkan
tahun2
shaf
##gic
blink
gimana2
ditekan
samurai
island
bakwan
punk
dimanja
dimasak
dipantau
masalahku
##refer
lgo
capenya
captain
krama
konferensi
pelecehan
gabales
bromo
##ancem
memberatkan
ahelah
mintain
jelang
pikir2
pikirku
syirik
wkwkkwk
daehwi
spread
jauhilah
teler
matter
##ombal
mandar
kuatkanlah
polemik
didu
munc
jeje
10cm
mbatin
##ateful
hadis
oppo
dicur
dicampur
burik
berlubang
kecilku
menggemb
keseleo
hahahihi
diperpanjang
eskal
digoda
sokong
##buku
tweetpelajar
yea
slank
antisipasi
##ankong
anjingnya
##going
##afikan
dasaraku
puitis
dijelek
terakhirnya
scam
moodb
bbw
dinam
taruhan
perkosa
sendirimu
situlah
ngobrol2
##berbayar
sunrise
clas
tumblr
dibilangnya
##ugihan
terhadapmu
kapol
grey
##untaskan
kirimkan
##alangin
nulisnya
gemesh
hoby
progres
jepara
alamak
##efact
irama
##bales
nasibnya
##igital
derby
sopir
##ocos
cannot
rasah
tindakannya
kalimatnya
##ilingmu
2232
sembuhkan
jablay
##heal
handal
##rated
ngambekan
sensitive
dianterin
defense
payudara
wifinya
##991
ghost
prioritasin
kusuka
berasumsi
kesiapa
cupang
##bekasi
sandaran
tourism
berisiko
bigstage
limited
tarikh
obrolankong
girlfriend
##7088
topiknya
bubarkankpai
##express
perpust
guyuran
teman2ku
longgar
menuangkan
cinema
ongkirnya
dzolim
##405858
628
parfume
fangirlingan
300k
akhlaknya
pabji
nyebutin
membenciku
jemari
menyebutkan
1991
kingdom
melukis
behind
iqba
hold
mengusung
melengkung
watermark
christmas
togog
aksara
terealisasi
##jateng
taraf
bercerai
##ahahahahahahahahahahahahahahahah
ukurannya
ruben
gnti
selangit
saingannya
serumit
##ruksikan
ongkosnya
0822405858
refleks
ranting
flex
##alifikasi
pengawas
anjiir
bepergian
mengatasnamakan
dikembalikan
kameranya
penegak
didatengin
dipatahkan
window
bertekuk
##oloskan
khasiat
taylor
hektar
astronot
kesemutan
diributin
fokusnya
pembatasan
myxlcare
perintilan
mengejutkan
ketampanan
filipina
penulisan
perselingkuhan
through
youmant
pencernaan
barkahsukamahi
alambanten
routine
volunteer
preloved
violates
eustass
xiumin
2232ba5f
082240585812
3a
63
aju
bih
cell
cwk
dus
eve
fgd
gong
het
haaaa
hue
ian
jalang
jinj
janggal
kumbang
lika
lendir
opr
pai
rona
silang
sgni
taste
uki
vakum
wn
wok
wings
zay
zalim
zuzur
##mya
##tory
##talk
##sks
##ruh
##rasa
##rban
##rahkan
##yr
##code
##jy
##jha
##vir
##batu
##092
##1n
##1000
##arsa
##alty
##amaku
##asimu
seta
##aph
##ikalo
##emak
##isiku
##adir
##engok
inis
berop
berjarak
##idence
kalteng
kalsium
##uritas
##ulusan
menawan
terobati
akuin
##umandangkan
##eko
##ticon
perit
##isab
memasuk
sema
luis
juyeon
bana
##eper
six
menges
mengaji
mengetuk
mengalaminya
biayanya
alu
alif
alpuk
alfatih
meremb
sekampung
kard
##atawa
##iani
##edom
##antam
kaiba
temurun
suer
suaraku
pengk
##ewer
nyatakan
pemuja
makrab
kelor
kelsy
meleset
meloloskan
baruu
apo
apink
disco
display
dispons
truck
##obak
##oberi
asuh
tiongkok
lou
loob
lovers
##kuit
hala
doinya
##jualnya
##anggisan
kepalamu
dibagian
dibodohi
dikurangi
manca
##eeer
##stwin
ngeretweet
abes
mugi
mufc
arsip
mencarinya
indikasi
direncanakan
dirgahayu
##icarian
moyun
##uary
blush
##uddin
tanak
ditl
ditendang
ditakuti
lamaaaa
iskan
isyarat
istimew
bedah
dimimpi
dimohon
sepinya
##change
plakk
buzz
age
berkibar
broke
ngeledek
demonya
enggk
ngomong2
sedihmu
kurma
toefl
oleh2
spiri
berhutang
berhadiah
ngeun
jauhan
##ief
ajas
gathering
panel
panaginip
##uruti
tengil
ujaran
teen
sadarilah
##aaaaan
mbe
##ersabes
sumpahh
dicop
khal
khabar
naikkan
dipercepat
igt
estim
tweetds
heii
heav
malu2in
antre
rtm
##engkap
##ebatkan
terheran
wood
yakult
jiun
korsel
crop
scre
##otein
moodku
fakir
dinamis
gerbong
gasengaja
sehat2
perkataannya
isiin
bodoamatan
110
1001
plissss
accident
marri
bulfest
##ordir
tekun
menitan
engkaulah
alig
majalengka
bobot
dripada
tertunah
transf
mukbang
##ukumba
netesin
kulja
lebuh
internetan
bawahnya
kacangin
permain
##draw
impos
manteman
##followback
moro
table
kadrun
##sekolah
##feksi
mirip2
overhe
idealisme
eren
palest
gebukin
kolot
ngejatohin
aminnn
##ibahasa
habibi
##102
impiannya
galiat
watching
backsound
yudh
arigat
antigen
everybody
tommy
sulap
singkatnya
tattoo
pergel
mengubahnya
standby
kutunggu
aziz
##hari2019
kitalah
nyamuknya
trivia
oscar
spesif
miras
nyelam
fiersabes
pesonafestivalbatang
kekasihmu
humas
registrasi
##echia
damkar
rizieq
##wonder
tidoq
1000kat
ridha
kipop
bilng
demikianlah
nobody
##filzah
pikun
##aaahhh
ngebaca
insomnisa
minimarket
soundtrack
living
caleg
wedok
apalg
millenialstour
berperilaku
##omania
rental
tomboy
thdp
pickup
##namjha
rajo
motto
device
kdng
ferdy
kemasukan
berminyak
uring2an
keriput
figur
ditabung
sohib
mecima
santainya
laskar
xxnamjha
destinasid
banjarmasin
mengatasinya
cegahrefer
shanijkt48
diremehkan
diumumkan
memunculkan
spirulina
mendapati
independen
berkedok
vacation
yudisi
mengantarkan
berinvestasi
pulsanya
privilege
aidil
process
palmerah
##oftheday
kemunafikan
bdmd
kaisoo
blablablabla
rachel
kegantengan
impression
different
ternyaman
narasumber
karniilyas
aktris
dimaksimalkan
penurunan
nombor
bazaar
kelopak
##puribambu
##egardicarian
carniverse
monbebe
richeese
kekacauan
mentakdirkan
0821217088
##igitalpuribambu
obrolankonglomerat
kaibaek
tweetdsap
fiersabesari
pesonafestivalbatanghari2019
1000katasayang
millenialstourism
destinasidigitalpuribambu
cegahreferendumpapua
##egardicarianakstm
082121708858
2th
3bulan
5jt
64
7fc
aeg
baling
cz
cena
cnn
dye
egg
eue
glo
gess
h3
hosting
jie
kapa
klah
lose
lalang
laksana
mpe
mma
miz
mola
nop
nemb
nany
nembus
pau
pgi
paud
qi
rau
sanc
tc
wee
wgw
yara
##mie
##ais
##leee
##nr
##gam
##sb
##ratis
##rade
##cream
##cukup
##b7
##bor
##89
##erus
##eno
##enews
##inati
##ather
##amilan
diwak
seump
##emoga
##agat
##aganda
##ukau
##eng2
intim
berz
bercu
beracun
##urit
##urban
ngod
guwe
menara
gai
itumah
##olik
antum
memfitnah
semamp
##omin
juu
bani
##epasan
unc
siangan
siiii
##otol
mengar
mengaman
mengund
selasas
belaga
alka
##alucu
merayu
ami
atribut
nyaranin
bgni
kelanjutan
enk
ener
melebur
kuad
##andal
disarankan
kemanggisan
##alifa
trl
asta
penentu
##ubi
looo
stori
gitulah
tetesan
kepagian
kepemil
seny
dibujuk
kekumpul
kekampus
chorong
chajun
##iplak
abrik
arahan
arpi
drink
terlena
induk
sett
nakam
##udak
ditek
ditangis
ditrans
kecintaan
kecewakan
coe
manajer
##harap
nami
react
awasi
dipagi
dipapua
ibunda
angke
##emuab
##ogok
##reat
setiab
maung
nail
##jakbar
ago
agr
gabutuh
berkenalan
ngelucu
dubai
dilangsungkan
syar
syed
splend
lionair
bangunlah
bertempur
pergi2
tds
pesugihan
##urui
batagor
kabuto
males2an
terkon
terkirim
didikan
express
dejun
berharganya
ayuk
andalkan
kha
berlipat
bosku
semuda
##osiasi
menggila
esk
solution
081
ngebolehin
kontakan
bergaduh
suriah
##afood
ruukuhp
##ensor
beraturan
ngetok
burukmu
mamaya
parlemen
korona
instant
pura²
mondar
kante
peak
##day1
1996
memberikanmu
sinasa
lanjutannya
membacanya
psim
##quid
bulukumba
seungyeon
simpanan
butir
nominasi
fanfic
##yane
##nisasi
kulon
sebelahnya
jasad
sumut
pencerah
permainkan
basuki
tutupi
tutupin
komen2
rahsia
kawannya
sobek
ngegantung
beresiko
pale
fblb
meninggalkannya
hayat
calonnya
2008
##door
ngepoin
ditutupi
diliat2
syafi
melepasmu
bajer
haneul
western
camtu
camni
dibalesnya
##fair
dsini
afdol
cireng
prioritaskan
robb
ngemall
rated
nyiain
indonesiab
nangor
starting
sebutkan
kerumahnya
blackberry
atuhlah
spesialis
yhaaa
praktisi
hidangan
cilincing
kukatakan
##70daf
kental
colok
rizky
kapalit
kinal
bela2in
charg
kejuaraan
novelnya
lowkey
ugal
##free
milla
lukisan
addict
rossa
hhhhhhh
##urinho
gombalin
tony
concern
mangkel
berperang
hemmm
diakun
leptop
memuja
dawud
dipersalahkan
cuss
skripsinya
advice
seating
##emillion
fergus
fatinistic
##dbf
cube
jhope
proklamasi
nyemplung
aibonmemanggil
browsing
shooting
##ragil
glamor
pewaris
jntexpress
memaksimalkan
menjaganya
prayfor
##esaiin
terobsesi
menunjukkannya
ketegasan
diundi
nunggunya
meninggikan
membasahi
##diskonr
kemahalan
bermutu
diutamakan
kerumunan
shawnmendes
3333
clingy
nangkring
mengayomi
bluetick
kharismat
jenazah
myazaria
##yearswith
broadcast
penyampaian
apaansih
mengintruksikan
mengertilah
jumbo
##atomohon
termenung
indonesiadaruratasap
benamirr
dinyinyirin
alfatihah
lebuhraya
yudisium
millenialstourismcorner
7fc70daf
jntexpressid
##diskonrokok
3d
7dbf
cman
colo
fira
fame
fwb
gore
gins
hl
hv
hata
hime
ichi
jol
jia
kna
kcon
lall
mich
national
oda
pf
pori
pepet
qta
rong
roof
sory
sund
sidik
tung
taa
tmi
tumpang
uber
ucok
ze
zyl
##matan
##maaf
##movie
##daman
##oindonesia
##nga
##nite
##peng
##page
##tangan
##sehat
##rl
##ros
##roll
##jing
##vechia
##butuh
##4bo
##500
##aking
##enir
##arrr
##alala
##alaskan
##amalam
##asm
diar
dituju
diwujud
seafood
##apos
keingat
##tubuh
##ikasinya
##adw
##adit
##agah
##agung
##agangan
##ageran
##elp
##elasi
##elamat
##onic
##onomi
##nyaaa
inj
berik
bernya
bertuliskan
##idrasi
kalini
##eso
ngang
menentu
menumpang
terpa
orde
##imantan
##olitan
sama²
bisaaa
lagiiii
memak
semwa
juv
##epr
unver
undi
##lahh
sib
takaran
mengi
mengunjungi
##abuh
##abrak
alp
##iayaan
##antrop
athe
pengem
nying
membahu
pride
kelaut
kelulusan
melancarkan
##inggo
kuas
kuahnya
##andras
##opia
sesempurna
asih
penempatan
penjaj
serak
sedot
halob
kebodoh
kokk
dikag
dikonsumsi
2022
##antimur
sudahi
manila
anjin
menyibuk
##ipo
##ipr
##ipto
soeh
arena
##anjiran
bale
balair
setannya
mourinho
##embuhan
ditelan
ditempa
kecurangan
manaa
manabat
##ahahha
punye
dimak
reaction
eheheh
cerpen
##reet
naya
sekalii
susi
bebe
bebannya
krist
agamamu
berkerja
malamku
breng
bros
taong
katahati
dekati
memberkati
kakean
dilain
upin
syp
truss
meant
macbook
nike
niki
noah
##pria
gatahan
##trik
##iflam
luarbiasa
pembakaran
10x
##uraja
tikung
memperker
botardy
bism
##akhirnya
##ggu
menggarap
gilaaaa
secakep
kira²
emgnya
dipermasalahkan
##ejkt
sbelum
terpel
terpesona
jokowiwonder
riaud
weish
puting
ganteng2
jelek2in
parent
bermoral
fakk
gasss
##erhenti
kudapat
patokan
penyes
lepasni
lelak
jarang2
wahsoc
sinau
tegal
haiii
marlb
##ordan
detak
eksped
jerih
peti
##wabucin
##cool
nomernya
##untik
nabok
narut
sananya
fleksi
##imbau
ampunn
bangkai
worst
awakmu
hotman
anymore
negeri62
##sekarang
rapihin
rapopo
rapbn
festivalbung
lola
baygon
respond
kenderaan
##66e8
##caknun
bpjsmenc
kotanya
artian
someh
2006
jabatannya
gojeknya
dadaku
fotomu
wehhh
kwkwkw
tawarkan
##neo
sulung
tatoan
bocah2
scroll2
afk
##erakkan
mangsa
prioritasnya
kusam
cepa
kesialan
astaghfir
pandanglah
stars
nyeleneh
booked
tolakdiskonrokok
psikiater
ksih
obrolannya
sepaket
optimal
mosyan
caca
90an
fatwabucin
menuliskan
tajem
sksks
nggih
memanas
##bisin
##bisnis
tipes
hokben
memprov
tenggelamnya
sentil
photoshop
gondok
sheila
kompetitif
mengkonsumsi
ranking
sugih
##notis
##umumin
awokwokwok
berhari2
ciwi2
achanjkt48
##etujuan
proker
bungkusnya
##rawati
pemasangan
ruko
gumoh
cherlychibi
cookies
sasaeng
kapitalisme
tupperware
vinyl
subjektif
ngontrak
radityad
1dwins10s
beomgyu
meninggoy
gamao
memintamu
diungkapin
roger
kinclong
##omentari
##sandiwara
especially
nsfw
##zolimi
##engkalai
kekeluarga
bingkai
perilakunya
perbedaannya
malmingan
semacem
##onstax
uniqlo
sekililingmu
diploma
selengkapnya
ippo
cemerlang
victoria
nyungsep
kesehatannya
moodboster
perpustakaan
marriage
mengundurkan
setiabudi
##atomohon2019
7dbf66e8
balairung
manabatunya
wahsoccer
festivalbungatomohon2019
bpjsmencekik
92
aam
acha
bwa
btuh
dami
econ
fund
gaga
glu
gesa
gampar
kc
meb
mekan
nian
nina
oya
panti
ramb
rere
site
tada
tika
tatan
till
tongk
tobi
utusan
wer
yet
yul
##malang
##muter
##mbak
##lag
##leng
##hun
##wp
##wara
##ners
##gal
##gimana
##pg
##kir
##sej
##syah
##rent
##ryb
##cation
##cerita
##jung
##beng
##fok
##foto
##84
##akalo
diz
dieks
dicium
##ap2
##apalah
##untukan
ke2
keulang
##ihari
##ihati
##onnya
akats
##iton
##itoli
##enga
inna
berart
ngembang
##ulagi
danc
dananya
menep
menaj
menuduh
terin
gacha
yay
##ties
perannya
##olas
maul
annya
##utes
bayu
##upin
unai
sie
sicepat
##oten
mengada
jadii
sekret
dengn
##edian
##edug
##antantimur
suit
pengasih
##odis
nyisa
bgus
##tahme
bene
maker
kelanjut
kelock
enyah
baikkanlah
##ingggg
##idupin
##aye
##aysia
baru2
disemangatin
##opan
##oboro
##ontnt
penemuan
serp
##uber
kebanjiran
kepel
kepleset
dibordir
##ecker
diklat
berserakan
chika
menyeg
##lucu
org²
ardh
ska
##icinta
##embut
##embara
ditingg
siapaa
pagiii
dimaafin
##alayak
mahfud
ondel
onizuka
ongoing
dipas
dipeng
diping
dipij
dehidrasi
##epankan
agent
besokmat
brusaha
ngelanggar
karnaval
taxi
memberinya
memberitah
demand
ahj
ahahahahah
abis2
abis2nya
sangat2
menghianati
acu
acmilan
bagikan
kuroko
timb
wkwkwwk
mesem
##ujur
komod
sprt
liquid
anjirrrrr
cobaa
bertolak
telunjuk
telef
##oyok
wargan
gate
gatega
pesing
pesannya
hehh
terbengkalai
ulan
terkuras
didemo
kedek
sehati
##aaaaaaaaa
hpbd
berpuluh
semangatt
ambing
##ijik
berlawanan
fildan
menggapainya
igstory
esm
##haan
istora
stroberi
ngeber
ngebentak
kontributor
sblh
bergadang
##ucipto
slip
slesai
slmt
yuks
gemukan
ttl
pusingnya
##dio
rakyatmemanggil
##epatin
salat
pdam
pdip
jiwon
128
bermalas
balesannya
taruna
umurku
selesai2
100x
superman
clash
openvcs
pcy
edison
simply
mulutku
kahkah
butiran
mukena
##eritaan
##velvet
terjer
terjem
garasi
oneontnt
budal
sumadi
##selalu
produktivitas
kampusku
gabutnya
kesehatanmu
daring
gmbr
silau
lahirnya
heyyy
kolor
wonho
perjuanganku
byee
ngejomblo
shopeeitz
ngadem
##udahan
##ige
madina
cane
selfish
someday
2002
bohongi
folls
buruannya
melepaskannya
nonjok
sulsel
totally
##1707
keberhasilannya
takdirnya
##tttttttt
naging
natuna
groups
fox
founder
srg
raden
overthingking
##agustus
praktik
passing
lambe
##issue
editor
aaah
nadanya
##merce
powerbank
brief
mengingatkanku
##whw
dket
memanusiakan
##flag
dnger
cheat
pakaiannya
disampingku
ternama
0856893
berkelana
emoticon
moving
##uktiin
##ampions
hidungnya
bundaran
lane
##ikmatin
bjhabibie
##ksksk
mehong
##fansign
recomended
##inaldin
triple
personality
tanpanya
luhur
##rugi
mendatangi
itung2
tribune
dikomentarin
perbuatannya
tracking
psikologis
gramed
kutub
diinjak
stadium
cenat
##tayangan
gpstracker
##icyfansign
sertifikasi
dorongan
kepergianmu
diapresiasi
dinotice
riyadh
destinasinya
hansol
ironman
##0919
tangkapab
tetanggaku
tertuang
##speed
capslock
nemplok
dipinjem
membagikan
brader
negeriku
ndasmu
nafsunya
prestasinya
adisucipto
dipadukan
korporat
digebukin
robert
dipinggir
chungha
prambors
strawberry
kadaluarsa
unsealed
aliansi
ngurusi
menumbuhkan
perfeksionis
##bekasjerawat
malabro
heffra
##penuhsandiwara
alpukat
estimasi
arigatou
cenayang
selasasambat
kepemilikan
splendid
jokowiwonderfulindonesia
negeri62penuhsandiwara
somehow
memprovokasi
radityadika
##tahmeinaldin
08568931707
3rd
4k
68
650
79
aow
aoko
butu
bjir
bkal
cq
cece
cegukan
daa
dub
fd
few
gik
galanya
gantungan
halam
hint
haknya
hacker
ira
iyu
jiran
kasa
kwan
kober
laman
marti
mfm
pest
pkn
paus
pkm
salu
tingkatan
tissue
uus
ude
vina
vera
wni
yana
yeri
yela
zikir
##malem
##lil
##how
##hey
##wn
##nc
##guna
##ias
##kripsikan
##tel
##sjs
##yuh
##cari
##corn
##980
##4ever
##akh
##akali
##akala
##entur
##ince
##inriyadh
##alar
##alapak
##atab
##atria
##yaw
##yai
dianjurkan
sef
seinget
##auang
##agis
##aging
##usss
##ingis
berair
berarg
ngaf
ngatas
ngumbar
nguatin
ngumumin
menung
menagih
tertim
tertawakan
##umuskan
##ekw
##ekasi
##dahulukan
perli
tapiiii
##orant
##isaya
##oleksi
maumu
anat
memad
memej
memajang
una
uncle
##lah02
diabisin
taklukkan
##otbah
mengep
mengkriminalisasi
mengantar
mengukir
mengomentari
##uaian
##iaja
merauke
sekumpulan
adakan
##egur
##egaran
##aaang
##antina
kav
kaan
amir
sihhhh
##entok
##owali
penguji
nyewa
nyalin
nyalon
##uluan
memblokir
bentukannya
##muda
emma
makita
makro
##terkadang
##terbit
env
meluruskan
aplg
keseb
kesandung
kesananya
kuinginkan
keten
ketemen
ketrigger
##awisat
kemaks
kemageran
##oph
##ibud
penyum
seraya
dahi
stag
halang
##juu
##angguru
male
dikhawat
bersem
kekamar
manjat
tha
these
champions
##eeeng
allahh
sou
ampir
wkwwk
saki
kerjaa
iket
setlist
dirmh
dirilis
##icunya
##icloth
naka
pulas
ditemui
seperjuangan
samangayoalas
begal
isuk
bakmi
punc
eheh
onsu
dipub
anggr
masalahin
sepotong
sekaliii
susunya
##ngen
konkr
bruh
##hatin
grateful
katague
ngomen
ikut2
memanglah
up10
negaraku
##irafilzah
syedih
komuk
spg
split
tinggallah
noon
noda
gapantes
pesbuk
ott
otor
panand
kabul
polres
polaro
terkasih
didapet
didominasi
extr
pembebasan
107
104
10jt
bukn
tikt
dmnya
##ersih
hadeu
##ijinkan
board
filantrop
##mask
omdo
secer
persetujuan
habis212
diperbuat
0815
tweet2
rakit
bersyukurnya
ngebangun
ngebunuh
bergegas
gemilang
terpampang
anggurin
rebah
ohmn
curcol
yako
putaran
menangin
satpol
intervensi
critanya
cape2
##obile
bbc
fakt
##ingatkan
gerai
kerennya
1999
jaga2
jarinya
##suicideprevention
tegaknya
offgun
rambutku
pgnnya
gede2
maenin
rekrut
##ensive
ibukku
##wibawa
pilihanku
##coan
santay
##eliner
ipin
ngedm
ngedrop
malasnya
goresan
pencabutan
bicarain
mne
tmnnya
komenin
pesonawisat
##iiiin
kiro
layarnya
khusyu
bahasannya
celengan
kegagalannya
##iblat
ngejatuhin
msp
aminin
feelnya
##1010
boyf
undip
denpasar
iklanbdg
galama
diteruskan
wataru
tm29
egoisnya
tandas
##ologizet
##imarissa
jabanin
etnis
keberangkatan
keberadaannya
menyamakan
fotok
hihih
ibaratkan
##174
hahahahahha
##setiap
integr
fave
hapuskan
blacklist
covernya
audio
audimarissa
pentas
kalemweh
sepupuku
bapack
yawl
##enius
kreatifitas
ternate
disiapkan
tamak
indihom
muchomania
##mmmmm
tonjok
##solids
ngenakin
##fff2019
iduladha
origi
sdgkan
wewenang
armshare
diprotes
compare
wlpn
dimasukkan
lobster
mengulanginya
survival
buyer
memojok
dipikiranku
keyword
mfs
ceritamu
dinyanyikan
tahukahkamu
dinaikin
##444
cangkem
kicau
anjingggg
cindvia
dilaporin
berturut2
tsunade
saranghae
spekulasi
##fakta
berjuta2
pengawasan
safety
agnez
activity
kelembutan
farmasi
sholawat
ciyee
secuek
##zdesign
kecewanya
lonely
smprotect
pesonajfff2019
suzuki
skuad
israel
shallallahu
cianjur
vampire
meminjam
cassandras
profesor
mengakhirinya
##akalimantantimur
sesetengah
haikyuu
announcement
diibaratkan
seumpama
alkaff
ditangisin
zylvechia
soeharto
fleksibel
mosyanorganizer
akatsuki
besokmatikantvseharian
rakyatmemanggilcaknun
tangkapabujanda
mfmirafilzah
##terbitlah02
kemaksiatan
samangayoalasfestival2019
polaroid
filantropicloth
habis212terbitlah02
pesonawisatakalimantantimur
2pm
3jt
66
6ix
87
aoa
aespa
bamba
ctb
cetar
dbs
fasih
goo
hulu
horang
huah
ica
icu
jama
jitu
jinan
jjk
kkk
kongk
ledakan
lejen
madiun
ney
pim
pause
rye
rudi
rancang
tkn
umu
women
xtau
yel
ybs
##maran
##udh
##hq
##wik
##otivasi
##oetta
##gra
##pang
##kpop
##tis
##sad
##seb
##sasa
##scare
##yanto
##jauh
##juna
##vas
##bih
##bos
##82
##83
##anowo
##anamkan
##enia
##alinya
##amangun
##ask
##asindo
diel
diver
ditahap
sea
seisinya
##aperin
keistimewa
##emerintah
##ady
##agrand
##uko
##itma
yangyang
##usakin
injun
##etakan
berapi
berempat
ngarang
ngincer
gut
##agimana
menujukan
terno
terjual
terdahulu
terintegrasi
oriflam
##ekit
##ekkk
saiful
perpa
masok
##utik
##uhnya
##ebal
##ebye
memihak
membabi
sempr
semager
bantah
banter
##anayah
takdirkan
mengad
sele
selonj
already
meroket
sekat
untukibud
harg
sebangsa
kair
kailangan
amor
amati
amalkan
suc
suwe
pengacara
pemicunya
membiayai
keraton
lebihan
##inyapres
janganlupa
making
kelima
melaka
##inggalan
semuaaaa
kualifikasi
##andengan
##ambarkan
tros
penind
penangk
sedotan
duluuu
##uban
loud
stone
dooong
malik
kepancing
small
dibl
diblg
bersekolah
tidurmu
thesis
allahumma
ngerp
menyerta
menyingkirkan
able
abdi
mug
wakakaka
arn
arr
mencret
mencarut
drpada
indrawati
moyster
##udut
kecolongan
minusnya
minke
dimulut
akhir²
onta
dongkol
masalah2
separat
plz
maid
##empit
##saf
kron
pelbagai
brid
brook
##cious
terser
ngelatih
dilemp
##vern
utarakan
##istri
kehendaki
rasanyaa
timnya
kasmaran
davao
spec
tolongg
duitku
sebelas
ngeong
klise
matur
panic
tengkyu
baturaja
polsek
exist
expo
exchange
keduluan
followme
misaki
baguslah
mbo
semangatmu
bisalah
##eyy
imajin
ambigu
khalayak
burn
berlabuh
kecil2
jaem
##eries
##tha
giler
tugasmu
habisan
digun
sokap
ganti2
tanggepin
gemok
maluuu
nyambut
rival
##2019092
kesalahanku
##diq
tengah2
##good
yakalo
putr
putang
satelit
crack
promot
evan
pindahkan
kunyah
hija
gerangan
kudengar
kerenband
jenep
swipe
suntikan
##quir
vernon
sablon
##ugan
bntar
ekspek
##elasannya
tertampar
pier
gentayangan
bangsatt
conte
##wei
avanya
reco
oneit
ampunan
sarw
buanget
cembur
feat
nambah2
tergerak
nyanyi2
wasitnya
gtuu
berjil
impul
morowali
wajarlah
weekdays
kawula
raport
berfokus
tsunder
overload
mutualankuy
jajanin
bestfriend
binasa
irw
tanga
nasibmu
shopeeitzy
ngadat
metrop
keterpaduan
##ault
hays
kmrn2
bertanya2
200rb
stigma
tread
calling
##yalbum
dagelan
bercandain
perdagangan
ancam
##elein
bajing
kwang
sambatan
friendship
kumiliki
viana
mengubahmu
ketiban
durasinya
kitat
freedom
kelebihanmu
sejarahnya
iseng2
pijatdepok
wkwkwkwkwkwkwk
tepati
hoaks
giginya
curious
tolakjokow
##151
bencong
ngrokok
worldsuicideprevention
##nnnnnn
benderang
laaah
hidden
pegel2
067
##xxi
##buzzer
propaganda
cengo
pics
turutin
najib
hyungwon
breakdown
memantul
merekam
formalitas
bentol
kesahmu
##polos
hdp
kidquotes
08562019092
arghh
tampa
sonzdesign
mencerna
speaking
081233
eyeliner
ogahrugi
cengengesan
changbin
talking
valent
##eonstar
rohidin
mengusir
kecepetan
rezekimu
##nkri
vlognya
dianugerah
aisyah
berjam2
diinget2
hut41
ngungkit
mendeskripsikan
mengamalkan
gramedia
maav
hackers
fantasy
nadiyah
ckckckck
dilepaskan
motoin
sesukanya
blessed
disesuaikan
sohee
anonym
##martspeed
umpatan
religius
thoughts
##arasoetta
bpptsolids
bugis
##bppt
villain
saintemillion
dikembangkan
##bertarif
mnjdi
menjelekkan
linglung
arianasindo
arianagrand
##ebenernya
399ribu
seabrek
menghampirimu
sertakan
terjadilah
xixixixi
wjc2019
guardian
kekuatannya
mahathir
katakatak
onepiece
berimajinasi
dipamerin
gresik
terbebani
dinyalain
##junior
soesilo
goblockaja
kementrian
pencerahannya
glamorous
kharismatiket
ginseng
lallana
shopeeitzyalbum
penyumbang
ohmnon
cassandrasleee
untukibudanayah
kerenbandarasoetta
tsundere
shopeeitzyicyfansign
metropolitan
tolakjokowinyapres
hut41bppt
bpptsolidsmartspeed
arianagrandeonstar
3th
67
999
aim
bop
clu
fv
fia
iyakan
jka
lings
marai
mambo
nini
nub
nanc
nine
pkk
qm
qna
ragi
riri
rsa
ryan
sita
sarat
tasnya
wink
xxi
##e24
##map
##makan
##did
##lusnya
##hp
##hen
##wow
##what
##gakan
##ganteng
##iaran
##robot
##yari
##basi
##bandung
##9136
##fast
##ahana
##ahaa
##eningan
##enuhan
##ar2
##alakan
diyak
seal
kein
##emer
##agas
##elanja
##onoh
##ukar
yangg
##ingu
kalib
##uluhan
menempel
menunduk
teran
tertukar
saa
mematuhi
luahkan
##omot
##omalang
##ometer
bantim
##epatan
##eperti
takd
kita2
banyakk
##atia
algor
meratap
merengek
sekesel
karam
kartunya
##rio
##antitas
kaitannya
suic
pengalok
##odurian
membina
bench
protein
kelil
##ayati
kesinggung
kug
disenyum
disediain
kemalangan
##amber
trump
##obek
##ontarkan
penja
penajam
serap
loba
ingus
jam2
kepalsuan
smw
sentim
dibantai
dikec
dikubur
dikontrol
dikenakan
dikumandangkan
kekeuh
thar
niya
##indarin
anjenk
twin
dapati
##iput
abt
mendunia
mendirikan
arom
mencerahkan
dramamu
bolanya
sham
dirik
##unggg
skrip
movi
blk
pull
kaliya
ditanam
seperempat
kecam
cousin
court
minutes
bege
bakul
##impit
##olll
bejat
reve
reaksinya
tolitoli
dipuk
dipunya
dipamerkan
angker
platin
kraton
##ooon
##ooong
agresif
koncok
brasa
terse
dekor
diledekin
olig
pertika
ahl
upn
##003
menghormat
menghafal
idenya
timun
musta
goceng
gofud
ligh
pedalaman
bertele
ajukan
ajadeh
batur
terbagi
keder
bukalapak
cuih
biskuit
##ijing
berlangg
jaebe
bojogja
cowok2
secinta
##ejeren
0895
##usive
##cted
franch
heuu
hujatan
yeu
##ucuk
sleman
##ausaha
nyamp
nyambi
terhina
saleh
siklusnya
hrga
puaskan
maksut
kunto
dines
dinos
hias
##entuhan
islamic
gasanggup
kalahkan
forward
sehatkanlah
president
penyerahan
##iminal
##yuzaki
marga
masio
30an
##ayanin
renta
##tanpa
enggaknya
pricel
happyb
button
janin
ibukotapindah
petrus
mles
amanat
general
sanub
##enggel
##ushu
feast
tergila
wajahku
setengah2
ciki
seharus
mamas
relain
artis2
tandain
celcom
tantang
msalah
feelings
diberlakukan
newbie
boyness
pilar
salamat
mensupport
hayati
canon
somplak
ngeplay
seremnya
choice
blockchain
aslian
popcorn
restock
kumohon
dsni
pendidikannya
della
500rb
tegaan
membangunkan
ngirimin
poros
starradiopdg
wkwkwkwkwkw
##rasul
pancing
officialm
kejarlah
recehantwitter
kaospolos
yokk
prev
softcase
gubernurnya
colokan
hiruma
bmw
jambak
mengajarkanmu
tapinya
pandanganmu
yawloh
bumil
tirto
writer
pkai
ngekost
suamik
lhooo
blues
lukis
menganut
sony
tempel
tempur
tantangannya
jokowim
gimm
individual
nampar
##illaah
themusic
ngulangin
sekelilingmu
ceramahin
##abuza
[...]
